unsigned char cnn_model_tflite[] = {
  0x1c, 0x00, 0x00, 0x00, 0x54, 0x46, 0x4c, 0x33, 0x14, 0x00, 0x20, 0x00,
  0x04, 0x00, 0x08, 0x00, 0x0c, 0x00, 0x10, 0x00, 0x14, 0x00, 0x00, 0x00,
  0x18, 0x00, 0x1c, 0x00, 0x14, 0x00, 0x00, 0x00, 0x03, 0x00, 0x00, 0x00,
  0x18, 0x00, 0x00, 0x00, 0x2c, 0x00, 0x00, 0x00, 0xd8, 0x00, 0x00, 0x00,
  0x2c, 0x00, 0x00, 0x00, 0x80, 0x00, 0x00, 0x00, 0x78, 0x00, 0x00, 0x00,
  0x05, 0x00, 0x00, 0x00, 0x28, 0x07, 0x00, 0x00, 0x44, 0x06, 0x00, 0x00,
  0xbc, 0x03, 0x00, 0x00, 0xf8, 0x02, 0x00, 0x00, 0xac, 0x01, 0x00, 0x00,
  0x01, 0x00, 0x00, 0x00, 0xd0, 0x00, 0x00, 0x00, 0x14, 0x00, 0x00, 0x00,
  0xdc, 0x4e, 0x00, 0x00, 0xd8, 0x4e, 0x00, 0x00, 0xd0, 0x4d, 0x00, 0x00,
  0x1c, 0x4d, 0x00, 0x00, 0x74, 0x4c, 0x00, 0x00, 0xfc, 0x4b, 0x00, 0x00,
  0x90, 0x4b, 0x00, 0x00, 0x40, 0x13, 0x00, 0x00, 0xec, 0x11, 0x00, 0x00,
  0x10, 0x10, 0x00, 0x00, 0xb4, 0x07, 0x00, 0x00, 0xb0, 0x4e, 0x00, 0x00,
  0xac, 0x4e, 0x00, 0x00, 0xa8, 0x4e, 0x00, 0x00, 0xa4, 0x4e, 0x00, 0x00,
  0xa0, 0x4e, 0x00, 0x00, 0x9c, 0x4e, 0x00, 0x00, 0x98, 0x4e, 0x00, 0x00,
  0x94, 0x4e, 0x00, 0x00, 0x3c, 0x00, 0x00, 0x00, 0x00, 0x00, 0x00, 0x00,
  0x01, 0x00, 0x00, 0x00, 0x0c, 0x00, 0x00, 0x00, 0x08, 0x00, 0x0c, 0x00,
  0x04, 0x00, 0x08, 0x00, 0x08, 0x00, 0x00, 0x00, 0x08, 0x00, 0x00, 0x00,
  0x13, 0x00, 0x00, 0x00, 0x13, 0x00, 0x00, 0x00, 0x6d, 0x69, 0x6e, 0x5f,
  0x72, 0x75, 0x6e, 0x74, 0x69, 0x6d, 0x65, 0x5f, 0x76, 0x65, 0x72, 0x73,
  0x69, 0x6f, 0x6e, 0x00, 0xb6, 0xb2, 0xff, 0xff, 0x04, 0x00, 0x00, 0x00,
  0x10, 0x00, 0x00, 0x00, 0x31, 0x2e, 0x35, 0x2e, 0x30, 0x00, 0x00, 0x00,
  0x00, 0x00, 0x00, 0x00, 0x00, 0x00, 0x00, 0x00, 0x0f, 0x00, 0x00, 0x00,
  0x4d, 0x4c, 0x49, 0x52, 0x20, 0x43, 0x6f, 0x6e, 0x76, 0x65, 0x72, 0x74,
  0x65, 0x64, 0x2e, 0x00, 0x00, 0x00, 0x0e, 0x00, 0x18, 0x00, 0x04, 0x00,
  0x08, 0x00, 0x0c, 0x00, 0x10, 0x00, 0x14, 0x00, 0x0e, 0x00, 0x00, 0x00,
  0x14, 0x00, 0x00, 0x00, 0x5c, 0x00, 0x00, 0x00, 0x60, 0x00, 0x00, 0x00,
  0x64, 0x00, 0x00, 0x00, 0x84, 0x00, 0x00, 0x00, 0x12, 0x00, 0x00, 0x00,
  0x9c, 0x4d, 0x00, 0x00, 0x2c, 0x4d, 0x00, 0x00, 0x88, 0x4c, 0x00, 0x00,
  0xe0, 0x4b, 0x00, 0x00, 0x38, 0x4b, 0x00, 0x00, 0xd4, 0x4a, 0x00, 0x00,
  0x6c, 0x4a, 0x00, 0x00, 0x18, 0x12, 0x00, 0x00, 0xbc, 0x10, 0x00, 0x00,
  0xe0, 0x0e, 0x00, 0x00, 0x0c, 0x06, 0x00, 0x00, 0x28, 0x05, 0x00, 0x00,
  0xe8, 0x03, 0x00, 0x00, 0x3c, 0x03, 0x00, 0x00, 0x98, 0x02, 0x00, 0x00,
  0xd4, 0x01, 0x00, 0x00, 0x10, 0x01, 0x00, 0x00, 0x84, 0x00, 0x00, 0x00,
  0x01, 0x00, 0x00, 0x00, 0x00, 0x00, 0x00, 0x00, 0x01, 0x00, 0x00, 0x00,
  0x11, 0x00, 0x00, 0x00, 0x08, 0x00, 0x00, 0x00, 0x74, 0x05, 0x00, 0x00,
  0x94, 0x04, 0x00, 0x00, 0x78, 0x03, 0x00, 0x00, 0xbc, 0x02, 0x00, 0x00,
  0x30, 0x02, 0x00, 0x00, 0x50, 0x01, 0x00, 0x00, 0xa8, 0x00, 0x00, 0x00,
  0x10, 0x00, 0x00, 0x00, 0x04, 0x00, 0x00, 0x00, 0x6d, 0x61, 0x69, 0x6e,
  0x00, 0x00, 0x00, 0x00, 0x7a, 0xff, 0xff, 0xff, 0x00, 0x00, 0x00, 0x09,
  0x04, 0x00, 0x00, 0x00, 0x1c, 0x00, 0x00, 0x00, 0x10, 0x00, 0x00, 0x00,
  0x04, 0x00, 0x00, 0x00, 0xb2, 0xb3, 0xff, 0xff, 0x00, 0x00, 0x80, 0x3f,
  0x01, 0x00, 0x00, 0x00, 0x11, 0x00, 0x00, 0x00, 0x01, 0x00, 0x00, 0x00,
  0x10, 0x00, 0x00, 0x00, 0xa0, 0xfa, 0xff, 0xff, 0x19, 0x00, 0x00, 0x00,
  0x00, 0x00, 0x00, 0x19, 0x01, 0x00, 0x00, 0x00, 0x40, 0xb3, 0xff, 0xff,
  0x14, 0x00, 0x00, 0x00, 0x12, 0x00, 0x00, 0x00, 0x18, 0x00, 0x00, 0x00,
  0x30, 0x00, 0x00, 0x00, 0x20, 0x00, 0x00, 0x00, 0x02, 0x00, 0x00, 0x00,
  0x01, 0x00, 0x00, 0x00, 0x04, 0x00, 0x00, 0x00, 0x08, 0x00, 0x00, 0x00,
  0x49, 0x64, 0x65, 0x6e, 0x74, 0x69, 0x74, 0x79, 0x00, 0x00, 0x00, 0x00,
  0x02, 0x00, 0x00, 0x00, 0xff, 0xff, 0xff, 0xff, 0x04, 0x00, 0x00, 0x00,
  0x24, 0xb4, 0xff, 0xff, 0x00, 0x00, 0x0e, 0x00, 0x18, 0x00, 0x08, 0x00,
  0x0c, 0x00, 0x10, 0x00, 0x07, 0x00, 0x14, 0x00, 0x0e, 0x00, 0x00, 0x00,
  0x00, 0x00, 0x00, 0x08, 0x03, 0x00, 0x00, 0x00, 0x18, 0x00, 0x00, 0x00,
  0x0c, 0x00, 0x00, 0x00, 0x04, 0x00, 0x00, 0x00, 0x40, 0xb3, 0xff, 0xff,
  0x01, 0x00, 0x00, 0x00, 0x10, 0x00, 0x00, 0x00, 0x03, 0x00, 0x00, 0x00,
  0x0f, 0x00, 0x00, 0x00, 0x07, 0x00, 0x00, 0x00, 0x04, 0x00, 0x00, 0x00,
  0xc8, 0xb3, 0xff, 0xff, 0x14, 0x00, 0x00, 0x00, 0x11, 0x00, 0x00, 0x00,
  0x18, 0x00, 0x00, 0x00, 0x5c, 0x00, 0x00, 0x00, 0x4c, 0x00, 0x00, 0x00,
  0x02, 0x00, 0x00, 0x00, 0x01, 0x00, 0x00, 0x00, 0x04, 0x00, 0x00, 0x00,
  0x34, 0x00, 0x00, 0x00, 0x73, 0x65, 0x71, 0x75, 0x65, 0x6e, 0x74, 0x69,
  0x61, 0x6c, 0x2f, 0x64, 0x65, 0x6e, 0x73, 0x65, 0x5f, 0x31, 0x2f, 0x4d,
  0x61, 0x74, 0x4d, 0x75, 0x6c, 0x3b, 0x73, 0x65, 0x71, 0x75, 0x65, 0x6e,
  0x74, 0x69, 0x61, 0x6c, 0x2f, 0x64, 0x65, 0x6e, 0x73, 0x65, 0x5f, 0x31,
  0x2f, 0x42, 0x69, 0x61, 0x73, 0x41, 0x64, 0x64, 0x00, 0x00, 0x00, 0x00,
  0x02, 0x00, 0x00, 0x00, 0xff, 0xff, 0xff, 0xff, 0x04, 0x00, 0x00, 0x00,
  0xc8, 0xb3, 0xff, 0xff, 0xda, 0xfc, 0xff, 0xff, 0x00, 0x00, 0x00, 0x08,
  0x03, 0x00, 0x00, 0x00, 0x24, 0x00, 0x00, 0x00, 0x18, 0x00, 0x00, 0x00,
  0x0c, 0x00, 0x00, 0x00, 0x00, 0x00, 0x06, 0x00, 0x08, 0x00, 0x07, 0x00,
  0x06, 0x00, 0x00, 0x00, 0x00, 0x00, 0x00, 0x01, 0x01, 0x00, 0x00, 0x00,
  0x0f, 0x00, 0x00, 0x00, 0x03, 0x00, 0x00, 0x00, 0x0e, 0x00, 0x00, 0x00,
  0x06, 0x00, 0x00, 0x00, 0x03, 0x00, 0x00, 0x00, 0xe8, 0xfb, 0xff, 0xff,
  0x09, 0x00, 0x00, 0x00, 0x00, 0x00, 0x00, 0x09, 0x01, 0x00, 0x00, 0x00,
  0x88, 0xb4, 0xff, 0xff, 0x14, 0x00, 0x00, 0x00, 0x10, 0x00, 0x00, 0x00,
  0x18, 0x00, 0x00, 0x00, 0x6c, 0x00, 0x00, 0x00, 0x5c, 0x00, 0x00, 0x00,
  0x02, 0x00, 0x00, 0x00, 0x01, 0x00, 0x00, 0x00, 0x10, 0x00, 0x00, 0x00,
  0x46, 0x00, 0x00, 0x00, 0x73, 0x65, 0x71, 0x75, 0x65, 0x6e, 0x74, 0x69,
  0x61, 0x6c, 0x2f, 0x64, 0x65, 0x6e, 0x73, 0x65, 0x2f, 0x4d, 0x61, 0x74,
  0x4d, 0x75, 0x6c, 0x3b, 0x73, 0x65, 0x71, 0x75, 0x65, 0x6e, 0x74, 0x69,
  0x61, 0x6c, 0x2f, 0x64, 0x65, 0x6e, 0x73, 0x65, 0x2f, 0x52, 0x65, 0x6c,
  0x75, 0x3b, 0x73, 0x65, 0x71, 0x75, 0x65, 0x6e, 0x74, 0x69, 0x61, 0x6c,
  0x2f, 0x64, 0x65, 0x6e, 0x73, 0x65, 0x2f, 0x42, 0x69, 0x61, 0x73, 0x41,
  0x64, 0x64, 0x00, 0x00, 0x02, 0x00, 0x00, 0x00, 0xff, 0xff, 0xff, 0xff,
  0x10, 0x00, 0x00, 0x00, 0xa8, 0xb5, 0xff, 0xff, 0x00, 0x00, 0x0a, 0x00,
  0x10, 0x00, 0x04, 0x00, 0x08, 0x00, 0x0c, 0x00, 0x0a, 0x00, 0x00, 0x00,
  0x02, 0x00, 0x00, 0x00, 0x10, 0x00, 0x00, 0x00, 0x04, 0x00, 0x00, 0x00,
  0x01, 0x00, 0x00, 0x00, 0x0e, 0x00, 0x00, 0x00, 0x02, 0x00, 0x00, 0x00,
  0x0d, 0x00, 0x00, 0x00, 0x05, 0x00, 0x00, 0x00, 0xa8, 0xfc, 0xff, 0xff,
  0x16, 0x00, 0x00, 0x00, 0x00, 0x00, 0x00, 0x16, 0x01, 0x00, 0x00, 0x00,
  0x48, 0xb5, 0xff, 0xff, 0x14, 0x00, 0x00, 0x00, 0x0f, 0x00, 0x00, 0x00,
  0x18, 0x00, 0x00, 0x00, 0x40, 0x00, 0x00, 0x00, 0x30, 0x00, 0x00, 0x00,
  0x02, 0x00, 0x00, 0x00, 0x01, 0x00, 0x00, 0x00, 0xe0, 0x00, 0x00, 0x00,
  0x1a, 0x00, 0x00, 0x00, 0x73, 0x65, 0x71, 0x75, 0x65, 0x6e, 0x74, 0x69,
  0x61, 0x6c, 0x2f, 0x66, 0x6c, 0x61, 0x74, 0x74, 0x65, 0x6e, 0x2f, 0x52,
  0x65, 0x73, 0x68, 0x61, 0x70, 0x65, 0x00, 0x00, 0x02, 0x00, 0x00, 0x00,
  0xff, 0xff, 0xff, 0xff, 0xe0, 0x00, 0x00, 0x00, 0x2c, 0xb5, 0xff, 0xff,
  0x3e, 0xfe, 0xff, 0xff, 0x00, 0x00, 0x00, 0x05, 0x01, 0x00, 0x00, 0x00,
  0x38, 0x00, 0x00, 0x00, 0x2c, 0x00, 0x00, 0x00, 0x14, 0x00, 0x00, 0x00,
  0x00, 0x00, 0x0e, 0x00, 0x14, 0x00, 0x00, 0x00, 0x10, 0x00, 0x0c, 0x00,
  0x08, 0x00, 0x04, 0x00, 0x0e, 0x00, 0x00, 0x00, 0x03, 0x00, 0x00, 0x00,
  0x01, 0x00, 0x00, 0x00, 0x03, 0x00, 0x00, 0x00, 0x01, 0x00, 0x00, 0x00,
  0x01, 0x00, 0x00, 0x00, 0x0d, 0x00, 0x00, 0x00, 0x01, 0x00, 0x00, 0x00,
  0x0c, 0x00, 0x00, 0x00, 0xe8, 0xb5, 0xff, 0xff, 0x14, 0x00, 0x00, 0x00,
  0x0e, 0x00, 0x00, 0x00, 0x20, 0x00, 0x00, 0x00, 0x58, 0x00, 0x00, 0x00,
  0x40, 0x00, 0x00, 0x00, 0x04, 0x00, 0x00, 0x00, 0x01, 0x00, 0x00, 0x00,
  0x0e, 0x00, 0x00, 0x00, 0x01, 0x00, 0x00, 0x00, 0x10, 0x00, 0x00, 0x00,
  0x22, 0x00, 0x00, 0x00, 0x73, 0x65, 0x71, 0x75, 0x65, 0x6e, 0x74, 0x69,
  0x61, 0x6c, 0x2f, 0x6d, 0x61, 0x78, 0x5f, 0x70, 0x6f, 0x6f, 0x6c, 0x69,
  0x6e, 0x67, 0x32, 0x64, 0x5f, 0x31, 0x2f, 0x4d, 0x61, 0x78, 0x50, 0x6f,
  0x6f, 0x6c, 0x00, 0x00, 0x04, 0x00, 0x00, 0x00, 0xff, 0xff, 0xff, 0xff,
  0x0e, 0x00, 0x00, 0x00, 0x01, 0x00, 0x00, 0x00, 0x10, 0x00, 0x00, 0x00,
  0xe4, 0xb5, 0xff, 0xff, 0x1a, 0xfe, 0xff, 0xff, 0x00, 0x00, 0x00, 0x01,
  0x24, 0x00, 0x00, 0x00, 0x18, 0x00, 0x00, 0x00, 0x04, 0x00, 0x00, 0x00,
  0x0c, 0xfe, 0xff, 0xff, 0x01, 0x00, 0x00, 0x00, 0x01, 0x00, 0x00, 0x00,
  0x00, 0x00, 0x00, 0x01, 0x01, 0x00, 0x00, 0x00, 0x0c, 0x00, 0x00, 0x00,
  0x03, 0x00, 0x00, 0x00, 0x0b, 0x00, 0x00, 0x00, 0x09, 0x00, 0x00, 0x00,
  0x02, 0x00, 0x00, 0x00, 0x90, 0xb6, 0xff, 0xff, 0x14, 0x00, 0x00, 0x00,
  0x0d, 0x00, 0x00, 0x00, 0x20, 0x00, 0x00, 0x00, 0xb8, 0x00, 0x00, 0x00,
  0xa0, 0x00, 0x00, 0x00, 0x04, 0x00, 0x00, 0x00, 0x01, 0x00, 0x00, 0x00,
  0x2a, 0x00, 0x00, 0x00, 0x01, 0x00, 0x00, 0x00, 0x10, 0x00, 0x00, 0x00,
  0x83, 0x00, 0x00, 0x00, 0x73, 0x65, 0x71, 0x75, 0x65, 0x6e, 0x74, 0x69,
  0x61, 0x6c, 0x2f, 0x63, 0x6f, 0x6e, 0x76, 0x32, 0x64, 0x5f, 0x31, 0x2f,
  0x52, 0x65, 0x6c, 0x75, 0x3b, 0x73, 0x65, 0x71, 0x75, 0x65, 0x6e, 0x74,
  0x69, 0x61, 0x6c, 0x2f, 0x63, 0x6f, 0x6e, 0x76, 0x32, 0x64, 0x5f, 0x31,
  0x2f, 0x42, 0x69, 0x61, 0x73, 0x41, 0x64, 0x64, 0x3b, 0x73, 0x65, 0x71,
  0x75, 0x65, 0x6e, 0x74, 0x69, 0x61, 0x6c, 0x2f, 0x63, 0x6f, 0x6e, 0x76,
  0x32, 0x64, 0x5f, 0x31, 0x2f, 0x43, 0x6f, 0x6e, 0x76, 0x32, 0x44, 0x3b,
  0x73, 0x65, 0x71, 0x75, 0x65, 0x6e, 0x74, 0x69, 0x61, 0x6c, 0x2f, 0x63,
  0x6f, 0x6e, 0x76, 0x32, 0x64, 0x5f, 0x31, 0x2f, 0x42, 0x69, 0x61, 0x73,
  0x41, 0x64, 0x64, 0x2f, 0x52, 0x65, 0x61, 0x64, 0x56, 0x61, 0x72, 0x69,
  0x61, 0x62, 0x6c, 0x65, 0x4f, 0x70, 0x2f, 0x72, 0x65, 0x73, 0x6f, 0x75,
  0x72, 0x63, 0x65, 0x00, 0x04, 0x00, 0x00, 0x00, 0xff, 0xff, 0xff, 0xff,
  0x2a, 0x00, 0x00, 0x00, 0x01, 0x00, 0x00, 0x00, 0x10, 0x00, 0x00, 0x00,
  0xfc, 0xb7, 0xff, 0xff, 0x00, 0x00, 0x0e, 0x00, 0x1a, 0x00, 0x08, 0x00,
  0x0c, 0x00, 0x10, 0x00, 0x07, 0x00, 0x14, 0x00, 0x0e, 0x00, 0x00, 0x00,
  0x00, 0x00, 0x00, 0x05, 0x01, 0x00, 0x00, 0x00, 0x3c, 0x00, 0x00, 0x00,
  0x30, 0x00, 0x00, 0x00, 0x14, 0x00, 0x00, 0x00, 0x00, 0x00, 0x0e, 0x00,
  0x18, 0x00, 0x17, 0x00, 0x10, 0x00, 0x0c, 0x00, 0x08, 0x00, 0x04, 0x00,
  0x0e, 0x00, 0x00, 0x00, 0x03, 0x00, 0x00, 0x00, 0x03, 0x00, 0x00, 0x00,
  0x03, 0x00, 0x00, 0x00, 0x03, 0x00, 0x00, 0x00, 0x00, 0x00, 0x00, 0x01,
  0x01, 0x00, 0x00, 0x00, 0x0b, 0x00, 0x00, 0x00, 0x01, 0x00, 0x00, 0x00,
  0x0a, 0x00, 0x00, 0x00, 0x2c, 0xff, 0xff, 0xff, 0x11, 0x00, 0x00, 0x00,
  0x00, 0x00, 0x00, 0x11, 0x01, 0x00, 0x00, 0x00, 0xcc, 0xb7, 0xff, 0xff,
  0x14, 0x00, 0x00, 0x00, 0x0c, 0x00, 0x00, 0x00, 0x20, 0x00, 0x00, 0x00,
  0x58, 0x00, 0x00, 0x00, 0x40, 0x00, 0x00, 0x00, 0x04, 0x00, 0x00, 0x00,
  0x01, 0x00, 0x00, 0x00, 0x2a, 0x00, 0x00, 0x00, 0x01, 0x00, 0x00, 0x00,
  0x08, 0x00, 0x00, 0x00, 0x20, 0x00, 0x00, 0x00, 0x73, 0x65, 0x71, 0x75,
  0x65, 0x6e, 0x74, 0x69, 0x61, 0x6c, 0x2f, 0x6d, 0x61, 0x78, 0x5f, 0x70,
  0x6f, 0x6f, 0x6c, 0x69, 0x6e, 0x67, 0x32, 0x64, 0x2f, 0x4d, 0x61, 0x78,
  0x50, 0x6f, 0x6f, 0x6c, 0x00, 0x00, 0x00, 0x00, 0x04, 0x00, 0x00, 0x00,
  0xff, 0xff, 0xff, 0xff, 0x2a, 0x00, 0x00, 0x00, 0x01, 0x00, 0x00, 0x00,
  0x08, 0x00, 0x00, 0x00, 0xd8, 0xb8, 0xff, 0xff, 0x00, 0x00, 0x0e, 0x00,
  0x14, 0x00, 0x00, 0x00, 0x08, 0x00, 0x0c, 0x00, 0x07, 0x00, 0x10, 0x00,
  0x0e, 0x00, 0x00, 0x00, 0x00, 0x00, 0x00, 0x01, 0x30, 0x00, 0x00, 0x00,
  0x24, 0x00, 0x00, 0x00, 0x10, 0x00, 0x00, 0x00, 0x0c, 0x00, 0x10, 0x00,
  0x00, 0x00, 0x04, 0x00, 0x08, 0x00, 0x0f, 0x00, 0x0c, 0x00, 0x00, 0x00,
  0x01, 0x00, 0x00, 0x00, 0x01, 0x00, 0x00, 0x00, 0x00, 0x00, 0x00, 0x01,
  0x01, 0x00, 0x00, 0x00, 0x0a, 0x00, 0x00, 0x00, 0x03, 0x00, 0x00, 0x00,
  0x00, 0x00, 0x00, 0x00, 0x08, 0x00, 0x00, 0x00, 0x01, 0x00, 0x00, 0x00,
  0x0c, 0x00, 0x10, 0x00, 0x0b, 0x00, 0x00, 0x00, 0x0c, 0x00, 0x04, 0x00,
  0x0c, 0x00, 0x00, 0x00, 0x03, 0x00, 0x00, 0x00, 0x00, 0x00, 0x00, 0x03,
  0x01, 0x00, 0x00, 0x00, 0xac, 0xb8, 0xff, 0xff, 0x14, 0x00, 0x00, 0x00,
  0x0b, 0x00, 0x00, 0x00, 0x20, 0x00, 0x00, 0x00, 0xb0, 0x00, 0x00, 0x00,
  0x98, 0x00, 0x00, 0x00, 0x04, 0x00, 0x00, 0x00, 0x01, 0x00, 0x00, 0x00,
  0x80, 0x00, 0x00, 0x00, 0x03, 0x00, 0x00, 0x00, 0x08, 0x00, 0x00, 0x00,
  0x7b, 0x00, 0x00, 0x00, 0x73, 0x65, 0x71, 0x75, 0x65, 0x6e, 0x74, 0x69,
  0x61, 0x6c, 0x2f, 0x63, 0x6f, 0x6e, 0x76, 0x32, 0x64, 0x2f, 0x52, 0x65,
  0x6c, 0x75, 0x3b, 0x73, 0x65, 0x71, 0x75, 0x65, 0x6e, 0x74, 0x69, 0x61,
  0x6c, 0x2f, 0x63, 0x6f, 0x6e, 0x76, 0x32, 0x64, 0x2f, 0x42, 0x69, 0x61,
  0x73, 0x41, 0x64, 0x64, 0x3b, 0x73, 0x65, 0x71, 0x75, 0x65, 0x6e, 0x74,
  0x69, 0x61, 0x6c, 0x2f, 0x63, 0x6f, 0x6e, 0x76, 0x32, 0x64, 0x2f, 0x43,
  0x6f, 0x6e, 0x76, 0x32, 0x44, 0x3b, 0x73, 0x65, 0x71, 0x75, 0x65, 0x6e,
  0x74, 0x69, 0x61, 0x6c, 0x2f, 0x63, 0x6f, 0x6e, 0x76, 0x32, 0x64, 0x2f,
  0x42, 0x69, 0x61, 0x73, 0x41, 0x64, 0x64, 0x2f, 0x52, 0x65, 0x61, 0x64,
  0x56, 0x61, 0x72, 0x69, 0x61, 0x62, 0x6c, 0x65, 0x4f, 0x70, 0x2f, 0x72,
  0x65, 0x73, 0x6f, 0x75, 0x72, 0x63, 0x65, 0x00, 0x04, 0x00, 0x00, 0x00,
  0xff, 0xff, 0xff, 0xff, 0x80, 0x00, 0x00, 0x00, 0x03, 0x00, 0x00, 0x00,
  0x08, 0x00, 0x00, 0x00, 0x00, 0xb9, 0xff, 0xff, 0x0a, 0xba, 0xff, 0xff,
  0x04, 0x00, 0x00, 0x00, 0x00, 0x08, 0x00, 0x00, 0xac, 0x12, 0xfd, 0xbe,
  0x87, 0x98, 0x39, 0xbf, 0x1f, 0x4c, 0x18, 0xbf, 0xa2, 0x43, 0xde, 0xbe,
  0x10, 0xcb, 0xa8, 0xbe, 0x02, 0x09, 0x1d, 0xbf, 0xf4, 0x70, 0xf1, 0xbe,
  0xff, 0x10, 0x30, 0xbf, 0x87, 0xdd, 0x3a, 0xbe, 0x2e, 0x2f, 0x40, 0x3f,
  0xfc, 0xb5, 0x4b, 0xbd, 0xf7, 0x3a, 0x98, 0x3d, 0xb5, 0xd9, 0x8b, 0x3e,
  0x43, 0xe4, 0x95, 0xbe, 0xa7, 0xf5, 0xa2, 0xbe, 0x5e, 0x72, 0xb1, 0x3e,
  0xa4, 0x30, 0x29, 0xbe, 0x34, 0x9a, 0x47, 0x3e, 0x55, 0xf0, 0xa2, 0xbd,
  0x52, 0x7f, 0x76, 0x3e, 0xdd, 0xce, 0x8c, 0xbd, 0x2b, 0x74, 0x8e, 0xbe,
  0x70, 0x4f, 0x05, 0xbe, 0x43, 0x81, 0x0d, 0xbe, 0x61, 0x05, 0x0f, 0xbd,
  0x90, 0x34, 0x1b, 0x3e, 0x60, 0x02, 0x8f, 0xbc, 0x25, 0x9b, 0xd6, 0x3d,
  0xe8, 0xb4, 0x18, 0x3d, 0xa0, 0x00, 0x49, 0xbd, 0x03, 0x10, 0x39, 0xbe,
  0x4c, 0x6c, 0x78, 0xbd, 0x94, 0x37, 0x30, 0x3e, 0x0b, 0x3c, 0x0c, 0xbf,
  0x1f, 0xac, 0x92, 0xbd, 0x3d, 0x22, 0x0f, 0xbb, 0x68, 0x0d, 0xb4, 0xbd,
  0x73, 0x09, 0x7a, 0xbf, 0x6c, 0x9a, 0x35, 0xbf, 0xb2, 0x8c, 0x0d, 0xbd,
  0x9c, 0x5b, 0x52, 0xbd, 0x58, 0xd4, 0xa1, 0xbe, 0x6f, 0xe0, 0xcd, 0x3d,
  0x71, 0x9c, 0xca, 0x3e, 0x85, 0x02, 0xaa, 0x3d, 0xcc, 0x72, 0x82, 0xbe,
  0x73, 0x32, 0xf0, 0x3d, 0x16, 0xa6, 0xfd, 0xbd, 0x22, 0x37, 0x10, 0xbe,
  0x67, 0xf4, 0xd4, 0xbe, 0x87, 0x77, 0x34, 0xbd, 0xea, 0xe0, 0x91, 0xbd,
  0xab, 0x2c, 0x9c, 0xbe, 0x85, 0xb7, 0x12, 0xbf, 0x29, 0xbc, 0x00, 0xbf,
  0x39, 0x15, 0x90, 0xbe, 0x31, 0xad, 0xc9, 0xbd, 0x69, 0xdc, 0xec, 0xbe,
  0xc2, 0x3d, 0x75, 0x3e, 0x3a, 0x8e, 0x7b, 0x3e, 0x70, 0xd9, 0x3d, 0xbd,
  0x05, 0xd6, 0x5b, 0xbe, 0xbe, 0x5e, 0x93, 0xbd, 0x65, 0x58, 0xd8, 0xbe,
  0xc6, 0xaf, 0x54, 0xbe, 0xe1, 0x42, 0x5e, 0xbe, 0x05, 0x54, 0x95, 0x3d,
  0x6e, 0x85, 0xa8, 0x3d, 0x24, 0x24, 0x0d, 0x3d, 0x24, 0xe7, 0xb9, 0xbd,
  0xff, 0x41, 0x88, 0xbd, 0x88, 0x8d, 0x16, 0xbd, 0xa4, 0x3d, 0x5b, 0xbd,
  0xd8, 0x8e, 0x91, 0xbe, 0x57, 0x04, 0x85, 0xbd, 0xec, 0x20, 0x32, 0xbe,
  0x11, 0x28, 0x31, 0xbe, 0x62, 0xf6, 0xbf, 0xbd, 0x39, 0x0b, 0x79, 0xbd,
  0x8b, 0x73, 0x09, 0x3f, 0x47, 0x4e, 0xb9, 0xbc, 0x02, 0x2d, 0x9d, 0xbd,
  0xd5, 0x74, 0xfa, 0xbd, 0x2a, 0x59, 0x48, 0xbe, 0x13, 0x65, 0xdc, 0xbd,
  0x1a, 0x91, 0xc9, 0xbd, 0x36, 0x1e, 0x2d, 0xbd, 0xbb, 0x25, 0x3c, 0x3d,
  0x9b, 0x50, 0x81, 0x3e, 0xb0, 0xea, 0xa6, 0x3c, 0x0a, 0xf0, 0xae, 0xbd,
  0x9d, 0xf2, 0x84, 0xbd, 0x50, 0x71, 0xc2, 0xbd, 0xe7, 0x57, 0xa5, 0xbc,
  0x5a, 0x8f, 0x9f, 0x3d, 0x88, 0x07, 0x17, 0xbc, 0xb1, 0xab, 0xc7, 0x3d,
  0x4b, 0x59, 0xc3, 0x3d, 0xfc, 0xd6, 0x5d, 0x3e, 0xd8, 0x82, 0x33, 0xbb,
  0x72, 0xf1, 0xdc, 0x3d, 0x26, 0xea, 0xb0, 0x3e, 0x9c, 0x91, 0x18, 0x3e,
  0x38, 0xa5, 0x4e, 0x3d, 0x8a, 0x40, 0x5b, 0x3d, 0x25, 0x50, 0xd4, 0x3d,
  0x0e, 0xf7, 0xa7, 0x3b, 0x11, 0xed, 0x4b, 0x3c, 0xe8, 0x13, 0xcf, 0x3d,
  0xe6, 0x75, 0xb9, 0xbd, 0xd7, 0xed, 0xc7, 0xbe, 0xc0, 0x96, 0x69, 0xbd,
  0x61, 0x48, 0x58, 0x3b, 0xfc, 0xea, 0x82, 0xbf, 0xdd, 0x49, 0x09, 0xbb,
  0x98, 0x73, 0x00, 0x3d, 0xc2, 0xfd, 0x72, 0x3d, 0x82, 0xf5, 0x0f, 0xbf,
  0x2c, 0xb6, 0x9a, 0xbf, 0x96, 0x3e, 0xeb, 0xbd, 0x5d, 0xab, 0x4e, 0xbd,
  0x45, 0xc5, 0xda, 0xbf, 0x69, 0x59, 0xde, 0xba, 0xd3, 0xd5, 0xba, 0xbd,
  0xbd, 0x05, 0x2d, 0xbd, 0x40, 0x4a, 0x68, 0xbf, 0x78, 0xa3, 0x8a, 0xbf,
  0x97, 0xc3, 0x56, 0xbd, 0xe5, 0x7b, 0xb6, 0xbd, 0xaf, 0x2f, 0xa4, 0xbd,
  0x8b, 0xed, 0xf7, 0x3d, 0x1a, 0x81, 0x79, 0xbe, 0x20, 0xf3, 0x51, 0xbe,
  0x10, 0x98, 0x31, 0x3e, 0x42, 0xdc, 0xc8, 0xbd, 0x53, 0x8a, 0x1f, 0x3c,
  0x83, 0x71, 0xe5, 0xbc, 0x78, 0x3b, 0x31, 0xbe, 0xa5, 0x42, 0xb8, 0x3a,
  0xe6, 0xd6, 0x6d, 0xbe, 0xc6, 0xcf, 0x28, 0xbd, 0x2c, 0xb8, 0x23, 0x3e,
  0x28, 0x88, 0xb2, 0x3e, 0xf9, 0x51, 0x7d, 0xbd, 0xac, 0x43, 0x02, 0xbd,
  0xfb, 0xf4, 0x1a, 0xbc, 0xce, 0xb7, 0xc1, 0x3d, 0xbf, 0x53, 0x7c, 0xbe,
  0x32, 0x42, 0x82, 0x3d, 0x8c, 0x85, 0x39, 0xbd, 0x7d, 0xd0, 0x7e, 0xbc,
  0xef, 0xf9, 0x45, 0xbd, 0xd2, 0xed, 0x2b, 0x3d, 0x14, 0x81, 0xf8, 0xbd,
  0xfa, 0xd3, 0x5e, 0x3d, 0x65, 0xbc, 0x66, 0xbe, 0x8e, 0x8f, 0xfa, 0xbd,
  0x3b, 0x9c, 0x5a, 0xbd, 0x5e, 0x9b, 0x88, 0x3e, 0x2c, 0x29, 0x19, 0xbe,
  0x35, 0xe0, 0xa5, 0xbd, 0x8e, 0xce, 0x49, 0xbd, 0xe7, 0x04, 0x99, 0xbd,
  0xb0, 0x38, 0xc6, 0x3c, 0x26, 0x27, 0x42, 0x3d, 0x9c, 0x4d, 0x97, 0xbe,
  0xde, 0xaa, 0x93, 0xbe, 0x07, 0xe3, 0xe5, 0x3d, 0xe0, 0x2d, 0x7a, 0x3d,
  0x59, 0xa2, 0x2c, 0x3e, 0xa3, 0x4d, 0x0e, 0x3e, 0x1c, 0x16, 0x27, 0xbe,
  0x1b, 0x51, 0xda, 0xbc, 0x4c, 0xdc, 0xac, 0xbe, 0x87, 0x3f, 0x85, 0xbe,
  0x0e, 0x27, 0x9e, 0x3e, 0x09, 0x46, 0x32, 0x3d, 0x1f, 0x9d, 0xa4, 0xbd,
  0x53, 0x77, 0x9d, 0xbd, 0xdd, 0xf0, 0xea, 0x3d, 0x82, 0x9f, 0x0a, 0x3e,
  0xed, 0x0c, 0x97, 0xbe, 0xb5, 0x00, 0x34, 0xbe, 0x8f, 0x05, 0xad, 0xbe,
  0xf5, 0x78, 0xaf, 0x3b, 0xd2, 0x8b, 0x0b, 0xbe, 0x77, 0xca, 0x7d, 0xbd,
  0x62, 0x85, 0xe3, 0x3d, 0x3a, 0x09, 0x0a, 0xbd, 0x20, 0x6f, 0x9e, 0x3e,
  0xaa, 0x29, 0xff, 0x3e, 0x10, 0xfe, 0x3f, 0xbe, 0x20, 0xb4, 0x22, 0x3e,
  0xaf, 0xd6, 0xa5, 0x3c, 0xb1, 0x98, 0xb7, 0x3c, 0xe5, 0x26, 0xbd, 0x3e,
  0x25, 0xdc, 0xeb, 0x3d, 0x2a, 0x73, 0xad, 0xbd, 0xdd, 0x18, 0xf4, 0xbd,
  0x77, 0x5d, 0x43, 0x3e, 0x42, 0x8b, 0x18, 0x3d, 0x0e, 0x37, 0x91, 0xbd,
  0x65, 0x4e, 0x5f, 0xbc, 0x2b, 0xab, 0x96, 0x3e, 0xec, 0x21, 0x0f, 0x3e,
  0x3e, 0xda, 0x53, 0xbe, 0xfc, 0x1b, 0x76, 0xbe, 0x78, 0x85, 0x5d, 0xbe,
  0xca, 0x3e, 0x80, 0xbd, 0x90, 0x4e, 0xba, 0xbc, 0xc6, 0x45, 0xa4, 0xbd,
  0x24, 0x86, 0x41, 0xbd, 0xd8, 0xc7, 0x0b, 0x3e, 0xf1, 0xa3, 0x23, 0xbe,
  0xc8, 0x34, 0x6b, 0xbe, 0xa5, 0x1a, 0xa0, 0xbe, 0x44, 0x8f, 0x0e, 0xbe,
  0x1f, 0x6c, 0x02, 0xbd, 0x60, 0x07, 0x56, 0xbe, 0xd6, 0x5f, 0x40, 0xbe,
  0x23, 0x02, 0x7f, 0x3d, 0x12, 0x69, 0x06, 0xbe, 0x3a, 0x7e, 0x5c, 0xbe,
  0x6d, 0x3f, 0x61, 0xbe, 0xb2, 0xaa, 0x3a, 0xbe, 0x07, 0xd0, 0x71, 0xbd,
  0xb7, 0xa7, 0x1b, 0xbe, 0x37, 0xfe, 0x25, 0xbe, 0xa6, 0x33, 0x40, 0xbd,
  0xb5, 0x35, 0x93, 0x3d, 0x35, 0x6b, 0x1a, 0x3f, 0x42, 0x27, 0xe4, 0xbd,
  0x03, 0x13, 0x3f, 0xbe, 0x36, 0x5e, 0xa8, 0x3c, 0xfc, 0x30, 0xb5, 0x3c,
  0x3b, 0x06, 0xfe, 0xbd, 0x48, 0x5c, 0x27, 0x3e, 0x56, 0x7b, 0x8c, 0xbd,
  0xa5, 0x87, 0xe4, 0xbd, 0xe5, 0x57, 0x99, 0xbd, 0xb5, 0x6a, 0x5a, 0xbe,
  0x8b, 0x6c, 0xd5, 0x3d, 0x7a, 0x86, 0xf8, 0xbb, 0x2f, 0x38, 0x66, 0x3d,
  0x02, 0x54, 0xfb, 0xbd, 0xd6, 0xd9, 0x05, 0xbe, 0xc1, 0x86, 0xad, 0xbd,
  0x81, 0xe0, 0x9c, 0x3e, 0x0b, 0x0e, 0x04, 0xbd, 0xa3, 0x73, 0x64, 0xbe,
  0x02, 0x5e, 0xbf, 0x3d, 0xe5, 0x31, 0xd2, 0x3d, 0x9d, 0xd4, 0x39, 0xbe,
  0xff, 0xf5, 0x1f, 0xbe, 0xe8, 0xfa, 0x1f, 0xbe, 0x60, 0xc2, 0x47, 0x3c,
  0x35, 0xa0, 0xd2, 0x3d, 0x78, 0xa5, 0x15, 0x3d, 0x36, 0xb3, 0x09, 0xbf,
  0x49, 0x4d, 0xc3, 0xbe, 0xb5, 0x50, 0x5a, 0xbe, 0x2b, 0x75, 0x24, 0xbd,
  0x66, 0x81, 0x65, 0x3c, 0xd5, 0x1b, 0x92, 0x3d, 0xe9, 0xe1, 0xd7, 0x3e,
  0xcf, 0x32, 0xf1, 0x3a, 0x7a, 0x63, 0x9e, 0xbe, 0xe1, 0x59, 0xfa, 0xbe,
  0x9f, 0x0b, 0x19, 0xbe, 0xf9, 0xb2, 0x86, 0xbc, 0xaa, 0xc1, 0xc6, 0x3c,
  0x53, 0xa8, 0x63, 0xbd, 0xaa, 0x81, 0x3d, 0xbd, 0x94, 0x6c, 0x99, 0x3e,
  0x96, 0xab, 0x57, 0xbe, 0xf5, 0xa3, 0xa7, 0xbe, 0x0d, 0x17, 0x8a, 0xbe,
  0x68, 0x19, 0x1f, 0x3c, 0xb1, 0x20, 0x5c, 0x3c, 0x7a, 0xc1, 0x1b, 0x3e,
  0x48, 0x30, 0xa4, 0xbd, 0x7b, 0xea, 0x96, 0xbd, 0xd7, 0x42, 0xad, 0x3e,
  0x25, 0xd2, 0xe4, 0xbd, 0xac, 0x29, 0x9b, 0xbe, 0x3f, 0xbf, 0x93, 0xbd,
  0x6f, 0xd1, 0xf9, 0xbd, 0xdb, 0x2f, 0x2a, 0x3e, 0x51, 0x17, 0x8f, 0xbd,
  0xa2, 0x78, 0x0c, 0xbf, 0xd9, 0xf0, 0x2b, 0xbf, 0x61, 0x3a, 0x06, 0xbf,
  0x03, 0x5d, 0x70, 0xbe, 0x7b, 0xa2, 0x20, 0xbf, 0xe6, 0x37, 0xf1, 0xbe,
  0xac, 0xda, 0x32, 0xbe, 0x5a, 0xac, 0x6f, 0x3e, 0x4d, 0xb1, 0x9d, 0x3e,
  0xe4, 0x56, 0xb5, 0xbe, 0x6e, 0x46, 0xb1, 0xbd, 0xb4, 0x76, 0xff, 0xbc,
  0x51, 0xbf, 0x07, 0xbe, 0x87, 0x93, 0x97, 0xbd, 0x5d, 0x68, 0xc9, 0xbd,
  0xaf, 0x6b, 0x86, 0x3e, 0xad, 0x44, 0xa8, 0x3e, 0xd9, 0xa9, 0x8e, 0xbe,
  0xb4, 0x25, 0x01, 0x3e, 0xfe, 0x96, 0xe6, 0xbc, 0xd7, 0x3b, 0x11, 0xbd,
  0x4d, 0x59, 0x34, 0xbd, 0xa2, 0x62, 0xfc, 0x3b, 0xca, 0x44, 0xdc, 0x3c,
  0xc7, 0x39, 0x54, 0x3d, 0x6c, 0x16, 0x72, 0xbe, 0x20, 0x66, 0x05, 0x3e,
  0xff, 0x58, 0xc2, 0x3c, 0x71, 0x50, 0xbc, 0xbc, 0x35, 0xeb, 0xe0, 0x3d,
  0x00, 0x65, 0x09, 0xbb, 0xec, 0x14, 0x7b, 0xbc, 0xf1, 0x0a, 0x4d, 0xbe,
  0x8b, 0x3b, 0x01, 0xbd, 0xa8, 0xeb, 0x3e, 0x3d, 0x36, 0xf8, 0x4a, 0x3e,
  0x9d, 0x29, 0x4d, 0x3d, 0x52, 0x38, 0x8d, 0xb9, 0xf8, 0xcb, 0x11, 0xbe,
  0xcb, 0xda, 0xf7, 0xbd, 0x89, 0x84, 0x30, 0xbe, 0xc0, 0x76, 0x8c, 0xbc,
  0xbd, 0x31, 0xf7, 0xbd, 0xd6, 0x34, 0x2a, 0xbd, 0x66, 0xaa, 0xce, 0x3e,
  0x91, 0x07, 0xa8, 0x3c, 0x96, 0x3f, 0xc0, 0xbd, 0x81, 0xae, 0x2f, 0xbe,
  0x68, 0xa3, 0x05, 0xbe, 0xe2, 0x19, 0x53, 0x3d, 0x37, 0xe4, 0x85, 0xbe,
  0xa7, 0x17, 0xdd, 0xbd, 0x48, 0x41, 0x01, 0xbe, 0xc8, 0x40, 0xb7, 0xbd,
  0x7f, 0xc6, 0x69, 0xbd, 0x8b, 0x30, 0x71, 0xbe, 0x69, 0x5d, 0x09, 0xbe,
  0xdc, 0xd4, 0xcf, 0x3e, 0xb7, 0xd9, 0x90, 0xbe, 0x01, 0x16, 0xf7, 0xbe,
  0xb3, 0x7d, 0x1d, 0xbe, 0xb4, 0xc4, 0x1e, 0xbe, 0x70, 0xc3, 0xe3, 0x3d,
  0x9d, 0x19, 0x8f, 0x3e, 0x10, 0xba, 0x09, 0x3e, 0xd0, 0x59, 0xaa, 0xbe,
  0xcf, 0x93, 0x87, 0x3a, 0x58, 0xd8, 0x9c, 0x3e, 0x00, 0x4a, 0x90, 0xbe,
  0xf2, 0x3e, 0x3b, 0xbe, 0xbf, 0xd1, 0x4e, 0xbe, 0xcd, 0xde, 0xf8, 0x3d,
  0x17, 0x63, 0xd1, 0xbd, 0xc8, 0x3a, 0x46, 0xbf, 0x14, 0x3f, 0x72, 0x3d,
  0xc4, 0xbf, 0x13, 0x3f, 0x25, 0xfb, 0x98, 0xbe, 0xd6, 0xf8, 0x26, 0xbe,
  0x77, 0x9b, 0xcf, 0xbe, 0x03, 0x31, 0xa6, 0xbe, 0x7c, 0x2b, 0x22, 0xbd,
  0x82, 0x6a, 0x05, 0x3d, 0x3d, 0x8c, 0x17, 0x3e, 0x9a, 0x23, 0x0f, 0xbd,
  0xb5, 0xd9, 0xc9, 0x3c, 0x14, 0x04, 0xe0, 0x3d, 0x75, 0x74, 0x76, 0xbe,
  0x1f, 0x12, 0xfd, 0xbe, 0x09, 0x70, 0xd3, 0xbd, 0xdd, 0x19, 0x92, 0x3e,
  0xac, 0x76, 0x17, 0xbe, 0x3e, 0x50, 0xb1, 0xbe, 0xe5, 0x0a, 0xd6, 0x3d,
  0x61, 0x34, 0xf1, 0x3d, 0xee, 0xc1, 0x0b, 0xbe, 0x1d, 0x1a, 0x47, 0xbe,
  0x7a, 0xe6, 0xb7, 0x3d, 0xb4, 0x45, 0x8d, 0xbd, 0x03, 0x3f, 0x75, 0xbc,
  0x40, 0x3c, 0x4c, 0xbe, 0x6f, 0xbb, 0x6a, 0xbe, 0x56, 0xcf, 0xea, 0xbd,
  0x31, 0x45, 0x82, 0xbe, 0x60, 0x7d, 0x8d, 0xbe, 0x85, 0x23, 0x00, 0xbe,
  0xb1, 0x30, 0x6b, 0xbe, 0x31, 0xfa, 0x95, 0x3c, 0x75, 0x3e, 0xac, 0xbe,
  0x32, 0x4a, 0xad, 0x3c, 0x83, 0xdb, 0x3d, 0x3d, 0xd5, 0x13, 0xb5, 0xbe,
  0x52, 0xb4, 0x85, 0xbe, 0x45, 0xb6, 0x12, 0x3d, 0x98, 0xa4, 0x97, 0x3c,
  0xd8, 0x7d, 0xc2, 0xbb, 0x79, 0xd5, 0x54, 0xbe, 0xd7, 0x9b, 0xb9, 0xbd,
  0x8a, 0x0d, 0x72, 0xbd, 0x98, 0x88, 0xfa, 0xbb, 0x27, 0x49, 0xcf, 0xbd,
  0xe7, 0x7f, 0xff, 0xbc, 0x7a, 0x8f, 0xdf, 0xbd, 0x1f, 0xaf, 0x66, 0xbe,
  0xad, 0x15, 0xbf, 0x3d, 0x60, 0xef, 0x26, 0xbe, 0xf2, 0xff, 0xea, 0x3d,
  0xc9, 0xf0, 0x1f, 0xbe, 0xeb, 0xb0, 0xa9, 0x3e, 0xfc, 0xb6, 0x67, 0x3e,
  0x45, 0xbf, 0x6e, 0xbe, 0x74, 0xf7, 0x7b, 0xbe, 0x97, 0x89, 0x81, 0x3d,
  0x52, 0x79, 0x16, 0xbe, 0xd3, 0xdd, 0x20, 0xbe, 0x5c, 0xd6, 0x87, 0x3e,
  0xf2, 0x6d, 0x90, 0x3b, 0x7b, 0x95, 0x9e, 0x3e, 0x1f, 0xca, 0x6f, 0xbe,
  0xd1, 0x8c, 0x2d, 0xbe, 0x67, 0x48, 0x59, 0xbb, 0xba, 0x00, 0x42, 0xbe,
  0x23, 0x5f, 0x29, 0xbe, 0x41, 0x14, 0x5c, 0x3d, 0xc7, 0x64, 0x99, 0xbb,
  0xd3, 0x83, 0x02, 0x3d, 0x47, 0x5a, 0x40, 0xbe, 0xb3, 0xed, 0x16, 0xbe,
  0x66, 0xb6, 0x12, 0xbe, 0x9c, 0xc7, 0xb3, 0xbe, 0x62, 0xc5, 0x27, 0xbf,
  0x7e, 0x8b, 0x91, 0xbd, 0x5c, 0x00, 0xee, 0xbd, 0x2c, 0xe8, 0x07, 0xbf,
  0xfe, 0x50, 0x8c, 0x3e, 0xdd, 0xad, 0x66, 0x3e, 0x17, 0xff, 0x9c, 0xbe,
  0x23, 0x78, 0xa7, 0xbf, 0xc5, 0x63, 0x84, 0xbf, 0xff, 0x71, 0x48, 0x3c,
  0xaa, 0xc7, 0x13, 0x3e, 0xf6, 0xa4, 0xb1, 0x3e, 0xbd, 0x91, 0x94, 0xbe,
  0xf6, 0x63, 0xd5, 0xbe, 0x13, 0x46, 0xd1, 0x3d, 0xbe, 0x05, 0x39, 0x3e,
  0x1e, 0x83, 0x83, 0x3d, 0x0b, 0xc3, 0x65, 0x3e, 0x0b, 0x91, 0x6e, 0x3d,
  0x59, 0x75, 0x17, 0x3e, 0x80, 0xfd, 0x80, 0xbe, 0xac, 0x71, 0x05, 0xbf,
  0xcf, 0x7b, 0x7f, 0xbe, 0xb9, 0xe3, 0x6d, 0x3b, 0x15, 0xfe, 0xe1, 0x3c,
  0xb0, 0xbb, 0xae, 0x3d, 0x77, 0xdb, 0xb4, 0xbd, 0x3b, 0x41, 0xa6, 0xbf,
  0x2b, 0x97, 0xb7, 0x3d, 0xd2, 0x09, 0x77, 0x3e, 0x1d, 0xaa, 0xf8, 0xbd,
  0xd4, 0x4a, 0xa0, 0xbc, 0x68, 0xb8, 0xdc, 0xbd, 0x68, 0x68, 0x6a, 0x3d,
  0xca, 0x1c, 0x91, 0xbd, 0x1c, 0xac, 0x13, 0xbf, 0x6d, 0xa7, 0x15, 0x3e,
  0xf1, 0xfc, 0x96, 0x3e, 0x47, 0x9d, 0x5b, 0x3d, 0xfd, 0xbf, 0x3e, 0xbe,
  0x3e, 0x61, 0x39, 0xbe, 0x39, 0x58, 0x39, 0xbe, 0xc3, 0x9c, 0xa9, 0xbd,
  0x8f, 0x9e, 0xc7, 0x3d, 0x8f, 0x7a, 0xdf, 0x3d, 0x6c, 0xa0, 0x5f, 0x3d,
  0xe1, 0x1e, 0x5f, 0xbd, 0x06, 0xc4, 0x90, 0xbd, 0xe5, 0x7e, 0xb5, 0xbd,
  0x43, 0x55, 0x8f, 0xbd, 0x4b, 0x35, 0xbd, 0xbd, 0x9d, 0xa8, 0x2b, 0xbd,
  0x86, 0x6e, 0xfd, 0x3d, 0xca, 0xc3, 0x78, 0xba, 0x99, 0xc6, 0xb2, 0x3b,
  0x3d, 0xdf, 0x56, 0x3d, 0x05, 0x6a, 0x97, 0x3e, 0x24, 0x9e, 0x93, 0xbd,
  0xe7, 0xed, 0xd1, 0xbd, 0x5a, 0xd5, 0x1f, 0xbc, 0x23, 0x8e, 0xa7, 0xbd,
  0xaa, 0x38, 0x33, 0x3d, 0xe9, 0x20, 0x23, 0x3d, 0xa1, 0xca, 0x88, 0x3d,
  0xca, 0xf9, 0xea, 0xbc, 0x7f, 0x22, 0xa9, 0xbc, 0x0d, 0xdb, 0xc0, 0xbd,
  0x84, 0x6b, 0x21, 0xbd, 0x3d, 0x78, 0x45, 0x3e, 0x82, 0x68, 0x58, 0x3c,
  0xa8, 0xbc, 0xf3, 0xbc, 0xaa, 0x2a, 0x77, 0xbc, 0x48, 0xd2, 0x1d, 0x3d,
  0x32, 0xf7, 0x93, 0xbd, 0xe2, 0xc1, 0xff, 0xff, 0x10, 0x00, 0x00, 0x00,
  0x0a, 0x00, 0x00, 0x00, 0x1c, 0x00, 0x00, 0x00, 0x38, 0x00, 0x00, 0x00,
  0x04, 0x00, 0x00, 0x00, 0x10, 0x00, 0x00, 0x00, 0x04, 0x00, 0x00, 0x00,
  0x01, 0x00, 0x00, 0x00, 0x08, 0x00, 0x00, 0x00, 0x1a, 0x00, 0x00, 0x00,
  0x73, 0x65, 0x71, 0x75, 0x65, 0x6e, 0x74, 0x69, 0x61, 0x6c, 0x2f, 0x63,
  0x6f, 0x6e, 0x76, 0x32, 0x64, 0x5f, 0x31, 0x2f, 0x43, 0x6f, 0x6e, 0x76,
  0x32, 0x44, 0x00, 0x00, 0x58, 0xc1, 0xff, 0xff, 0x62, 0xc2, 0xff, 0xff,
  0x04, 0x00, 0x00, 0x00, 0x80, 0x01, 0x00, 0x00, 0x3d, 0xe3, 0xa8, 0xbd,
  0xda, 0xee, 0x95, 0xbb, 0x7c, 0xa9, 0x10, 0x3e, 0xce, 0x98, 0x86, 0x3d,
  0xa5, 0x09, 0xfd, 0xbc, 0x0d, 0x15, 0xce, 0x3d, 0x79, 0xe2, 0x0d, 0xbd,
  0x96, 0x75, 0x41, 0xbd, 0x99, 0xf3, 0x7e, 0xbb, 0xf1, 0x78, 0x0d, 0xbd,
  0xf0, 0xf2, 0xa8, 0xbc, 0x0e, 0xa4, 0x3b, 0xbd, 0x4c, 0xc8, 0x6c, 0x3e,
  0x97, 0xef, 0x72, 0xbd, 0xa9, 0x2d, 0xef, 0xbe, 0xe3, 0xf5, 0x50, 0x3e,
  0xee, 0x4a, 0xfd, 0xbd, 0xdf, 0x2f, 0xcd, 0xbd, 0xf3, 0xb4, 0x61, 0xbe,
  0x78, 0x3c, 0x84, 0x3e, 0x60, 0x63, 0xbe, 0x3c, 0x45, 0x3e, 0x75, 0xbe,
  0x1a, 0x72, 0x6d, 0xbe, 0x8e, 0x12, 0x99, 0xbe, 0xb0, 0x8b, 0xb8, 0xbd,
  0xd8, 0x01, 0xce, 0xbd, 0xea, 0xeb, 0x99, 0xbd, 0xcc, 0xe6, 0x5c, 0x3e,
  0xe4, 0x46, 0xe3, 0x3d, 0xc9, 0xf7, 0x8d, 0xbd, 0x78, 0x1a, 0x0c, 0x3e,
  0x16, 0x3b, 0x49, 0xbe, 0xa4, 0x4f, 0x64, 0xbb, 0x8f, 0xbc, 0x2f, 0x3e,
  0x3a, 0xfd, 0xfe, 0x3d, 0xe5, 0x3d, 0xef, 0xbc, 0xa8, 0x84, 0xa7, 0xbd,
  0x27, 0xed, 0xb8, 0x3e, 0x38, 0x76, 0x75, 0xbd, 0xe5, 0x2e, 0x3a, 0x3e,
  0xa0, 0xca, 0x18, 0xbd, 0x4b, 0xd4, 0x1d, 0xbe, 0xfc, 0x23, 0xa1, 0x3d,
  0xb4, 0x44, 0x58, 0xbe, 0x00, 0xcb, 0xc8, 0xbd, 0xf6, 0x42, 0x7e, 0x3d,
  0x63, 0x3d, 0x4e, 0xbe, 0xca, 0x31, 0x20, 0xbe, 0x38, 0x2d, 0x43, 0xbe,
  0x4a, 0x7d, 0x3e, 0x3c, 0x48, 0x42, 0x84, 0x3e, 0xc5, 0x0d, 0x83, 0xbc,
  0x3e, 0xf2, 0x80, 0xbc, 0x55, 0xf8, 0x78, 0x3e, 0xb8, 0x02, 0x20, 0x3e,
  0x97, 0x69, 0x05, 0xbe, 0x9f, 0x7e, 0x02, 0xbe, 0x9a, 0x09, 0x76, 0xbd,
  0xe5, 0x5e, 0x1c, 0xbc, 0x85, 0x3e, 0xba, 0xbe, 0x3a, 0x96, 0xff, 0x3d,
  0x48, 0xf0, 0x32, 0xbe, 0x18, 0x93, 0xb0, 0xbd, 0x29, 0x0e, 0x8b, 0xbd,
  0xdf, 0xdc, 0xb7, 0xbd, 0x03, 0xd9, 0xab, 0x3c, 0x36, 0x48, 0x14, 0x3d,
  0x7b, 0xe1, 0x72, 0xbd, 0x2d, 0xee, 0x8c, 0xbd, 0x88, 0x43, 0xe2, 0x3d,
  0xc9, 0x6e, 0x04, 0xbe, 0x51, 0x1b, 0xba, 0x3c, 0x3e, 0x81, 0x43, 0xbe,
  0xde, 0xe4, 0x81, 0x3d, 0xab, 0x20, 0x01, 0xbe, 0xf4, 0xf3, 0x22, 0x3b,
  0xa0, 0x24, 0x70, 0xbe, 0xda, 0x1b, 0xd5, 0x3d, 0x9a, 0x6a, 0x14, 0x3e,
  0x65, 0x77, 0xef, 0xbd, 0x1c, 0xcc, 0x41, 0xbe, 0xfb, 0xcc, 0x24, 0x3e,
  0xc0, 0x38, 0x8e, 0xbe, 0x8e, 0x03, 0x8b, 0x3c, 0xa7, 0x06, 0x5a, 0xbe,
  0x48, 0x5f, 0x14, 0xbe, 0xf7, 0xcf, 0xaa, 0xbe, 0xb4, 0x85, 0x0f, 0xbd,
  0xce, 0xa3, 0x0c, 0xbd, 0x63, 0xd4, 0x61, 0x3d, 0xe2, 0xc8, 0xe1, 0x3d,
  0x0b, 0x8e, 0xea, 0x3c, 0x54, 0xe6, 0x1b, 0x3e, 0xcc, 0xe3, 0x74, 0x3d,
  0x17, 0x54, 0xa6, 0x3d, 0xab, 0xbf, 0x57, 0x3e, 0xba, 0xc3, 0xff, 0xff,
  0x10, 0x00, 0x00, 0x00, 0x09, 0x00, 0x00, 0x00, 0x1c, 0x00, 0x00, 0x00,
  0x38, 0x00, 0x00, 0x00, 0x04, 0x00, 0x00, 0x00, 0x08, 0x00, 0x00, 0x00,
  0x04, 0x00, 0x00, 0x00, 0x03, 0x00, 0x00, 0x00, 0x01, 0x00, 0x00, 0x00,
  0x18, 0x00, 0x00, 0x00, 0x73, 0x65, 0x71, 0x75, 0x65, 0x6e, 0x74, 0x69,
  0x61, 0x6c, 0x2f, 0x63, 0x6f, 0x6e, 0x76, 0x32, 0x64, 0x2f, 0x43, 0x6f,
  0x6e, 0x76, 0x32, 0x44, 0x00, 0x00, 0x00, 0x00, 0x30, 0xc3, 0xff, 0xff,
  0x3a, 0xc4, 0xff, 0xff, 0x04, 0x00, 0x00, 0x00, 0x00, 0x01, 0x00, 0x00,
  0x43, 0xf7, 0xa5, 0xbe, 0x19, 0xd6, 0x41, 0x3e, 0x9c, 0x23, 0x97, 0xbe,
  0xb0, 0x5c, 0x50, 0x3e, 0xd0, 0x0c, 0xb8, 0x3e, 0x9f, 0x79, 0x75, 0x3d,
  0x70, 0x8b, 0xf9, 0x3b, 0x6a, 0x1b, 0x45, 0xbe, 0x57, 0x23, 0x69, 0xbe,
  0xa6, 0x62, 0xaf, 0x3d, 0x38, 0x3d, 0x9e, 0x3d, 0xf2, 0x91, 0xaa, 0x3e,
  0xc3, 0x32, 0x0e, 0xbe, 0xc7, 0x78, 0x6f, 0xbe, 0x8d, 0x9f, 0x92, 0xbe,
  0xae, 0x85, 0x60, 0xbe, 0x14, 0xfb, 0xab, 0xbe, 0xf0, 0xbc, 0x01, 0xbf,
  0x3f, 0x57, 0xa7, 0xbe, 0x6c, 0x00, 0xf5, 0x3d, 0xc5, 0xbb, 0x6e, 0x3e,
  0x44, 0xa1, 0x12, 0xbd, 0x4d, 0xdc, 0x9b, 0xbe, 0x4d, 0xa3, 0x48, 0xbe,
  0x73, 0x87, 0x8d, 0xbe, 0x35, 0xc9, 0xef, 0x3c, 0xbe, 0xcd, 0x63, 0x3d,
  0x94, 0x15, 0xa8, 0x3e, 0xe0, 0x68, 0x0c, 0xbe, 0x12, 0xd5, 0xca, 0xbe,
  0x04, 0xf7, 0xb9, 0xbe, 0xa7, 0x36, 0x9f, 0x3e, 0x16, 0x6a, 0xa0, 0xbe,
  0x24, 0x49, 0xaf, 0xbe, 0xa6, 0x48, 0x66, 0xbe, 0x09, 0xea, 0x0d, 0x3e,
  0x17, 0xc5, 0x15, 0xbe, 0xfc, 0xee, 0x6b, 0xbb, 0x37, 0x08, 0x4d, 0x3e,
  0x2f, 0xba, 0xfe, 0xbd, 0xd3, 0xc0, 0x90, 0xbe, 0xa3, 0xe7, 0x12, 0x3e,
  0xe9, 0xa8, 0x08, 0x3e, 0xd2, 0xc8, 0xc8, 0x3e, 0xc3, 0x4d, 0xa0, 0xbe,
  0x32, 0x2e, 0x39, 0xbe, 0x40, 0xa0, 0x99, 0xbe, 0x11, 0x69, 0x88, 0x3e,
  0x39, 0xa6, 0x88, 0xbe, 0x9f, 0xe7, 0x5f, 0x3e, 0x47, 0xc3, 0x97, 0xbe,
  0x82, 0xca, 0x0c, 0x3e, 0x6a, 0x8f, 0xad, 0xbe, 0x1a, 0x6d, 0x1c, 0x3d,
  0x40, 0x99, 0xbd, 0x3e, 0xdf, 0xd3, 0x2c, 0xbe, 0xc0, 0x33, 0x86, 0xbe,
  0xba, 0x88, 0x97, 0x3d, 0xf5, 0x30, 0xf0, 0x3d, 0xdd, 0x27, 0xd7, 0x3e,
  0xca, 0x5a, 0xe5, 0xbe, 0x60, 0x34, 0xb1, 0xbd, 0x57, 0x9d, 0x7b, 0xbe,
  0xd4, 0x04, 0xd9, 0x3e, 0x12, 0xc5, 0xff, 0xff, 0x10, 0x00, 0x00, 0x00,
  0x08, 0x00, 0x00, 0x00, 0x14, 0x00, 0x00, 0x00, 0x30, 0x00, 0x00, 0x00,
  0x02, 0x00, 0x00, 0x00, 0x04, 0x00, 0x00, 0x00, 0x10, 0x00, 0x00, 0x00,
  0x19, 0x00, 0x00, 0x00, 0x73, 0x65, 0x71, 0x75, 0x65, 0x6e, 0x74, 0x69,
  0x61, 0x6c, 0x2f, 0x64, 0x65, 0x6e, 0x73, 0x65, 0x5f, 0x31, 0x2f, 0x4d,
  0x61, 0x74, 0x4d, 0x75, 0x6c, 0x00, 0x00, 0x00, 0x80, 0xc4, 0xff, 0xff,
  0x8a, 0xc5, 0xff, 0xff, 0x04, 0x00, 0x00, 0x00, 0x00, 0x38, 0x00, 0x00,
  0xb1, 0x0a, 0xba, 0x3e, 0x92, 0x5f, 0x0c, 0x3f, 0xa2, 0x74, 0xb3, 0x3c,
  0x02, 0x88, 0x13, 0x3f, 0x20, 0x9f, 0x14, 0xbf, 0xae, 0x87, 0x6e, 0x3d,
  0x8a, 0x6b, 0x72, 0x3e, 0x34, 0x63, 0x9a, 0xbe, 0x38, 0xbf, 0x33, 0x3e,
  0x2b, 0x43, 0x0f, 0x3f, 0xd0, 0x7a, 0xfd, 0x3d, 0xc0, 0x77, 0x96, 0x3e,
  0x61, 0x9e, 0xb2, 0x3d, 0x58, 0x58, 0x50, 0x3e, 0xcb, 0x1d, 0xc6, 0xbd,
  0x39, 0x77, 0x74, 0xbe, 0x10, 0x47, 0x1e, 0xbe, 0xd8, 0xd0, 0xa3, 0x3e,
  0x93, 0x63, 0xea, 0xb9, 0x1e, 0xd7, 0x52, 0x3e, 0xfe, 0xa5, 0x77, 0xbf,
  0xb3, 0x29, 0x97, 0xbd, 0x7e, 0xce, 0x84, 0xbe, 0xa0, 0x52, 0xca, 0x3d,
  0x09, 0x5c, 0x41, 0xbd, 0x17, 0xc7, 0xc5, 0xbb, 0x55, 0xc0, 0xce, 0xbd,
  0xcb, 0xce, 0x94, 0x3b, 0x3d, 0xbb, 0x04, 0xbe, 0xca, 0x9f, 0x72, 0xbe,
  0x45, 0x0b, 0x43, 0xbe, 0x2b, 0x7a, 0x1a, 0xbd, 0xb8, 0x7b, 0x9c, 0xbe,
  0x8c, 0xc8, 0xa8, 0xbd, 0xa1, 0x40, 0xa9, 0xbd, 0x80, 0xa1, 0x53, 0xbd,
  0x6b, 0x1b, 0x33, 0xbf, 0x75, 0xd7, 0x81, 0x3d, 0xa1, 0xb6, 0x1e, 0xbe,
  0x38, 0x4b, 0x2e, 0xbc, 0x82, 0x73, 0x2e, 0xbe, 0x7f, 0x96, 0x5f, 0x3e,
  0xbb, 0x15, 0xeb, 0xbd, 0xb8, 0x4f, 0x36, 0xbe, 0x44, 0x76, 0x2e, 0x3d,
  0x1a, 0x62, 0xd3, 0xbd, 0x57, 0xc3, 0xe7, 0xbd, 0x79, 0x1b, 0x62, 0xbd,
  0x9b, 0x80, 0xbd, 0xbd, 0x21, 0xd0, 0xd0, 0xbd, 0x31, 0x0f, 0x61, 0x3d,
  0xd2, 0x4f, 0x32, 0x3e, 0xc1, 0x16, 0x8a, 0xbe, 0x28, 0xe2, 0x87, 0x3e,
  0xfe, 0x6b, 0x57, 0xbc, 0x51, 0x59, 0x3d, 0x3e, 0x10, 0x3c, 0x2f, 0xbe,
  0x68, 0x9e, 0x42, 0x3e, 0xd7, 0x4a, 0x65, 0xbe, 0xd2, 0x60, 0x8d, 0xbd,
  0x59, 0x20, 0x25, 0x3d, 0xec, 0x47, 0xfd, 0xbd, 0xb3, 0x3d, 0x3c, 0x3c,
  0xe4, 0xc4, 0xcf, 0xbd, 0x0a, 0x3c, 0xc3, 0xbc, 0xb9, 0xe2, 0x5a, 0x3e,
  0x5e, 0xab, 0x35, 0xbc, 0xa9, 0xb8, 0xea, 0xbc, 0x54, 0x09, 0x9c, 0x3d,
  0x96, 0x6b, 0x60, 0x3e, 0x9f, 0xca, 0xb6, 0x3d, 0x21, 0x37, 0x9c, 0x3d,
  0x99, 0x65, 0x5f, 0xbe, 0x1a, 0xb9, 0x3e, 0x3e, 0x07, 0x81, 0xc6, 0xb9,
  0xcb, 0x68, 0x9d, 0xbd, 0x79, 0x07, 0x61, 0xbd, 0x0f, 0xfe, 0x0b, 0x3e,
  0x30, 0xd7, 0xd4, 0x3c, 0x95, 0xc3, 0xbe, 0x3d, 0x89, 0x1e, 0x86, 0x3c,
  0x87, 0x69, 0xd7, 0x3d, 0x7a, 0x3b, 0xa7, 0xbb, 0xd0, 0x9b, 0x29, 0x3d,
  0xe5, 0x50, 0xe5, 0x3d, 0xf9, 0xc9, 0xa2, 0x3e, 0x3c, 0x87, 0x93, 0x3d,
  0x43, 0x60, 0xb5, 0xbc, 0x12, 0xa5, 0x9b, 0xbd, 0xdd, 0x6c, 0x07, 0x3d,
  0xd5, 0x24, 0x87, 0x3d, 0x21, 0x3e, 0x2e, 0xbe, 0xb9, 0x92, 0xd3, 0xbc,
  0xec, 0xb5, 0x43, 0xbe, 0xf5, 0xce, 0x49, 0x3d, 0xa8, 0x86, 0xe9, 0x3d,
  0x22, 0xcb, 0xc1, 0x3d, 0x4a, 0x04, 0x1a, 0x3e, 0xe5, 0x2c, 0xe9, 0xbc,
  0x55, 0xf2, 0xd6, 0xbd, 0x59, 0x67, 0x48, 0x3e, 0x27, 0x98, 0x90, 0x3e,
  0xa1, 0x79, 0x83, 0x3c, 0xd4, 0xf9, 0x2d, 0x3d, 0x57, 0x7c, 0xca, 0xbd,
  0xa6, 0x35, 0xa4, 0x3d, 0xd2, 0xc2, 0x90, 0x3e, 0xe8, 0x3b, 0xea, 0xbd,
  0x0d, 0xdc, 0x22, 0x3e, 0xee, 0xf9, 0x92, 0xbd, 0x57, 0xaf, 0x30, 0x3e,
  0x46, 0xb5, 0x00, 0xbd, 0x7b, 0xbe, 0xa5, 0x3d, 0x62, 0x14, 0x56, 0x3e,
  0xdc, 0xbe, 0xed, 0xbc, 0x3a, 0xf3, 0x3f, 0xbd, 0x10, 0xfb, 0x92, 0xbd,
  0xe1, 0xb5, 0xf8, 0x3d, 0xcb, 0xc9, 0xac, 0xbd, 0x54, 0x39, 0xc4, 0x3b,
  0x86, 0x3e, 0x4c, 0xbe, 0xe1, 0x2a, 0x73, 0x3c, 0x45, 0xfd, 0xe4, 0x3d,
  0x2d, 0x78, 0xc1, 0xbd, 0x51, 0x24, 0xfb, 0x3d, 0x6e, 0x2d, 0x1d, 0xbe,
  0x92, 0xf3, 0x20, 0x3e, 0x13, 0x7b, 0x3c, 0xbc, 0xeb, 0x9a, 0x6c, 0xbc,
  0x29, 0xd8, 0x12, 0xbe, 0xe7, 0x11, 0x6d, 0xbb, 0x51, 0x3d, 0x20, 0x3e,
  0x09, 0xf4, 0xba, 0xbe, 0xb9, 0x79, 0x4f, 0x3d, 0xc1, 0x47, 0xdb, 0xbd,
  0xa3, 0xb1, 0x79, 0xbc, 0x41, 0xcf, 0x28, 0xbe, 0xd3, 0x11, 0x88, 0xbd,
  0x77, 0x09, 0x92, 0x3d, 0xc1, 0xe0, 0x0d, 0xbe, 0x63, 0xbe, 0x08, 0x3e,
  0xa1, 0x6f, 0xc4, 0x3c, 0x41, 0x3e, 0x17, 0x3e, 0x32, 0x18, 0xbe, 0xbd,
  0x76, 0xf4, 0xd7, 0x3d, 0x6d, 0xe7, 0x04, 0xbb, 0xc0, 0xd5, 0x88, 0x3d,
  0xf9, 0x4b, 0xda, 0x3d, 0xb3, 0x8d, 0xda, 0xbe, 0x6d, 0x23, 0x2b, 0x3e,
  0x9a, 0x41, 0x5c, 0xbe, 0x51, 0x91, 0xfc, 0x3d, 0xd1, 0x1a, 0x9f, 0xbe,
  0xab, 0xb6, 0x0c, 0x3e, 0x33, 0x77, 0xf1, 0x3d, 0x22, 0x5f, 0x8b, 0xbd,
  0xfe, 0x60, 0xad, 0x3d, 0x68, 0xbd, 0x27, 0xbe, 0xa4, 0x63, 0x7b, 0xbd,
  0x79, 0x09, 0x74, 0xbd, 0x02, 0x29, 0xd0, 0x3c, 0x88, 0x3b, 0xb0, 0x3d,
  0x51, 0x54, 0x2f, 0x3e, 0x11, 0xdb, 0x4e, 0xbc, 0x42, 0xd8, 0x13, 0xbf,
  0x15, 0xd9, 0xb2, 0x3d, 0x56, 0x37, 0x57, 0xbe, 0xa9, 0x58, 0x39, 0x3b,
  0xd2, 0x2b, 0x67, 0xbe, 0xab, 0x2a, 0x75, 0x3e, 0xaa, 0xcf, 0x41, 0xbd,
  0x9b, 0x28, 0x30, 0x3d, 0xf2, 0xb3, 0xc4, 0x3c, 0x47, 0xdb, 0xf3, 0xbd,
  0x3a, 0x32, 0x52, 0x3d, 0xef, 0x02, 0x4b, 0x3d, 0xbb, 0x62, 0x95, 0x3e,
  0x8d, 0x71, 0xaa, 0x3d, 0x50, 0xeb, 0xd9, 0x3d, 0x01, 0xe0, 0x7c, 0x3e,
  0x1a, 0xe9, 0x12, 0xbf, 0x28, 0x5f, 0xc2, 0x3c, 0xde, 0x3c, 0x30, 0xbe,
  0x2e, 0x5e, 0x43, 0xbd, 0xc9, 0xf3, 0xb1, 0xbe, 0xca, 0x42, 0x79, 0x3e,
  0x15, 0x2d, 0x32, 0x3d, 0x9f, 0x73, 0xbb, 0xbd, 0x84, 0xd7, 0xe7, 0x3d,
  0x50, 0x23, 0x92, 0xbe, 0xe4, 0xe8, 0x37, 0x3e, 0x2d, 0xeb, 0xc4, 0x3c,
  0xfe, 0x27, 0x2d, 0xbc, 0xf7, 0x8a, 0xba, 0x3d, 0xd2, 0x67, 0x89, 0x3d,
  0x02, 0xf7, 0x81, 0x3e, 0x18, 0x6a, 0xb5, 0xbe, 0xff, 0x80, 0x18, 0x3e,
  0x3f, 0x6b, 0x07, 0xbe, 0xd3, 0x46, 0xb7, 0x3e, 0x85, 0x18, 0xaf, 0xbe,
  0x6e, 0x35, 0x73, 0x3e, 0xa2, 0x8f, 0xcb, 0xbe, 0xfb, 0xec, 0xcc, 0xbd,
  0xe4, 0xbf, 0xa3, 0x3c, 0xd9, 0xbb, 0xdf, 0xbd, 0x8f, 0xe9, 0x23, 0x3e,
  0xbc, 0xf5, 0x53, 0x3e, 0x08, 0x23, 0xc2, 0x3d, 0xfd, 0x4d, 0x0c, 0xbe,
  0x95, 0x69, 0xcb, 0x3e, 0x2b, 0x59, 0xfa, 0xbc, 0x25, 0xe7, 0x96, 0xbe,
  0x08, 0x5e, 0x80, 0x3c, 0xe2, 0x70, 0x0b, 0x3e, 0x9a, 0x0d, 0xd5, 0x3d,
  0xf2, 0x99, 0x43, 0xbe, 0xbe, 0x34, 0x9e, 0x3e, 0x4c, 0x2d, 0x8e, 0xbc,
  0xd7, 0xc4, 0x63, 0xbe, 0x22, 0x83, 0x14, 0x3e, 0x70, 0x60, 0x6a, 0x3e,
  0x62, 0x27, 0x12, 0x3d, 0x92, 0xf7, 0x97, 0x3e, 0x90, 0x78, 0x51, 0x3c,
  0xe7, 0xc0, 0xf8, 0xbc, 0x85, 0x91, 0xeb, 0xbb, 0x85, 0xbb, 0x24, 0xbe,
  0x70, 0x01, 0x1e, 0xbe, 0xf0, 0x85, 0x86, 0xbd, 0x29, 0x48, 0x61, 0x3e,
  0xaa, 0xc7, 0x38, 0xbe, 0x58, 0xea, 0xe2, 0xbd, 0xed, 0x2f, 0x97, 0x3e,
  0x86, 0xca, 0x54, 0xbc, 0xa7, 0x41, 0xc5, 0xbd, 0x92, 0xdd, 0x9d, 0xbd,
  0xf0, 0xea, 0x49, 0x3d, 0xe8, 0x81, 0x41, 0xbe, 0xea, 0x85, 0x42, 0xbe,
  0x0f, 0x5d, 0x8b, 0xbd, 0x6c, 0x5e, 0x08, 0x3d, 0x6f, 0xee, 0xb8, 0xbc,
  0xd9, 0x5a, 0x61, 0xbd, 0x58, 0x6b, 0x8e, 0xbe, 0x04, 0x6e, 0x7d, 0xbd,
  0x95, 0x21, 0x29, 0xbd, 0x94, 0x9a, 0xcc, 0xbd, 0x4d, 0xb0, 0x3b, 0x3e,
  0x46, 0xe4, 0xd5, 0xbd, 0xff, 0x7a, 0x10, 0xbe, 0x73, 0x2e, 0x78, 0xbe,
  0x7e, 0x24, 0xfd, 0x3d, 0x02, 0xb7, 0x20, 0xbe, 0xca, 0x7f, 0x65, 0xbe,
  0x75, 0x4b, 0xd3, 0xbd, 0xa7, 0xaf, 0x06, 0xbe, 0x88, 0x65, 0x89, 0x3d,
  0x23, 0x20, 0xe6, 0xbd, 0xc9, 0x4a, 0x2b, 0xbe, 0x35, 0x0f, 0x45, 0xbd,
  0xaa, 0x43, 0x2f, 0xbe, 0x28, 0xa8, 0x23, 0xb6, 0x06, 0xd7, 0x17, 0xbd,
  0xfa, 0xb0, 0x01, 0x3e, 0xdf, 0x17, 0x3b, 0xbe, 0x88, 0x29, 0xbd, 0xbd,
  0x61, 0xf4, 0x37, 0x3d, 0x3a, 0x41, 0xfc, 0x3d, 0xf3, 0x8e, 0x1e, 0xbe,
  0xfa, 0x0a, 0x2c, 0xbe, 0x12, 0xbb, 0x83, 0xbc, 0xc7, 0x26, 0x40, 0xbd,
  0x74, 0xe1, 0x22, 0xbe, 0xa5, 0xf2, 0xcc, 0x3b, 0x26, 0x35, 0x40, 0xbe,
  0xd6, 0x6d, 0x4a, 0x3d, 0x2e, 0x77, 0xb7, 0x3b, 0x05, 0x67, 0x8b, 0xb9,
  0xc6, 0x1d, 0x0f, 0xbc, 0x04, 0xcc, 0x21, 0xbe, 0x3d, 0x1a, 0x2b, 0xbe,
  0x7d, 0x23, 0x00, 0xbe, 0x28, 0xd2, 0x94, 0xbd, 0xc0, 0xf0, 0x9c, 0x3b,
  0xd4, 0x2e, 0x27, 0xbe, 0x3a, 0xab, 0x7c, 0x3c, 0x1d, 0x21, 0xfd, 0xbd,
  0x80, 0xaa, 0xc6, 0xbc, 0x1c, 0x82, 0x7f, 0xbc, 0xca, 0x1d, 0x4b, 0x3d,
  0x6a, 0xda, 0xb3, 0x3d, 0xbc, 0x0b, 0xed, 0xbd, 0x6b, 0x8b, 0xe5, 0xbc,
  0x9f, 0xb3, 0xbb, 0xbd, 0x4c, 0x25, 0xb7, 0xbd, 0xe3, 0xa2, 0x74, 0xbd,
  0x89, 0xd3, 0xd6, 0x3c, 0x5f, 0xec, 0x4c, 0xbe, 0xf9, 0xd1, 0xd8, 0xbd,
  0x44, 0xb4, 0x1e, 0x3d, 0xda, 0xcb, 0x4c, 0x3d, 0xfa, 0x61, 0x29, 0xbe,
  0xe2, 0x12, 0xaa, 0xbc, 0xca, 0x19, 0x27, 0xbe, 0x71, 0x22, 0x18, 0xbe,
  0x64, 0x60, 0xc6, 0xbd, 0x8c, 0x13, 0x5c, 0xbe, 0xd4, 0x53, 0x3e, 0xbd,
  0x60, 0xb1, 0xa2, 0xbd, 0xca, 0xcb, 0x9b, 0x3c, 0xd1, 0x2e, 0xe2, 0x3d,
  0xf9, 0xc5, 0xa5, 0x3d, 0xd5, 0x0d, 0x13, 0xbc, 0x97, 0xc0, 0xc3, 0xbd,
  0xb0, 0x7d, 0x04, 0xbc, 0x31, 0xce, 0x11, 0xbe, 0xdb, 0x3b, 0xae, 0xbd,
  0x9a, 0x2c, 0x2b, 0xbe, 0xf0, 0x02, 0x1d, 0xbe, 0x6a, 0xe7, 0x27, 0xbd,
  0xef, 0x0f, 0x55, 0xbd, 0xd5, 0x7a, 0x97, 0x3d, 0x77, 0x1c, 0x1c, 0x3d,
  0x2f, 0x7d, 0x7e, 0xbe, 0xa4, 0x86, 0x8c, 0x3a, 0x73, 0x91, 0x31, 0xbe,
  0x6c, 0xb2, 0x51, 0xbe, 0x03, 0x51, 0x86, 0x3d, 0x7e, 0x9b, 0x4d, 0x3d,
  0x36, 0x40, 0xde, 0xbd, 0xdf, 0x94, 0xfc, 0x3c, 0xbe, 0x5d, 0xef, 0x3d,
  0x18, 0xe1, 0x93, 0x3d, 0xce, 0xf2, 0x48, 0xbd, 0xc3, 0x6f, 0x29, 0xbe,
  0x00, 0x2f, 0x5f, 0x3d, 0xae, 0xbc, 0x2e, 0xbe, 0x60, 0x9b, 0x44, 0xbe,
  0x17, 0xf8, 0x23, 0xbd, 0x46, 0x84, 0xa8, 0xbd, 0x40, 0xcd, 0xcb, 0xbd,
  0x06, 0x15, 0x27, 0xbe, 0x7c, 0x59, 0x10, 0xbe, 0x75, 0x2b, 0xbb, 0xbd,
  0xb2, 0xf8, 0x89, 0xbc, 0xbb, 0x01, 0xc5, 0xb9, 0x3a, 0x50, 0xb2, 0xbd,
  0x59, 0x4c, 0xe1, 0xbd, 0x18, 0xdd, 0x74, 0x3d, 0x72, 0xf1, 0x6b, 0x3d,
  0xfd, 0xa8, 0x5e, 0xbc, 0x6a, 0xca, 0xcc, 0x3d, 0x34, 0x14, 0x6e, 0xbe,
  0x88, 0xb2, 0x24, 0x3d, 0x7b, 0xd9, 0x36, 0xbe, 0xf0, 0x22, 0x08, 0xbe,
  0xde, 0x36, 0xd4, 0x3c, 0x11, 0x9d, 0x23, 0xbe, 0xcb, 0x0c, 0xa0, 0xbd,
  0xc9, 0x51, 0xe5, 0x3a, 0xb4, 0x42, 0x88, 0x3d, 0x78, 0xc0, 0xfa, 0x3b,
  0x89, 0x26, 0xe3, 0x3d, 0x20, 0x92, 0xe6, 0xbd, 0xe9, 0x7d, 0x5a, 0x3d,
  0x47, 0xe4, 0xd0, 0xbd, 0xc6, 0x06, 0x7b, 0xbd, 0x61, 0x49, 0x37, 0xbd,
  0xfd, 0x66, 0xa6, 0x3d, 0x92, 0x6c, 0xe3, 0x3d, 0xb6, 0x74, 0x75, 0xbd,
  0xf2, 0xea, 0x25, 0xbe, 0xd6, 0xee, 0xbf, 0xbd, 0x03, 0x30, 0x58, 0xbd,
  0x9b, 0x85, 0x30, 0xbe, 0x5d, 0x43, 0xac, 0xbc, 0x6f, 0x6e, 0x15, 0xbd,
  0xc8, 0xc7, 0x98, 0x3c, 0xe9, 0x97, 0xc3, 0xbc, 0x66, 0xcd, 0x21, 0xbe,
  0x16, 0xfc, 0x32, 0xbe, 0x75, 0x5d, 0x00, 0xbd, 0xee, 0x08, 0x55, 0x3d,
  0xbc, 0x49, 0xac, 0xbc, 0x21, 0xbe, 0x61, 0x3d, 0xee, 0xf8, 0x19, 0xbe,
  0x77, 0xff, 0x1d, 0x3b, 0x6f, 0x13, 0xe1, 0x3b, 0x30, 0x14, 0x25, 0xbe,
  0x50, 0x8b, 0xb5, 0x3d, 0xd5, 0xf7, 0x14, 0xbe, 0x16, 0x21, 0xb8, 0xbd,
  0x38, 0xed, 0x8d, 0xbc, 0xd6, 0xa7, 0x05, 0x3e, 0x64, 0x54, 0x3e, 0xbd,
  0x50, 0xdd, 0x8f, 0x3c, 0x52, 0x48, 0x2f, 0xbe, 0x80, 0x69, 0x8c, 0xbd,
  0x96, 0x2a, 0xbc, 0xbd, 0x1c, 0xb9, 0xd8, 0xbc, 0xca, 0xf6, 0x24, 0xbe,
  0xb5, 0x6f, 0x7b, 0x3d, 0xe3, 0x71, 0x01, 0xbe, 0x2e, 0x5f, 0x67, 0xbe,
  0x82, 0x92, 0xa9, 0x3c, 0xeb, 0x9b, 0x44, 0xbd, 0xba, 0x81, 0x08, 0xbe,
  0x73, 0xfe, 0x64, 0x3d, 0x13, 0xd0, 0xd2, 0x3d, 0x0a, 0xb1, 0x4e, 0xbe,
  0x4a, 0x6e, 0xcb, 0x3c, 0x4c, 0xfe, 0x19, 0x3d, 0xe0, 0x19, 0x7f, 0x3d,
  0xcd, 0x49, 0x14, 0xbe, 0x47, 0x28, 0xaf, 0x3c, 0x42, 0xc1, 0x88, 0x3c,
  0x68, 0xb1, 0xda, 0x3d, 0x3d, 0x7e, 0xdb, 0xbd, 0x7a, 0xbd, 0x16, 0x3e,
  0xb1, 0xca, 0x5d, 0xbe, 0xde, 0xfa, 0x01, 0xbe, 0xb9, 0x91, 0x83, 0xbc,
  0xae, 0x16, 0x8a, 0xbc, 0xfa, 0xe0, 0x5c, 0xbc, 0xc0, 0xd7, 0xfe, 0xbd,
  0x56, 0x54, 0x0d, 0xbe, 0x89, 0x6b, 0xa1, 0xbd, 0xd7, 0x6d, 0x21, 0xbe,
  0xe9, 0x2a, 0x0e, 0x3d, 0x93, 0x11, 0x15, 0x3d, 0x4b, 0xdd, 0xee, 0xbd,
  0xe0, 0x55, 0x8e, 0xbd, 0x22, 0xe3, 0xf6, 0x3c, 0x7b, 0x78, 0x03, 0x3d,
  0xde, 0x4e, 0x1c, 0xbe, 0x66, 0x59, 0xd1, 0xbd, 0x79, 0x85, 0x2d, 0xbe,
  0x01, 0x27, 0xb0, 0xbd, 0xaa, 0x09, 0x17, 0xbe, 0x21, 0x87, 0x9d, 0xbd,
  0x76, 0x78, 0x70, 0x3d, 0x69, 0x5d, 0x04, 0xbe, 0xbb, 0x3b, 0x48, 0xbe,
  0xe3, 0xcd, 0x03, 0x3e, 0x49, 0x42, 0x5c, 0x3d, 0x15, 0x67, 0xa6, 0xbd,
  0x6e, 0x28, 0x54, 0xbe, 0xf1, 0xba, 0xf7, 0xbd, 0xdc, 0x1c, 0xbc, 0x3c,
  0x44, 0x0c, 0xa4, 0xbe, 0xf6, 0x94, 0x87, 0x3d, 0xd2, 0x70, 0x2c, 0x3e,
  0x1e, 0xc6, 0x1f, 0xbe, 0x60, 0xf1, 0x8a, 0xbe, 0xe5, 0xeb, 0x91, 0x3e,
  0xb1, 0x11, 0x57, 0xbd, 0xac, 0xc8, 0x1c, 0x3d, 0x62, 0x28, 0x7e, 0x3e,
  0x92, 0x93, 0xea, 0x3d, 0x27, 0x44, 0x7c, 0xbd, 0xae, 0x32, 0x1b, 0xbe,
  0xc6, 0xa9, 0x16, 0x3e, 0x23, 0x9c, 0x79, 0x3e, 0xe6, 0x84, 0x1f, 0x3e,
  0x7e, 0x58, 0x8b, 0x3d, 0xf5, 0xeb, 0xa1, 0xbd, 0x94, 0xf5, 0xaf, 0xbc,
  0x87, 0x62, 0x77, 0x3e, 0xee, 0x34, 0x6e, 0x3d, 0x2c, 0xff, 0x7c, 0x3e,
  0x97, 0x8c, 0xb1, 0x3e, 0x34, 0x51, 0x8f, 0x3d, 0x7e, 0x65, 0x18, 0x3e,
  0x39, 0xdb, 0x7b, 0x3e, 0x07, 0x44, 0x73, 0xbe, 0x8d, 0xf5, 0xed, 0x3d,
  0x9a, 0xe6, 0x64, 0xbe, 0x79, 0x6d, 0xc2, 0x3d, 0x8d, 0x11, 0x43, 0x3d,
  0xfc, 0x10, 0xe0, 0x3d, 0xc2, 0x43, 0x17, 0x3e, 0xec, 0xfd, 0xf9, 0xbd,
  0x9d, 0x74, 0x78, 0x3e, 0x25, 0x1b, 0x86, 0xbd, 0xdf, 0xfb, 0xee, 0xbd,
  0x6f, 0x18, 0x05, 0x3e, 0x31, 0x82, 0x31, 0xbe, 0x4e, 0x7b, 0x8f, 0x3d,
  0x25, 0xff, 0x07, 0x3e, 0xa3, 0xb7, 0x1b, 0xbd, 0x69, 0x6a, 0xaf, 0xbd,
  0xc0, 0x1f, 0x1d, 0xbc, 0x8b, 0x68, 0xba, 0xbe, 0xac, 0xf3, 0xfa, 0x3c,
  0x41, 0x42, 0x4d, 0xbd, 0xa3, 0x27, 0x4b, 0x3e, 0xe5, 0x1b, 0x76, 0xbe,
  0x7a, 0x91, 0x03, 0x3d, 0x51, 0x73, 0xf2, 0xbc, 0x70, 0x89, 0x7d, 0xbe,
  0x1e, 0x8a, 0xc7, 0xbd, 0xee, 0x2f, 0xee, 0x3d, 0x7f, 0x82, 0xd6, 0xbe,
  0x6d, 0x0b, 0xd2, 0x3b, 0x78, 0x13, 0x6f, 0x3e, 0xcf, 0xc8, 0x81, 0xbd,
  0xec, 0x97, 0x0a, 0xbe, 0x9d, 0xb7, 0x12, 0xbe, 0x10, 0x7c, 0xc5, 0xbb,
  0x36, 0xec, 0x92, 0xbe, 0x97, 0x92, 0x9b, 0xbe, 0xde, 0xef, 0xc4, 0x3e,
  0x83, 0x6c, 0x30, 0xbe, 0x80, 0xfa, 0xcc, 0xbd, 0xa9, 0x87, 0x9a, 0xbd,
  0x1b, 0xc9, 0xa7, 0xbe, 0x4c, 0xe0, 0x1f, 0xbe, 0x79, 0xc8, 0x5f, 0xbd,
  0xa0, 0x69, 0xc4, 0xbe, 0x5d, 0xd2, 0x93, 0x3d, 0xb5, 0x1a, 0xf5, 0x3d,
  0x0c, 0xac, 0x1c, 0xbe, 0x98, 0x9f, 0xd8, 0xbd, 0xc0, 0xda, 0x21, 0xbe,
  0x84, 0xde, 0xc8, 0x3b, 0x92, 0x3c, 0x1a, 0xbe, 0xa0, 0x15, 0xaf, 0xbe,
  0x57, 0x29, 0x1f, 0xbe, 0xc1, 0x33, 0xf5, 0x3c, 0x55, 0xab, 0x20, 0x3e,
  0xe6, 0x88, 0x04, 0xbe, 0xd2, 0x2a, 0x76, 0xbd, 0x3a, 0xbd, 0x55, 0xbe,
  0x84, 0x45, 0xb8, 0xbd, 0x52, 0x4b, 0x6a, 0xbe, 0x7f, 0xea, 0x8a, 0x3d,
  0x32, 0x61, 0x57, 0xbd, 0x5b, 0x52, 0xf6, 0xbd, 0x57, 0xf7, 0xa2, 0xbd,
  0x6c, 0x03, 0xa5, 0xbd, 0x3d, 0x1d, 0x1e, 0xbe, 0xec, 0x38, 0x27, 0xbe,
  0x54, 0xa0, 0x4f, 0xbe, 0xbe, 0x32, 0x7b, 0xbd, 0xd3, 0x0b, 0x43, 0x3e,
  0xdb, 0x44, 0xdf, 0x3d, 0xde, 0xb1, 0x50, 0xbe, 0x52, 0xe7, 0xbc, 0x3d,
  0x35, 0x02, 0x54, 0xbe, 0x06, 0x8a, 0x9a, 0xbe, 0x02, 0xb1, 0xac, 0xbe,
  0x1e, 0xf3, 0x80, 0x3d, 0x33, 0x57, 0x2a, 0x3e, 0x62, 0x3e, 0x05, 0x3c,
  0x79, 0x6e, 0xb5, 0xbe, 0x1d, 0xd6, 0xe5, 0xbd, 0xa9, 0xed, 0xd2, 0xbd,
  0x57, 0xac, 0x08, 0xbe, 0xa0, 0x4e, 0xd7, 0xbd, 0xfb, 0xdc, 0x47, 0xbd,
  0x01, 0x90, 0xaf, 0x3e, 0xae, 0xea, 0x76, 0x3d, 0xf6, 0xcc, 0x75, 0xbe,
  0x61, 0x70, 0xc4, 0xbc, 0x67, 0x6e, 0x5e, 0xbe, 0xeb, 0x9e, 0xfc, 0xbd,
  0x6b, 0x31, 0x66, 0xbe, 0x20, 0x08, 0xd0, 0x3d, 0xd0, 0x98, 0x3c, 0xbd,
  0x26, 0x6e, 0x6f, 0xbd, 0x7f, 0x26, 0xc9, 0xbd, 0x9c, 0x5c, 0x91, 0x3d,
  0x50, 0x31, 0x75, 0xbb, 0x47, 0x67, 0x1e, 0xbe, 0x99, 0x00, 0x8e, 0xbe,
  0x04, 0x74, 0x02, 0xbe, 0x4f, 0x07, 0xe7, 0x3e, 0x9f, 0xa6, 0x84, 0x3d,
  0x78, 0xf3, 0x56, 0xbe, 0xba, 0x16, 0x07, 0x3c, 0x2b, 0x07, 0x11, 0xbe,
  0x41, 0x1c, 0x46, 0xbe, 0x85, 0x58, 0x8b, 0x3d, 0x49, 0x68, 0x7f, 0x3c,
  0x5a, 0x9f, 0xde, 0xbc, 0x45, 0x78, 0x85, 0xbe, 0xa8, 0x63, 0x7d, 0xbe,
  0xcf, 0x93, 0xda, 0x3c, 0x49, 0x81, 0x0a, 0xbe, 0x33, 0x99, 0x3e, 0xbe,
  0x14, 0x8d, 0x2d, 0xbe, 0x46, 0x4a, 0x72, 0x3c, 0x8e, 0x67, 0xe2, 0x3d,
  0x48, 0xa2, 0xc7, 0xbd, 0x03, 0x49, 0x9a, 0xbd, 0xd2, 0x5e, 0x83, 0x3c,
  0xd9, 0x18, 0x6b, 0xbe, 0xa7, 0x92, 0x97, 0xbe, 0x19, 0x41, 0x37, 0xbe,
  0x55, 0xf3, 0xc0, 0x3d, 0xed, 0x48, 0x04, 0x3e, 0x1d, 0xa0, 0x24, 0xbe,
  0x9c, 0x93, 0xee, 0xbd, 0x84, 0x8b, 0x8b, 0x3d, 0x94, 0xc4, 0x46, 0xbd,
  0x84, 0x61, 0x21, 0xbe, 0xf1, 0x20, 0x1c, 0xbe, 0x42, 0xb8, 0x8a, 0xbc,
  0xf2, 0x13, 0x96, 0x3d, 0x89, 0x10, 0x12, 0x3d, 0xcf, 0x7b, 0x19, 0xbe,
  0x81, 0xea, 0x55, 0xbb, 0xd5, 0x49, 0xbc, 0xbd, 0x64, 0xa1, 0x7a, 0xbe,
  0xa3, 0xaf, 0x19, 0xbe, 0x60, 0xd8, 0x87, 0x3d, 0xa4, 0x37, 0x7a, 0x3d,
  0x4c, 0xe0, 0xa9, 0xbe, 0xe9, 0x21, 0x74, 0x3c, 0xce, 0x4f, 0xf2, 0x3c,
  0x03, 0x26, 0xf8, 0xbd, 0x3e, 0xc1, 0xbb, 0xbd, 0xa6, 0x4e, 0x7d, 0x3c,
  0x27, 0x52, 0x8b, 0x3e, 0x0c, 0xac, 0x8a, 0x3e, 0xfa, 0xf6, 0xf1, 0x3d,
  0x04, 0x19, 0x84, 0xbe, 0x0b, 0x79, 0x10, 0xbe, 0xf8, 0x3d, 0x18, 0xbe,
  0x14, 0x0f, 0xb1, 0xbd, 0x73, 0x54, 0x3c, 0xbe, 0xd5, 0x66, 0x04, 0x3e,
  0x3a, 0x48, 0x41, 0xbd, 0xc4, 0x37, 0x82, 0xbe, 0x0d, 0x57, 0x7c, 0xbd,
  0x23, 0x52, 0xa5, 0xbd, 0xfe, 0xbb, 0x13, 0xbd, 0x4b, 0x50, 0xbf, 0x3d,
  0xdc, 0x03, 0x12, 0xbd, 0x2d, 0xd7, 0x6d, 0xbc, 0x0d, 0x08, 0x95, 0x3d,
  0x02, 0xe9, 0x64, 0x3a, 0xe5, 0x2f, 0xa4, 0xbd, 0x9e, 0x03, 0x87, 0xbc,
  0xc1, 0x16, 0xd2, 0xbc, 0xf4, 0xb1, 0xa0, 0xbd, 0xe2, 0x36, 0x59, 0xbe,
  0xc0, 0x1e, 0x80, 0x3d, 0x79, 0x7b, 0x77, 0x3d, 0xc8, 0x41, 0xa3, 0xbe,
  0x9a, 0xcc, 0x9f, 0xbd, 0xf2, 0x41, 0x3c, 0x3d, 0x9d, 0x58, 0xda, 0x3c,
  0x28, 0xab, 0x42, 0xbd, 0x44, 0x39, 0x01, 0xbe, 0x03, 0x70, 0xdd, 0x3d,
  0x28, 0x4e, 0xf6, 0x3c, 0x1e, 0x7e, 0x5f, 0x3d, 0xcb, 0x72, 0x07, 0x3d,
  0x8e, 0x8b, 0xcc, 0xbc, 0xfd, 0x55, 0xc6, 0x3b, 0x6d, 0xf6, 0xcd, 0x3c,
  0xfa, 0x7d, 0xf4, 0xbd, 0xba, 0x88, 0xa9, 0x3d, 0xef, 0xb7, 0xbf, 0x3d,
  0x17, 0xbd, 0x5c, 0xbb, 0x33, 0x3d, 0xb0, 0xbc, 0xd0, 0x7a, 0xb4, 0x3d,
  0x18, 0x37, 0x03, 0x3e, 0x08, 0xcf, 0xa5, 0xbb, 0x0e, 0x72, 0x54, 0xbd,
  0x98, 0xec, 0x0a, 0xbe, 0x40, 0xf0, 0xc0, 0xbb, 0xc4, 0x23, 0x86, 0xbd,
  0x62, 0xd7, 0x04, 0xbe, 0x22, 0xc9, 0x07, 0xbc, 0x18, 0x39, 0x0a, 0xbe,
  0x04, 0xb2, 0xc7, 0xbc, 0x2d, 0x29, 0xcc, 0x3d, 0x3b, 0xe9, 0xdb, 0x3c,
  0x89, 0xd9, 0xda, 0x3c, 0xa9, 0xf9, 0x65, 0x3d, 0xa7, 0xf1, 0xc5, 0xbd,
  0xe1, 0xa9, 0xde, 0xbd, 0xda, 0xec, 0x88, 0x3d, 0x9d, 0x01, 0x8a, 0x3c,
  0xe1, 0xd1, 0x60, 0xbd, 0xe2, 0x0a, 0xc9, 0x3d, 0xfc, 0xea, 0xb7, 0x3d,
  0x4e, 0xae, 0x38, 0xbe, 0xdb, 0xba, 0xf8, 0xbd, 0xf9, 0xb2, 0x73, 0x3d,
  0xb9, 0xc1, 0xac, 0xbe, 0x12, 0xe2, 0x05, 0xbe, 0x35, 0x5b, 0x1f, 0xbe,
  0x6d, 0xcd, 0xa7, 0xbd, 0x75, 0x25, 0x65, 0xbd, 0x99, 0xe6, 0x94, 0x3d,
  0x73, 0x78, 0x95, 0x3c, 0x20, 0x45, 0x05, 0xbe, 0xd0, 0x6e, 0x90, 0xb8,
  0x10, 0xaa, 0xdb, 0x3c, 0xe2, 0xec, 0xab, 0xbd, 0x08, 0x5a, 0xe3, 0xbd,
  0x8f, 0xb3, 0x02, 0xbe, 0x49, 0x41, 0x63, 0xbe, 0xda, 0xdd, 0x2e, 0xbe,
  0x9c, 0x6e, 0x69, 0xbc, 0x1e, 0xe8, 0x0a, 0xbe, 0x3c, 0xbf, 0x67, 0xbd,
  0xf0, 0x5e, 0xc2, 0x3d, 0x7e, 0x8c, 0xc7, 0xbd, 0x25, 0x9c, 0x38, 0xbe,
  0x89, 0xd1, 0x8a, 0x3d, 0x9f, 0x27, 0xed, 0x3b, 0x99, 0x7d, 0x1e, 0xbb,
  0x18, 0x48, 0x34, 0xbe, 0x85, 0x09, 0x7e, 0xbd, 0xc9, 0xcd, 0x7c, 0xbd,
  0xe0, 0xaf, 0x0e, 0xbc, 0xf2, 0x52, 0x35, 0x3c, 0x56, 0xee, 0x17, 0xbd,
  0xe7, 0xba, 0xd8, 0xbd, 0x36, 0x15, 0x40, 0xbd, 0x10, 0x99, 0x77, 0xbd,
  0x55, 0x15, 0xbe, 0xbd, 0x7c, 0x34, 0x78, 0xbe, 0x1d, 0x4a, 0x40, 0xbc,
  0xe0, 0x00, 0x12, 0xbe, 0x10, 0xec, 0x80, 0x3e, 0xde, 0xc7, 0xaa, 0xbd,
  0x46, 0x18, 0x50, 0xbd, 0x14, 0x65, 0xb8, 0xbd, 0xe7, 0x9f, 0xb5, 0x3d,
  0x0e, 0x90, 0x62, 0x3b, 0x97, 0xd9, 0x21, 0xbe, 0x91, 0x4c, 0x57, 0xbe,
  0xf1, 0x6e, 0x4f, 0xbe, 0x9b, 0x75, 0x98, 0xbd, 0x65, 0xcc, 0xa0, 0x3d,
  0x83, 0x5c, 0x47, 0xbe, 0xa4, 0xfd, 0x17, 0x3c, 0x59, 0xe4, 0x3d, 0xbd,
  0x89, 0xb1, 0x42, 0xbe, 0x73, 0xcd, 0x57, 0xbd, 0xb0, 0x0f, 0x7e, 0x3e,
  0xb2, 0x11, 0xd4, 0xbd, 0xb7, 0xae, 0x78, 0x3d, 0x1e, 0x15, 0xf8, 0xbd,
  0xca, 0x53, 0xd9, 0xbd, 0x95, 0x98, 0x45, 0xbd, 0xa1, 0xaf, 0x2f, 0xbd,
  0x25, 0x28, 0x47, 0xbe, 0x17, 0x97, 0x09, 0x3e, 0x0f, 0xa1, 0x0f, 0xbd,
  0x43, 0x49, 0x99, 0xbd, 0x78, 0x4b, 0x6e, 0xbe, 0x1d, 0x8f, 0xfa, 0x3b,
  0x91, 0xde, 0x92, 0xbd, 0x10, 0xe6, 0x05, 0xbd, 0xed, 0x51, 0xfe, 0xbc,
  0x8f, 0xe6, 0x12, 0x3e, 0xea, 0x4a, 0x38, 0xbe, 0xc2, 0xc4, 0x09, 0xbe,
  0x8f, 0xe8, 0x94, 0xbd, 0x33, 0x2c, 0x2b, 0xbe, 0x01, 0x24, 0xa0, 0xbd,
  0xda, 0x8c, 0xd4, 0x3d, 0x2b, 0x55, 0x6f, 0xbd, 0x34, 0x33, 0x1e, 0xbe,
  0x7c, 0xb6, 0x9a, 0xbd, 0xa6, 0x0d, 0x11, 0xbc, 0x98, 0x03, 0x5e, 0xbd,
  0xa5, 0x59, 0x55, 0x3c, 0xc6, 0x7e, 0x46, 0xbe, 0xf4, 0x53, 0x65, 0xbc,
  0xd2, 0x9d, 0x25, 0x3c, 0x92, 0x85, 0x8a, 0x3d, 0x9a, 0x7a, 0xfb, 0x3c,
  0xe6, 0x51, 0xeb, 0xbd, 0xe4, 0x56, 0xdc, 0x3d, 0xa6, 0x01, 0xd0, 0x3c,
  0xdc, 0x24, 0xa0, 0xbc, 0x9b, 0x47, 0xdc, 0x3d, 0x6b, 0x54, 0x93, 0xbd,
  0x00, 0xdc, 0x65, 0xbb, 0x80, 0xb7, 0x12, 0x3e, 0x47, 0xc6, 0x1d, 0xbe,
  0x46, 0x75, 0x1a, 0xbe, 0xa8, 0x59, 0x04, 0xbe, 0x51, 0x26, 0x25, 0x3e,
  0xd3, 0xe7, 0x4a, 0xbe, 0x68, 0x33, 0xd0, 0xbb, 0xcf, 0x23, 0xf6, 0x3d,
  0xf7, 0x05, 0x5f, 0x3e, 0xdd, 0xf4, 0x75, 0x3d, 0x81, 0x99, 0xe8, 0x3d,
  0xa1, 0x8b, 0xc0, 0xbd, 0x59, 0x9a, 0xd9, 0xbb, 0x26, 0xd8, 0xe1, 0xbd,
  0xd7, 0x0a, 0x53, 0xbe, 0xc0, 0x36, 0xf5, 0x3d, 0x89, 0xd2, 0xec, 0xb9,
  0xe3, 0xf0, 0x3c, 0xbe, 0x8c, 0x5b, 0x98, 0xbd, 0xff, 0x80, 0xea, 0xbc,
  0xa7, 0xae, 0x16, 0xbe, 0xf0, 0x9f, 0x8f, 0xbe, 0x7e, 0x40, 0x43, 0x3e,
  0xf9, 0x39, 0xfb, 0x3d, 0x5d, 0x03, 0x82, 0x3e, 0xf8, 0xd0, 0xb5, 0xbd,
  0x8d, 0xe9, 0xcd, 0xbc, 0x6a, 0xf8, 0xfa, 0xbc, 0x55, 0x21, 0xce, 0xbc,
  0xa9, 0xce, 0x3c, 0xbe, 0xbe, 0x76, 0x25, 0xbe, 0x28, 0x51, 0x87, 0x3d,
  0xd9, 0x25, 0x15, 0xbe, 0xa2, 0x37, 0xb9, 0xbc, 0x4e, 0xbb, 0x70, 0xbd,
  0x41, 0x62, 0xba, 0x3d, 0xf5, 0xf0, 0x86, 0x3e, 0x46, 0xdd, 0x06, 0xbd,
  0x01, 0xc3, 0x32, 0x3e, 0x5f, 0x29, 0x06, 0x3e, 0x6f, 0x2a, 0x71, 0x3e,
  0x4f, 0x92, 0x79, 0xbd, 0xed, 0x5d, 0xd3, 0xbd, 0xd7, 0xb2, 0x57, 0xbe,
  0x88, 0xc4, 0x28, 0xbd, 0x46, 0xed, 0x29, 0x3e, 0x57, 0x4e, 0x51, 0xbd,
  0xb3, 0xf6, 0x80, 0x3e, 0xc7, 0xd6, 0x84, 0xbe, 0xdb, 0x2f, 0x4e, 0xbe,
  0x05, 0xf4, 0x56, 0x3e, 0xa5, 0xef, 0x29, 0x3c, 0xb8, 0xf5, 0x83, 0x3e,
  0xe3, 0x61, 0xe1, 0xbd, 0xed, 0x39, 0x0c, 0xbd, 0x6a, 0xe6, 0x59, 0x3d,
  0x7d, 0xe6, 0x9f, 0x3e, 0x67, 0x17, 0xb6, 0x3b, 0x08, 0xb0, 0x0b, 0x3e,
  0x25, 0xa5, 0xe0, 0xbd, 0xb0, 0x9b, 0xe4, 0xbd, 0x48, 0xd3, 0x0a, 0xbd,
  0x50, 0x78, 0x05, 0x3b, 0x4c, 0xe6, 0x32, 0x3e, 0xe2, 0x90, 0xd8, 0xbd,
  0xf4, 0x5c, 0x1f, 0x3d, 0xe5, 0xae, 0x2b, 0x3c, 0x03, 0xd0, 0x89, 0x3d,
  0xb4, 0xf1, 0xa9, 0x3d, 0xd2, 0x60, 0x2f, 0x3c, 0x40, 0x16, 0x8f, 0x3a,
  0x74, 0x4a, 0xac, 0x3d, 0xbe, 0x01, 0x26, 0x3e, 0xf1, 0x35, 0x09, 0xbe,
  0x70, 0x57, 0xb9, 0xbb, 0xd0, 0x7d, 0x80, 0xbd, 0x03, 0x12, 0x3f, 0x3d,
  0x7b, 0xa8, 0xb1, 0x3d, 0x6c, 0xc6, 0x8d, 0xbd, 0x59, 0xb2, 0x6d, 0x3d,
  0x9b, 0x3c, 0xc9, 0x3c, 0x21, 0x2a, 0x0f, 0xbe, 0xa9, 0x66, 0xa5, 0x3d,
  0x87, 0xd9, 0x39, 0x3e, 0x9b, 0xdd, 0x45, 0x3e, 0x3d, 0x18, 0x90, 0xbe,
  0xe8, 0x9b, 0x13, 0xbd, 0x39, 0x85, 0xfd, 0xbc, 0xc9, 0x91, 0x3a, 0x3e,
  0x91, 0xff, 0xff, 0xbd, 0x1e, 0x5a, 0xe4, 0xbd, 0xa2, 0xc7, 0x0a, 0xbe,
  0x48, 0x4f, 0xf3, 0xbd, 0x1e, 0xcd, 0xfc, 0xbd, 0x8f, 0x61, 0x88, 0xbe,
  0x8f, 0xa5, 0xf3, 0xbd, 0x69, 0x24, 0x90, 0xbe, 0x5d, 0xe7, 0x94, 0xbc,
  0xdc, 0x6f, 0x40, 0xbe, 0x1b, 0x78, 0x5b, 0xbe, 0x81, 0xf4, 0xed, 0x3d,
  0x5f, 0x16, 0xa0, 0xbe, 0x29, 0x8b, 0x67, 0x3c, 0xf0, 0xb0, 0xc4, 0xbd,
  0x38, 0x31, 0xe5, 0x3d, 0x36, 0x71, 0xfa, 0xbd, 0xfa, 0x6c, 0x6c, 0xbe,
  0xe8, 0x3c, 0x4c, 0xbe, 0xeb, 0xba, 0x22, 0x3d, 0xc7, 0xde, 0xf9, 0x3c,
  0xe9, 0xf5, 0xb0, 0xbd, 0xc4, 0xa2, 0xff, 0xbc, 0xfd, 0x9d, 0x65, 0xbe,
  0x88, 0x94, 0x89, 0xbd, 0x42, 0x94, 0x4b, 0xbd, 0x29, 0x0c, 0xac, 0xbd,
  0x73, 0x4e, 0x00, 0x3d, 0x50, 0x87, 0x87, 0xbd, 0x83, 0xb2, 0x35, 0xbe,
  0xb6, 0xbc, 0x1e, 0xbe, 0x69, 0x34, 0x38, 0xbe, 0x49, 0xdb, 0x34, 0x3d,
  0xbd, 0x40, 0xda, 0x3d, 0xbd, 0x45, 0xca, 0xbd, 0x64, 0x3c, 0x4e, 0xbe,
  0x17, 0x67, 0x3b, 0xbc, 0x1e, 0xfd, 0x47, 0xbd, 0x70, 0xfc, 0x6e, 0x3d,
  0x62, 0xb0, 0x13, 0xbe, 0x47, 0x77, 0x8f, 0x3c, 0xdd, 0x76, 0xeb, 0x3c,
  0x9b, 0x8e, 0x07, 0xbd, 0x3c, 0x1f, 0x9b, 0xbd, 0xe1, 0x26, 0x9a, 0x3c,
  0x9e, 0x7d, 0xab, 0x3d, 0xc5, 0x24, 0x07, 0xbe, 0xea, 0xee, 0x97, 0xbc,
  0xfa, 0x3b, 0xf7, 0x3d, 0x8c, 0xbe, 0xf3, 0xbc, 0x60, 0x0c, 0xda, 0xbc,
  0x0f, 0x87, 0x46, 0xbe, 0xc6, 0xcd, 0x23, 0xbe, 0x1c, 0x6c, 0x5c, 0xbe,
  0x02, 0xe9, 0xd3, 0xbd, 0xfb, 0x16, 0x49, 0xbd, 0x7f, 0xd6, 0xb1, 0xbd,
  0xd9, 0xe4, 0xb0, 0x3c, 0xa9, 0xbb, 0x0a, 0xbe, 0x23, 0xd7, 0x1d, 0xbe,
  0x0a, 0x5d, 0x58, 0xbd, 0x04, 0xe0, 0x74, 0xbd, 0xdf, 0xa0, 0x00, 0x3c,
  0x34, 0x0e, 0x9c, 0xbd, 0xbf, 0x8b, 0xdf, 0x3d, 0xf2, 0x04, 0x23, 0xbe,
  0x51, 0x2a, 0xca, 0xb9, 0xe8, 0x32, 0x57, 0xbd, 0xc0, 0xae, 0xb9, 0xbb,
  0x53, 0x78, 0xac, 0xbb, 0x96, 0x86, 0x11, 0x3a, 0x77, 0xa2, 0xa9, 0xbd,
  0xeb, 0xfb, 0xb7, 0x3c, 0xe7, 0x92, 0x60, 0xbd, 0x71, 0x7f, 0x79, 0xbd,
  0x8d, 0xfd, 0x35, 0x3d, 0x1c, 0xc4, 0x5c, 0xbd, 0x8f, 0x43, 0x86, 0xbd,
  0x7f, 0x45, 0xab, 0x3d, 0xa7, 0xb4, 0x24, 0x3d, 0x62, 0x70, 0x49, 0x3c,
  0xf1, 0xfc, 0x8b, 0x3d, 0x9d, 0x43, 0x0a, 0x3c, 0x5c, 0x3e, 0x5a, 0xbd,
  0x1f, 0x74, 0x4d, 0xbc, 0x88, 0xfc, 0x80, 0xbd, 0x4d, 0x92, 0x1b, 0xbe,
  0x9f, 0xb6, 0x23, 0x3d, 0xd2, 0xbc, 0xe7, 0xbc, 0xc3, 0x34, 0x3a, 0x3d,
  0x93, 0xb5, 0x82, 0xbd, 0x49, 0x46, 0x6b, 0xbc, 0x8c, 0xc3, 0x80, 0x3d,
  0x65, 0x28, 0xdb, 0x3c, 0xcd, 0x25, 0x95, 0xbd, 0xd1, 0xa5, 0x27, 0x3c,
  0xba, 0x4a, 0xae, 0x3c, 0xfc, 0x67, 0xf0, 0xbd, 0xfd, 0xd0, 0x30, 0xbe,
  0xee, 0xf7, 0x20, 0xbe, 0x39, 0xe2, 0x64, 0x3d, 0x3d, 0x87, 0x09, 0xbe,
  0x0b, 0xc7, 0x46, 0xbe, 0x37, 0x4b, 0x05, 0xbd, 0x68, 0x19, 0x8c, 0xbd,
  0xf8, 0x2e, 0x5b, 0xbd, 0x57, 0x61, 0xe9, 0xbc, 0x9f, 0x04, 0x98, 0x3d,
  0x8d, 0xa8, 0x05, 0x3e, 0x8b, 0xcb, 0x03, 0xbe, 0xae, 0x5e, 0x37, 0xbe,
  0x9a, 0x4b, 0x80, 0xbc, 0xde, 0x85, 0xbf, 0x3d, 0xed, 0x20, 0x0b, 0x3e,
  0x73, 0xad, 0x3a, 0xbe, 0x73, 0x46, 0xba, 0xbd, 0xee, 0x4b, 0x13, 0x3d,
  0x8d, 0xa6, 0x22, 0xbe, 0x38, 0x0b, 0xb5, 0xbd, 0x36, 0x08, 0xae, 0xbd,
  0xe7, 0xd6, 0x05, 0xbe, 0xe5, 0x32, 0xa8, 0x3c, 0x48, 0x0c, 0x03, 0xbd,
  0x33, 0xbb, 0xb5, 0xbc, 0x0b, 0xe5, 0xec, 0xbd, 0xe7, 0x65, 0x19, 0xbd,
  0x31, 0x38, 0x98, 0xbb, 0x00, 0xfd, 0x2d, 0xbe, 0xa7, 0x98, 0x9d, 0xbc,
  0x10, 0x7d, 0xba, 0x3d, 0x90, 0x68, 0x2b, 0xbe, 0x7e, 0x95, 0x46, 0xbe,
  0xd7, 0xc0, 0x05, 0x3d, 0x0f, 0x31, 0x70, 0x3d, 0xa2, 0xd9, 0xce, 0x3d,
  0x77, 0xfe, 0x51, 0x3d, 0xed, 0x17, 0x02, 0xbe, 0x1d, 0x47, 0xbd, 0xbd,
  0x9a, 0xbe, 0x3d, 0xbe, 0x19, 0x57, 0x10, 0xbe, 0xa1, 0x81, 0xfd, 0xbd,
  0x77, 0x49, 0xd0, 0xbd, 0x2c, 0x9a, 0x21, 0xbe, 0xdc, 0x3f, 0xbe, 0xbd,
  0x32, 0x85, 0x91, 0xbd, 0xc8, 0xf9, 0x8a, 0x3a, 0x34, 0xba, 0xf7, 0xbd,
  0x49, 0x94, 0xf7, 0xbd, 0x7d, 0xde, 0x56, 0x3d, 0xa8, 0xd1, 0x1a, 0xbe,
  0xb4, 0xc9, 0x55, 0xbe, 0x8f, 0xbb, 0xae, 0xbd, 0x4b, 0x50, 0x0d, 0xbd,
  0x9e, 0x84, 0x33, 0x3b, 0x9c, 0x09, 0x5f, 0xbd, 0xfe, 0x08, 0xfa, 0xbd,
  0x1e, 0xa7, 0xa6, 0xbc, 0xc3, 0x7c, 0xc0, 0x3d, 0x5e, 0xd0, 0x16, 0xbc,
  0x98, 0x27, 0x6b, 0x3d, 0xf4, 0x21, 0x1b, 0xbd, 0x83, 0x14, 0x22, 0x3d,
  0x60, 0x39, 0xe9, 0xbd, 0xe6, 0xac, 0x35, 0xbd, 0x05, 0x9f, 0x68, 0x3d,
  0x16, 0x36, 0xcc, 0xbd, 0x78, 0x0d, 0xf1, 0x3c, 0x57, 0xff, 0xab, 0xbd,
  0xbc, 0xb9, 0xc1, 0xbc, 0x39, 0x10, 0x02, 0xbd, 0xcd, 0xc7, 0xb1, 0xbd,
  0x4e, 0x4a, 0xc1, 0x3d, 0xb0, 0x41, 0xa5, 0x3c, 0x2c, 0xa3, 0xbf, 0x3d,
  0x09, 0x8d, 0x48, 0x3d, 0x0b, 0xdd, 0xb1, 0x3d, 0xf0, 0xfc, 0x29, 0x3d,
  0x6f, 0x16, 0x15, 0xbe, 0x40, 0xd9, 0x10, 0xbe, 0x4e, 0xcf, 0x47, 0xbe,
  0xd8, 0x4e, 0x82, 0xbd, 0xc2, 0x07, 0xad, 0xbc, 0xfd, 0xc6, 0x25, 0xbd,
  0xe3, 0x00, 0x8b, 0xbd, 0xf3, 0x47, 0x49, 0x3d, 0x5e, 0x13, 0x90, 0x3d,
  0xcc, 0x1e, 0x60, 0xbe, 0x18, 0x56, 0x82, 0xbd, 0x92, 0x78, 0xf5, 0xbd,
  0x0c, 0x54, 0x4a, 0xbe, 0xac, 0x0b, 0x26, 0xbd, 0x1d, 0x19, 0x55, 0x3c,
  0x6f, 0x35, 0x36, 0xbd, 0x19, 0x00, 0xbd, 0x3d, 0xb1, 0xce, 0x60, 0xbe,
  0x43, 0x9e, 0xa6, 0x3c, 0xf6, 0xd4, 0x87, 0x3d, 0xce, 0xaf, 0xb9, 0xbd,
  0x55, 0x79, 0xc3, 0xbd, 0x7c, 0xf1, 0xdd, 0xbd, 0x29, 0x57, 0xae, 0xbc,
  0xa4, 0x00, 0x18, 0xbe, 0xb4, 0x9b, 0x47, 0xbe, 0xd6, 0x76, 0x52, 0xbd,
  0x9c, 0x19, 0xe8, 0xbc, 0xe9, 0x59, 0xbf, 0x3c, 0xae, 0xf0, 0xd3, 0x3d,
  0x24, 0xd6, 0x87, 0xbc, 0xb5, 0x47, 0x00, 0xbe, 0x14, 0x7c, 0xd9, 0x3d,
  0xb8, 0x79, 0xcf, 0x3c, 0xcb, 0x1a, 0x83, 0xbe, 0x54, 0xbf, 0xa4, 0x3d,
  0xba, 0xff, 0xde, 0x3d, 0x3b, 0x0b, 0x65, 0xbd, 0x45, 0x1c, 0x0a, 0xbe,
  0x65, 0xa6, 0x0d, 0xbe, 0xb0, 0xbe, 0x57, 0xbe, 0x22, 0x84, 0x21, 0xbe,
  0x4a, 0xc8, 0x81, 0x3d, 0xc8, 0x39, 0x96, 0x3d, 0x76, 0x17, 0x3c, 0xbe,
  0x2b, 0xa6, 0x87, 0x3d, 0x34, 0x98, 0x9a, 0xbd, 0x0d, 0x6a, 0xb8, 0x3d,
  0xfe, 0xc8, 0xf6, 0xbd, 0xa0, 0xc0, 0xe3, 0xbd, 0xb5, 0xab, 0xc3, 0xbd,
  0x0c, 0x19, 0x8f, 0xbd, 0xdb, 0x2b, 0x60, 0x3c, 0xbe, 0xb4, 0xbf, 0xbd,
  0xe1, 0x76, 0xa4, 0xbe, 0x86, 0x4b, 0x40, 0xbe, 0x7c, 0xfa, 0xce, 0xbd,
  0x76, 0x7c, 0x62, 0xbe, 0xb0, 0x7d, 0x21, 0x3d, 0xe1, 0x7d, 0x1d, 0xbc,
  0xc9, 0xb6, 0xb3, 0xbc, 0x8f, 0x63, 0x23, 0xbe, 0xa5, 0xdf, 0x81, 0x3d,
  0x75, 0xe4, 0x00, 0xbe, 0xa9, 0x89, 0x1c, 0xbe, 0x22, 0x56, 0x68, 0xbe,
  0xb6, 0x85, 0x27, 0xbe, 0x55, 0x69, 0xbe, 0x3d, 0xd9, 0xd1, 0x81, 0x3e,
  0xd7, 0xc4, 0x35, 0x3c, 0xfc, 0x98, 0xaa, 0x3e, 0xfd, 0xd9, 0x25, 0x3b,
  0xb2, 0x03, 0xa7, 0x3c, 0xb3, 0x33, 0xc5, 0xbd, 0xe7, 0x3f, 0x89, 0x3d,
  0xd6, 0x8d, 0x50, 0xbd, 0x9d, 0xdb, 0xd2, 0x3b, 0xc8, 0x42, 0x28, 0x3e,
  0x30, 0xac, 0x55, 0x3d, 0xc2, 0x4c, 0xc8, 0xbd, 0x44, 0x3e, 0x5a, 0x3e,
  0xf2, 0x97, 0x2f, 0xbe, 0x1b, 0xc8, 0xbd, 0xbc, 0xdc, 0x8f, 0x5e, 0xb7,
  0xc4, 0x5a, 0xa6, 0x3e, 0xdc, 0x42, 0xad, 0x3d, 0x69, 0x5e, 0x7e, 0xbc,
  0xf8, 0x05, 0x30, 0xbc, 0xa2, 0x91, 0x65, 0x3d, 0x99, 0xab, 0xa4, 0xbd,
  0xdd, 0xd2, 0xf0, 0x3c, 0xab, 0x96, 0x3f, 0xbd, 0x44, 0x04, 0x41, 0x3e,
  0xa6, 0xd4, 0xa3, 0x3d, 0x34, 0x51, 0x60, 0x3e, 0x40, 0x89, 0xe2, 0xbd,
  0xc2, 0x84, 0x34, 0xbe, 0x5f, 0x7b, 0xf1, 0xbd, 0x9f, 0x46, 0x4a, 0x3d,
  0x3d, 0xd4, 0x60, 0xbc, 0x5c, 0xd5, 0xb6, 0x3d, 0x87, 0x65, 0x27, 0x3e,
  0x4d, 0x52, 0x14, 0xbe, 0xc6, 0xee, 0xc0, 0xbd, 0x3e, 0x89, 0x9b, 0x3d,
  0x11, 0x88, 0x6d, 0xbc, 0x87, 0xdc, 0xf4, 0x3d, 0xb6, 0x71, 0x1c, 0xbd,
  0x5a, 0x30, 0x38, 0x3e, 0xfe, 0xc6, 0x19, 0x3e, 0x92, 0xf6, 0x0b, 0x3e,
  0xfc, 0x64, 0x22, 0xbd, 0x20, 0x30, 0xcb, 0xbd, 0x3f, 0x55, 0x91, 0xbd,
  0xc1, 0x94, 0x03, 0x3c, 0x70, 0x6b, 0x96, 0xbd, 0x79, 0xd6, 0x82, 0xbd,
  0x65, 0x5e, 0x10, 0x3e, 0xa9, 0x4b, 0x8c, 0xbd, 0x26, 0x5f, 0xf6, 0xbd,
  0x36, 0xbb, 0x9e, 0x3d, 0xed, 0x67, 0x80, 0xbd, 0xf5, 0x17, 0x69, 0x3e,
  0x83, 0x22, 0x11, 0xbe, 0x24, 0x35, 0x05, 0x3e, 0x61, 0xe9, 0x15, 0x3e,
  0x13, 0x6e, 0x37, 0x3e, 0xe4, 0x9e, 0x4d, 0xbc, 0xde, 0x1e, 0x1c, 0xbe,
  0x01, 0xa0, 0xf7, 0xbc, 0x29, 0x10, 0x55, 0x3c, 0x24, 0xbc, 0xfd, 0xbc,
  0xd6, 0x45, 0xd0, 0xbb, 0xca, 0x38, 0x68, 0x3e, 0x5c, 0xbc, 0x4e, 0xbd,
  0xe9, 0x30, 0x82, 0xbd, 0x55, 0xf0, 0x8d, 0x3c, 0xa5, 0xe5, 0xbe, 0xbd,
  0xb8, 0x60, 0x4b, 0x3e, 0x38, 0x7a, 0x0e, 0xbe, 0xc9, 0x31, 0x68, 0x3d,
  0xce, 0x83, 0x3b, 0x3e, 0x62, 0x55, 0x4e, 0x3e, 0x45, 0x5f, 0xc8, 0xbd,
  0x0d, 0x79, 0x0e, 0xbe, 0x5c, 0x35, 0x16, 0xbd, 0xea, 0x18, 0x0c, 0xbd,
  0x0c, 0x7d, 0xc4, 0xbd, 0xf8, 0xdf, 0xc2, 0xba, 0x9f, 0x40, 0x18, 0x3e,
  0xac, 0x5d, 0x36, 0x3c, 0xc1, 0xd9, 0x6f, 0xbd, 0xce, 0x9b, 0x8d, 0x3d,
  0x3c, 0x73, 0xbe, 0xbc, 0x77, 0x30, 0x74, 0x3d, 0xea, 0x6f, 0x15, 0xbd,
  0xe0, 0xd3, 0x13, 0x3d, 0xfb, 0x10, 0x2b, 0x3e, 0xc1, 0xcf, 0x95, 0x3e,
  0x46, 0xe1, 0x91, 0x3d, 0x36, 0x02, 0x2c, 0xbe, 0x2f, 0xa0, 0x90, 0xbc,
  0x31, 0xc6, 0xb7, 0x3c, 0x77, 0x40, 0xc7, 0xbc, 0x2a, 0x96, 0x88, 0xbd,
  0xb8, 0x18, 0x75, 0x3e, 0xde, 0x4f, 0x68, 0x3d, 0x4c, 0x55, 0x05, 0xbd,
  0x01, 0x21, 0xe4, 0x3c, 0x2d, 0x19, 0xe4, 0xbd, 0x7c, 0x46, 0x0a, 0x3e,
  0xa9, 0x79, 0xa7, 0xbd, 0x9a, 0x8a, 0x56, 0xbb, 0x55, 0x85, 0x40, 0x3e,
  0x29, 0x18, 0x80, 0x3e, 0x90, 0x73, 0x0e, 0x3e, 0xa9, 0x40, 0xfd, 0xbd,
  0x8e, 0x61, 0x1c, 0xbd, 0xd5, 0x13, 0xd5, 0x3c, 0x2a, 0x52, 0x00, 0xbd,
  0xb4, 0x83, 0x9f, 0xbd, 0x94, 0xa6, 0x87, 0x38, 0x22, 0xf5, 0xdc, 0x3d,
  0xb6, 0xa4, 0x8d, 0x3b, 0xf5, 0x4c, 0xa5, 0x3d, 0xcb, 0x69, 0x72, 0xbc,
  0x3b, 0x16, 0x0b, 0x3e, 0x79, 0x90, 0xcf, 0xbd, 0xe9, 0x22, 0x2e, 0x3e,
  0x5d, 0xa1, 0x5c, 0x3e, 0x7a, 0xf6, 0x70, 0x3e, 0x80, 0x8e, 0xe7, 0x3d,
  0xb0, 0x4b, 0x91, 0xbd, 0xa5, 0xaf, 0x80, 0xbd, 0x96, 0xb6, 0x60, 0x3c,
  0x28, 0x86, 0xb5, 0xbd, 0xd0, 0x3e, 0x13, 0xbe, 0x14, 0x60, 0xa0, 0x3c,
  0xbb, 0x52, 0xd0, 0x3c, 0x20, 0x9d, 0x08, 0xbc, 0x8e, 0x4c, 0x81, 0x3d,
  0x91, 0x3e, 0x89, 0xbd, 0x7b, 0x2c, 0x23, 0x3d, 0xbb, 0x4e, 0xa9, 0xbd,
  0x98, 0x56, 0xeb, 0x3b, 0x74, 0xde, 0x96, 0x3d, 0x4c, 0x90, 0x81, 0x3e,
  0xfb, 0x8e, 0x42, 0xbd, 0x2d, 0x57, 0xc7, 0xbd, 0xac, 0xc6, 0x53, 0xbd,
  0xdc, 0x6b, 0x99, 0xbb, 0x70, 0x12, 0x99, 0xbc, 0xcb, 0xac, 0x11, 0xbe,
  0x63, 0xf8, 0x42, 0x3d, 0xa1, 0x2f, 0x5f, 0xbc, 0x26, 0x90, 0x21, 0xbd,
  0xe1, 0x42, 0xae, 0x3d, 0x6d, 0x40, 0x00, 0xbe, 0x13, 0x8b, 0x2f, 0x3e,
  0x8f, 0x0e, 0xcd, 0xbd, 0x25, 0xbe, 0x69, 0x3e, 0x85, 0x30, 0xce, 0x3d,
  0x7e, 0xf1, 0x5e, 0x3e, 0x9e, 0x5c, 0xbf, 0x3d, 0x74, 0x24, 0xb5, 0xbd,
  0x52, 0xa4, 0x0d, 0xbd, 0x4e, 0x72, 0xf4, 0x3b, 0xe6, 0x97, 0x41, 0xbd,
  0x92, 0x9b, 0xc0, 0xbd, 0x1e, 0xe5, 0x93, 0x3d, 0xed, 0xe7, 0xf4, 0xbd,
  0x3a, 0xae, 0x42, 0xbd, 0x0a, 0x91, 0x5e, 0x3d, 0x76, 0xe1, 0x77, 0xbd,
  0x9c, 0x8b, 0x72, 0x3d, 0x85, 0x61, 0x23, 0x3c, 0x6e, 0x76, 0xaa, 0x3d,
  0xd8, 0xac, 0xb1, 0x3d, 0x32, 0xfd, 0x87, 0x3e, 0x64, 0x31, 0x1d, 0x3e,
  0x53, 0xda, 0x78, 0xbd, 0xae, 0x21, 0x1a, 0xbd, 0xff, 0x4d, 0x06, 0x3d,
  0x46, 0xb9, 0x6b, 0x3d, 0x1b, 0x9c, 0x12, 0xbd, 0x07, 0x92, 0xb9, 0x3d,
  0x85, 0x9d, 0x99, 0xbd, 0xa2, 0x56, 0x01, 0xbd, 0x11, 0xf3, 0xa7, 0x3d,
  0x76, 0x4e, 0xeb, 0xbc, 0x6c, 0x6e, 0x39, 0x3d, 0x06, 0x37, 0xfb, 0xbc,
  0xa9, 0x8d, 0x17, 0x3e, 0x76, 0x9f, 0xbf, 0x3d, 0x27, 0x3e, 0x25, 0x3e,
  0xd4, 0x51, 0x0c, 0xbc, 0x09, 0x4c, 0x00, 0xbd, 0x91, 0x5f, 0xfc, 0xbd,
  0xbc, 0xc0, 0x4b, 0x3d, 0x0c, 0xa2, 0x15, 0xbc, 0xe0, 0x03, 0x5a, 0xbc,
  0x5f, 0xf1, 0x41, 0x3e, 0x14, 0xaa, 0xb1, 0xbd, 0x3d, 0x9c, 0xc5, 0xbb,
  0xe2, 0x2c, 0x5e, 0x3d, 0xe2, 0x91, 0x10, 0xb8, 0x00, 0xa7, 0x69, 0xbe,
  0x95, 0xe5, 0x94, 0xbd, 0x09, 0xd0, 0xce, 0x3d, 0x11, 0xdc, 0x8f, 0x3e,
  0x3d, 0x62, 0x4f, 0x3e, 0x8f, 0x53, 0xa4, 0x3d, 0x7f, 0x8c, 0x0d, 0xbe,
  0xe3, 0x3d, 0x42, 0xbe, 0xc2, 0x51, 0x00, 0x3d, 0x77, 0xbd, 0x2c, 0x3e,
  0x30, 0xc2, 0x8d, 0x3c, 0x03, 0x51, 0xfb, 0x3d, 0xe9, 0x26, 0x6a, 0x3d,
  0x96, 0xe6, 0x5d, 0xbc, 0x5a, 0x37, 0xbb, 0x3d, 0x5f, 0x00, 0xa9, 0x3d,
  0xdd, 0xce, 0x05, 0xbe, 0x35, 0xe6, 0x20, 0xbb, 0xe3, 0xb2, 0x55, 0x3e,
  0x90, 0x89, 0xc2, 0xbc, 0x4d, 0x81, 0xc4, 0x3d, 0x42, 0xb5, 0x3e, 0xbd,
  0x27, 0xa2, 0xf3, 0xbd, 0xe2, 0xd0, 0x25, 0xbe, 0x2a, 0x0b, 0x41, 0xbc,
  0x5f, 0x90, 0x3c, 0xbe, 0x4c, 0x70, 0xbc, 0x3b, 0x70, 0x27, 0x05, 0xbe,
  0x19, 0x65, 0xa1, 0x3d, 0x54, 0x19, 0xa2, 0xbd, 0xbe, 0x88, 0x66, 0x3d,
  0xb8, 0x63, 0x0e, 0xbe, 0x23, 0xab, 0xbc, 0xbd, 0x96, 0x70, 0x29, 0xbd,
  0x39, 0x85, 0x04, 0x3d, 0xed, 0xb3, 0xda, 0xbc, 0x28, 0x01, 0x89, 0xbb,
  0x64, 0x87, 0x8b, 0x3d, 0x5e, 0x05, 0x26, 0x3e, 0xc0, 0x3f, 0x1a, 0xbd,
  0xf7, 0x97, 0x12, 0xbe, 0x65, 0x79, 0x82, 0x3d, 0x02, 0xd4, 0x94, 0xbb,
  0x3a, 0xca, 0x61, 0xbe, 0x8b, 0xce, 0xff, 0xbc, 0xbb, 0x78, 0x21, 0xbc,
  0xcc, 0xdd, 0x08, 0x3c, 0x26, 0xf0, 0xa7, 0xbd, 0x9b, 0x77, 0xef, 0xbd,
  0x14, 0x19, 0x52, 0xbd, 0xc2, 0x58, 0xfe, 0xbd, 0xd6, 0xc8, 0x32, 0xbe,
  0x00, 0xb4, 0x05, 0x3c, 0x52, 0x57, 0x46, 0x3c, 0xd8, 0x5e, 0x1c, 0xbe,
  0x46, 0x91, 0x08, 0xbe, 0xa1, 0x5e, 0x64, 0xbe, 0x09, 0x6d, 0x38, 0xbd,
  0xfe, 0x39, 0x82, 0x3c, 0x1b, 0xda, 0x8a, 0xbd, 0xd9, 0x66, 0x86, 0xbd,
  0x91, 0xc1, 0x49, 0xbe, 0x45, 0x1f, 0x4b, 0xbe, 0x22, 0xe7, 0xeb, 0x3c,
  0x92, 0x0b, 0xa7, 0xbd, 0xde, 0xbe, 0x6e, 0x3c, 0xd4, 0x37, 0x7d, 0x3d,
  0x2e, 0x85, 0xca, 0x3d, 0xa7, 0x4d, 0x02, 0xbe, 0x4e, 0x72, 0x05, 0x3e,
  0x6e, 0x3e, 0x88, 0xbd, 0x65, 0x69, 0x4f, 0xbe, 0x91, 0xd5, 0x11, 0xbe,
  0xcc, 0xc5, 0xe5, 0x3c, 0x4e, 0x75, 0xc5, 0x3c, 0x5a, 0xb9, 0x04, 0xbe,
  0x16, 0x3a, 0x6a, 0x3d, 0xda, 0x12, 0xa7, 0xbd, 0x8d, 0x6d, 0x75, 0x3c,
  0xf0, 0xca, 0x62, 0x3d, 0x58, 0xda, 0x04, 0xbd, 0x17, 0x7b, 0xb8, 0xbd,
  0x77, 0x8e, 0x02, 0x3a, 0xcd, 0x51, 0x8e, 0xbd, 0x04, 0x32, 0xe4, 0xbc,
  0x00, 0x23, 0x60, 0xbd, 0x14, 0x20, 0x0a, 0x3e, 0x1a, 0x20, 0x70, 0xbe,
  0xe5, 0xc7, 0x4e, 0xbe, 0xed, 0xc1, 0x4a, 0xbd, 0x28, 0x68, 0x80, 0xbd,
  0xc4, 0xb4, 0x90, 0x3d, 0xf5, 0x4f, 0xcb, 0x3c, 0x13, 0xcd, 0x8e, 0x3b,
  0x4a, 0xec, 0x21, 0xbd, 0xcb, 0x43, 0xbd, 0xbd, 0xff, 0xba, 0x00, 0x3e,
  0x1d, 0x90, 0x23, 0xbe, 0x88, 0x71, 0x3e, 0x3d, 0xee, 0x22, 0xb7, 0xbd,
  0x17, 0x71, 0x1b, 0xbe, 0xc8, 0x4e, 0x8d, 0xbd, 0xb4, 0x31, 0xe1, 0x3d,
  0x63, 0x7f, 0x12, 0xbe, 0x15, 0x72, 0xb4, 0xbc, 0xd2, 0xb9, 0x0f, 0xbe,
  0x18, 0x5d, 0x1a, 0x3e, 0x7b, 0x0b, 0xb0, 0xbd, 0xde, 0x3a, 0x00, 0xbe,
  0x3d, 0x90, 0xec, 0x3b, 0x3b, 0xa8, 0x66, 0xbd, 0x04, 0xe6, 0x46, 0xbe,
  0x2e, 0xdb, 0x82, 0x3d, 0x82, 0xc1, 0x50, 0xbd, 0x35, 0xf9, 0x1a, 0xbe,
  0x30, 0xaf, 0x24, 0xbe, 0x39, 0x88, 0x0d, 0x3e, 0x6c, 0x12, 0x8e, 0xbd,
  0xce, 0xd8, 0xa4, 0xbd, 0xea, 0x62, 0x53, 0x3d, 0x46, 0x3f, 0x2a, 0xbe,
  0x0b, 0x43, 0xb5, 0xbb, 0x18, 0x5b, 0xcb, 0x3c, 0x49, 0xe8, 0x2f, 0x3d,
  0x5c, 0x14, 0xee, 0x3d, 0x0f, 0xc7, 0x11, 0xbc, 0x25, 0xb3, 0x17, 0x3b,
  0xc0, 0x47, 0x7f, 0x3c, 0xc2, 0x89, 0xdf, 0x3c, 0x46, 0xa4, 0x27, 0xb9,
  0x30, 0x13, 0x8d, 0xbd, 0x75, 0x40, 0xf0, 0xbd, 0x19, 0x88, 0x7a, 0x3d,
  0xad, 0x22, 0xe7, 0xbd, 0x1d, 0x27, 0xd8, 0xbd, 0x4b, 0x94, 0x2e, 0xbd,
  0xb1, 0x13, 0x21, 0x3d, 0xf4, 0xdd, 0x8e, 0x3d, 0x7b, 0xa1, 0x16, 0x3d,
  0x1e, 0x25, 0x98, 0xbd, 0x52, 0xe6, 0x98, 0xbd, 0x61, 0xcb, 0x20, 0xbe,
  0xea, 0x21, 0x18, 0xbc, 0xc5, 0xeb, 0xd0, 0xbc, 0xd3, 0x91, 0xd5, 0xbd,
  0x49, 0x03, 0x32, 0xbe, 0x74, 0x99, 0x69, 0xbc, 0x0e, 0xaf, 0x02, 0xbe,
  0x9d, 0xb3, 0x87, 0xbd, 0xc8, 0xa2, 0xc9, 0xbd, 0x7d, 0x40, 0x27, 0xbd,
  0x45, 0xd9, 0x2c, 0x3d, 0x9c, 0xbd, 0x0e, 0xbe, 0x79, 0xb1, 0x16, 0xbe,
  0x79, 0xae, 0xde, 0xbd, 0xf4, 0x75, 0x38, 0x3d, 0x53, 0xaf, 0x00, 0x3e,
  0xbb, 0x38, 0x28, 0xbe, 0x62, 0xb1, 0x26, 0xbe, 0xc5, 0x83, 0x59, 0xbe,
  0xee, 0xfc, 0xb6, 0x3d, 0xd6, 0x74, 0x3b, 0xbe, 0x0d, 0xe0, 0xf2, 0xbd,
  0xe6, 0xf4, 0x23, 0xbe, 0x23, 0x33, 0xce, 0xbd, 0xf5, 0x7b, 0xbd, 0xbc,
  0xd3, 0x63, 0x88, 0x3d, 0x04, 0xce, 0xa5, 0xbd, 0xfa, 0x0a, 0x00, 0xbe,
  0xba, 0x84, 0x9b, 0x3d, 0x6c, 0xd0, 0xf4, 0xbd, 0x3a, 0x5e, 0x33, 0xbe,
  0x95, 0x14, 0xe9, 0xbd, 0x94, 0xba, 0x9e, 0xbd, 0x96, 0xfb, 0x1d, 0xbe,
  0xac, 0xbe, 0x50, 0xbd, 0x74, 0x72, 0x54, 0xbb, 0xba, 0x7d, 0x3b, 0xbd,
  0x14, 0xec, 0x9e, 0x3a, 0x19, 0x63, 0xd3, 0x3d, 0xfe, 0x20, 0xb7, 0xbd,
  0x6b, 0x98, 0x07, 0x3e, 0xde, 0x12, 0x62, 0x3d, 0x99, 0xd8, 0x26, 0xbe,
  0x37, 0xb2, 0x3e, 0xbd, 0xbb, 0x8c, 0xcc, 0xbd, 0xb3, 0xb9, 0x78, 0xbc,
  0xae, 0x80, 0x2b, 0xbd, 0x15, 0x27, 0xdf, 0x3d, 0xa2, 0xf6, 0x2d, 0x39,
  0xa6, 0xb2, 0x6a, 0xbc, 0xe4, 0xfd, 0x10, 0x3a, 0x1b, 0x35, 0x07, 0xbc,
  0xec, 0xb7, 0x69, 0xbe, 0xcb, 0xca, 0x08, 0x3d, 0xe9, 0x46, 0xf5, 0xbd,
  0xfd, 0xfd, 0xf8, 0xbd, 0x90, 0x75, 0xb8, 0x3d, 0x9f, 0x5e, 0x94, 0xbd,
  0xed, 0x3c, 0x36, 0xbe, 0x26, 0xbc, 0x3c, 0xbe, 0xd3, 0xdf, 0x60, 0x3d,
  0xb6, 0x82, 0x69, 0xbd, 0x4a, 0x37, 0x3b, 0xbb, 0x43, 0x75, 0xc1, 0xbd,
  0x86, 0x9d, 0x11, 0xbe, 0x4a, 0x81, 0xe6, 0xbc, 0xdc, 0x4b, 0x3b, 0xbd,
  0xf9, 0x8e, 0x07, 0xbd, 0xea, 0x75, 0xfb, 0xbd, 0xf6, 0x12, 0x19, 0x3c,
  0xcc, 0xf7, 0x3a, 0xbe, 0x92, 0x79, 0x7b, 0xbd, 0x3f, 0x10, 0x2e, 0x3d,
  0xff, 0x4d, 0xd0, 0x3d, 0x9b, 0x47, 0x44, 0xbe, 0x56, 0x0c, 0x54, 0xbe,
  0x45, 0xbe, 0xa0, 0xbc, 0xcc, 0x64, 0x05, 0x3e, 0xa2, 0xbf, 0x91, 0xbd,
  0x16, 0x77, 0xb6, 0xbd, 0x41, 0xde, 0xcf, 0xbd, 0xf3, 0xc1, 0x79, 0xbe,
  0x81, 0x55, 0xb9, 0xbc, 0x5f, 0xf2, 0x6c, 0xbd, 0x63, 0x6d, 0xe6, 0xbd,
  0xc1, 0x62, 0xdf, 0x3d, 0x8e, 0x04, 0xab, 0xbd, 0xf5, 0x3f, 0x74, 0x3d,
  0x87, 0x06, 0xaa, 0x3d, 0xfe, 0x68, 0xe1, 0xbc, 0x23, 0x7d, 0xa5, 0xbd,
  0x48, 0xb3, 0x03, 0xbd, 0x9d, 0x93, 0xb2, 0x3d, 0x05, 0x41, 0x30, 0xbe,
  0x08, 0x29, 0x48, 0xbe, 0x6b, 0xc0, 0x9f, 0xbe, 0x6f, 0x37, 0x90, 0xbd,
  0x32, 0x06, 0x32, 0x3d, 0x27, 0xfe, 0x33, 0xbe, 0xa6, 0xff, 0xcc, 0x3d,
  0x8a, 0xee, 0x4a, 0xbe, 0xba, 0xe8, 0xd5, 0x3c, 0x0d, 0xa9, 0xaa, 0x3c,
  0x61, 0x98, 0x09, 0xbd, 0xc2, 0x27, 0x88, 0xbc, 0x75, 0xd9, 0x75, 0xbc,
  0x9c, 0x86, 0x2d, 0xbe, 0xf4, 0x3a, 0x12, 0xbe, 0x2e, 0x37, 0x94, 0xbe,
  0xae, 0xd5, 0xfc, 0xbe, 0xdb, 0xdc, 0x73, 0xbe, 0x5e, 0xe7, 0x76, 0xbe,
  0xb2, 0x7e, 0x18, 0x3d, 0x51, 0xfa, 0x9f, 0xbd, 0x81, 0x24, 0xd2, 0xbe,
  0xa5, 0xd6, 0x42, 0x3e, 0x95, 0x54, 0xce, 0xbe, 0x96, 0x73, 0x8e, 0x3c,
  0xbc, 0xc2, 0xb4, 0x3e, 0x22, 0x53, 0xa6, 0x3e, 0xe7, 0xe3, 0x76, 0x3d,
  0x5a, 0xbf, 0x0e, 0xbe, 0xda, 0xc3, 0x40, 0xbe, 0x3f, 0x40, 0x48, 0x3e,
  0x8e, 0x1b, 0x1a, 0xbd, 0x66, 0xd0, 0x80, 0x3e, 0x67, 0x81, 0x38, 0xbe,
  0xc7, 0x10, 0x07, 0xbd, 0xe2, 0xfe, 0x7b, 0x3d, 0x45, 0xe3, 0xc2, 0x3c,
  0xe8, 0x4a, 0x90, 0x3c, 0xb6, 0x1c, 0x78, 0x3e, 0x12, 0x15, 0xab, 0x3d,
  0xf9, 0x6e, 0xae, 0xbd, 0x80, 0x88, 0xae, 0x3d, 0x7a, 0x01, 0xaf, 0xbe,
  0xbc, 0x7b, 0xd1, 0x3c, 0x3f, 0xfd, 0x7d, 0xbe, 0x69, 0xa4, 0x39, 0x3e,
  0x60, 0x9c, 0xac, 0x3d, 0x20, 0x3a, 0xe1, 0xbd, 0x9e, 0x13, 0xb3, 0x3d,
  0x16, 0xd4, 0xc6, 0xbe, 0xe5, 0xf4, 0x97, 0x3e, 0x43, 0x83, 0x3a, 0xbc,
  0x40, 0xf6, 0x6e, 0xbd, 0xc7, 0x12, 0xe5, 0x3d, 0x89, 0xed, 0x69, 0x3d,
  0xb8, 0x6b, 0x89, 0xbd, 0xec, 0x52, 0xc5, 0x3d, 0x8e, 0xbe, 0x96, 0xbd,
  0x7d, 0xc2, 0x49, 0xbe, 0x10, 0xde, 0x91, 0x3d, 0x57, 0xe9, 0x31, 0xbe,
  0xea, 0xb2, 0xa2, 0x3d, 0xbb, 0x25, 0xe3, 0x3d, 0xf7, 0x47, 0xd3, 0x3d,
  0xd0, 0x0d, 0x2f, 0xbe, 0x61, 0x8a, 0x60, 0xbe, 0xca, 0x8c, 0x82, 0x3e,
  0x8a, 0x44, 0x3d, 0x3d, 0x1b, 0x69, 0xbb, 0xba, 0x5c, 0x52, 0x1f, 0x3e,
  0x6a, 0xc7, 0x0c, 0xbd, 0xaa, 0x33, 0x0b, 0xbe, 0x17, 0xf7, 0x71, 0x3e,
  0xd2, 0xdd, 0x04, 0xbe, 0xf1, 0x0b, 0x97, 0xbe, 0x6e, 0xb2, 0xeb, 0xbd,
  0x57, 0x61, 0x8a, 0xbd, 0x8c, 0x50, 0xed, 0xbc, 0x67, 0x71, 0x3a, 0xbb,
  0x36, 0xe8, 0x4b, 0x3e, 0x82, 0x61, 0x2c, 0x3e, 0x2e, 0xc2, 0x18, 0xbe,
  0xa4, 0x4b, 0x80, 0x3e, 0x67, 0xe3, 0x68, 0xbc, 0xdb, 0xaf, 0x25, 0xbe,
  0x73, 0xe8, 0xe9, 0x3d, 0xff, 0xf5, 0xb6, 0xbe, 0xb5, 0x0e, 0x82, 0xbd,
  0x93, 0x69, 0x7c, 0x3d, 0x53, 0x4a, 0xb5, 0xbe, 0x9c, 0xd1, 0x2f, 0xbe,
  0x65, 0x09, 0x07, 0xbe, 0xe4, 0xac, 0x1d, 0x3e, 0x0c, 0x7c, 0x38, 0xbe,
  0x76, 0x32, 0xa2, 0xbc, 0x85, 0x96, 0xbb, 0x3e, 0x92, 0x21, 0x97, 0xbe,
  0xd4, 0xee, 0xa7, 0x3d, 0xcb, 0x21, 0x28, 0x3e, 0x91, 0x50, 0x66, 0x3d,
  0xc2, 0xd9, 0x5f, 0xbe, 0x5a, 0x13, 0x35, 0x3e, 0x1a, 0x59, 0x25, 0xbe,
  0xa0, 0x1c, 0x80, 0xbd, 0xf6, 0x91, 0xfc, 0x3d, 0xe8, 0x9d, 0x98, 0xbe,
  0x6f, 0xe9, 0xf5, 0xbe, 0xcb, 0x9a, 0xf5, 0xbd, 0x22, 0x46, 0x89, 0x3d,
  0x14, 0xc6, 0xe4, 0x3b, 0xdc, 0x93, 0x04, 0x3c, 0x1a, 0x91, 0x44, 0x3e,
  0xe3, 0x9c, 0xa7, 0xbe, 0x55, 0xc7, 0x58, 0x3e, 0x77, 0xcc, 0x98, 0x3d,
  0x65, 0xb8, 0x4b, 0x3d, 0xe6, 0x03, 0xf3, 0xbe, 0xfe, 0xe2, 0xcb, 0x3d,
  0x39, 0x0b, 0xd4, 0xbe, 0x72, 0xc0, 0x59, 0x3e, 0x7b, 0x9c, 0x1d, 0x3e,
  0x95, 0x1e, 0x85, 0xbe, 0x23, 0xe2, 0x2a, 0xbf, 0x3c, 0x92, 0xef, 0xbd,
  0xaf, 0x70, 0xbe, 0x3c, 0x48, 0xc4, 0xe7, 0xbd, 0xed, 0xa3, 0xee, 0xbb,
  0x9d, 0x75, 0x84, 0xbe, 0xbd, 0xa2, 0x75, 0xbe, 0x5e, 0x37, 0x78, 0x3d,
  0xc8, 0x5e, 0x9d, 0xbe, 0xd3, 0xc3, 0x55, 0x3c, 0xa9, 0x10, 0xa4, 0xbe,
  0x99, 0x65, 0xfb, 0xbe, 0xce, 0x37, 0x2c, 0x3e, 0x26, 0x9a, 0x68, 0x3e,
  0x0d, 0x07, 0x87, 0x3d, 0x13, 0xb2, 0x6d, 0x3d, 0x4b, 0xd3, 0x08, 0xbf,
  0x2a, 0x45, 0x1d, 0xbe, 0xdc, 0x16, 0x67, 0xbd, 0xdf, 0x8d, 0x2e, 0xbd,
  0x7e, 0x00, 0x78, 0xbb, 0x6d, 0x06, 0x86, 0xbd, 0xe2, 0x0d, 0x19, 0x3e,
  0x1a, 0x07, 0x45, 0x3d, 0x40, 0x2e, 0x50, 0xbd, 0xee, 0xfe, 0xcd, 0x3c,
  0x30, 0xd5, 0x44, 0xbe, 0xc6, 0x63, 0x58, 0x3e, 0xc4, 0x8a, 0x1c, 0x3e,
  0x6b, 0xe9, 0x09, 0x3e, 0x65, 0xe6, 0xf7, 0x3d, 0xce, 0x04, 0xe9, 0x3c,
  0xfe, 0x00, 0x04, 0xbf, 0x94, 0xb9, 0xbc, 0x3d, 0xd9, 0xbf, 0xbd, 0xbd,
  0xfc, 0xa0, 0x1f, 0x3e, 0x6b, 0x6b, 0x4e, 0x3c, 0x7e, 0x6e, 0x87, 0x3d,
  0x7c, 0xb7, 0xfe, 0xbb, 0xd9, 0x96, 0xfe, 0x3a, 0xec, 0x05, 0x17, 0x3e,
  0xe1, 0xcf, 0x8d, 0xbd, 0xc2, 0x8c, 0x95, 0xbd, 0xff, 0x6a, 0xa0, 0x3c,
  0x92, 0x10, 0x43, 0x3e, 0x0d, 0x5b, 0x61, 0x3d, 0x75, 0xf2, 0x95, 0x3e,
  0x37, 0x8c, 0xda, 0x3d, 0xad, 0x74, 0xbd, 0xbe, 0x5f, 0xbd, 0xcb, 0x3d,
  0x78, 0x76, 0x8d, 0xbe, 0x57, 0xec, 0xda, 0x3d, 0x00, 0x71, 0x21, 0xbd,
  0xd7, 0x6f, 0x85, 0x3c, 0x2c, 0x1f, 0x65, 0xbc, 0x07, 0x0e, 0xc0, 0x3d,
  0x62, 0xff, 0x43, 0x3e, 0x5f, 0x50, 0x58, 0x3b, 0x62, 0x39, 0x48, 0xbe,
  0x9c, 0x20, 0x0f, 0x3e, 0x15, 0x29, 0x3b, 0x3e, 0xbb, 0x1e, 0x38, 0x3e,
  0x78, 0xd3, 0x23, 0x3e, 0x85, 0x70, 0x36, 0x3e, 0x11, 0x5f, 0xce, 0xbe,
  0xba, 0xc3, 0x2f, 0xbe, 0x8c, 0xff, 0xb3, 0xbe, 0xf4, 0x86, 0xdb, 0xbc,
  0xa1, 0xdc, 0x44, 0xbd, 0xa5, 0xb4, 0x97, 0x3e, 0x88, 0xf9, 0x8f, 0x3d,
  0x90, 0x8c, 0xb7, 0xbd, 0x92, 0x9b, 0x76, 0xbc, 0xcc, 0x93, 0xe9, 0x3b,
  0x68, 0xfa, 0x25, 0xbe, 0x77, 0x10, 0x2e, 0x3e, 0xf3, 0xbd, 0xb5, 0x3e,
  0x27, 0x80, 0x5e, 0x3e, 0xe3, 0xe7, 0x74, 0x3d, 0x3e, 0x84, 0x95, 0x3e,
  0x4f, 0x27, 0x7f, 0xbe, 0x19, 0x58, 0x19, 0xbe, 0x60, 0x06, 0xd5, 0xbe,
  0xc4, 0xc6, 0x1b, 0x3e, 0xb6, 0x8e, 0x1a, 0xbe, 0x8b, 0xb0, 0x89, 0x3e,
  0xce, 0x53, 0x84, 0xbc, 0xd6, 0xab, 0x77, 0xbe, 0x39, 0x31, 0x29, 0xbe,
  0x56, 0xf3, 0x9b, 0xbe, 0xb9, 0x12, 0x81, 0xbe, 0x09, 0xf9, 0x85, 0x3e,
  0x49, 0x0c, 0xd4, 0x3e, 0xf0, 0x5f, 0xcc, 0xbc, 0x80, 0x65, 0x17, 0x3d,
  0x92, 0x44, 0x82, 0xbc, 0x8e, 0xd3, 0x86, 0xbe, 0xc4, 0xe8, 0x16, 0xbe,
  0x63, 0x03, 0x08, 0xbf, 0x95, 0x36, 0xf5, 0x3d, 0x81, 0xbb, 0xd6, 0xbe,
  0x5d, 0x27, 0x54, 0x3d, 0xf9, 0x09, 0x31, 0xbf, 0xe2, 0x54, 0x7a, 0x3d,
  0x1c, 0x16, 0xa1, 0xbd, 0xc4, 0x54, 0xa7, 0xbe, 0xeb, 0xb4, 0xd3, 0xbe,
  0x8c, 0x6d, 0x75, 0xbd, 0x5a, 0x0d, 0x38, 0xbf, 0x6a, 0xda, 0x72, 0x3e,
  0x31, 0xa3, 0xec, 0x3d, 0x84, 0x7f, 0xa5, 0xbe, 0x8c, 0x61, 0x7a, 0xbd,
  0x42, 0x1d, 0x7d, 0xbd, 0x87, 0x5b, 0x21, 0x3e, 0x6d, 0xfa, 0xb1, 0xbc,
  0xfb, 0x4d, 0x1d, 0xbf, 0x42, 0x61, 0x05, 0xbf, 0x15, 0x3b, 0x21, 0x3c,
  0x8f, 0x52, 0x1a, 0xbc, 0x6d, 0x31, 0xc9, 0xbc, 0xb8, 0x75, 0x73, 0xbc,
  0xb6, 0xf7, 0x64, 0x3d, 0xdb, 0x7a, 0x70, 0xbe, 0xaf, 0x5b, 0x05, 0x3e,
  0xe7, 0xc3, 0x1f, 0xbe, 0xcc, 0x28, 0x22, 0xbf, 0x32, 0x34, 0xa7, 0x3e,
  0xfa, 0x47, 0xe6, 0xbd, 0x06, 0xdb, 0x22, 0x3d, 0xf9, 0xe3, 0x88, 0x3d,
  0xd6, 0x12, 0x07, 0xbe, 0x9c, 0x8a, 0xe3, 0xbb, 0x9e, 0x12, 0xe7, 0x3d,
  0x6c, 0xd4, 0xec, 0x3e, 0x5c, 0xfd, 0x3a, 0x3e, 0x1e, 0xfa, 0xee, 0xbe,
  0xb8, 0x67, 0xb7, 0x3c, 0x25, 0x0f, 0x33, 0x3d, 0xa9, 0xca, 0xc4, 0x3d,
  0x1e, 0xaa, 0xbc, 0xbd, 0x47, 0xcb, 0x55, 0xbd, 0xe2, 0xa7, 0x16, 0x3d,
  0x0d, 0x56, 0x23, 0x3e, 0x4c, 0xe8, 0xf3, 0x3d, 0xee, 0x84, 0x7a, 0x3d,
  0x49, 0x60, 0xd7, 0xbe, 0xf5, 0xbc, 0x68, 0xbe, 0x5c, 0x03, 0x9e, 0x3d,
  0x0a, 0x63, 0xf6, 0xbb, 0xf3, 0x5f, 0xd0, 0xbe, 0xa4, 0x6e, 0x4e, 0x3e,
  0x1b, 0xcf, 0xdf, 0xbe, 0x1e, 0x8b, 0x96, 0xbc, 0x1a, 0xe4, 0x51, 0x3d,
  0x1d, 0x0e, 0xc9, 0x3d, 0x4d, 0x93, 0x62, 0x3d, 0xf9, 0x4d, 0x29, 0xbe,
  0x41, 0xb2, 0x8d, 0x3e, 0x28, 0x73, 0x55, 0x3e, 0xb0, 0xe6, 0x78, 0x3e,
  0x66, 0x09, 0x2b, 0xbd, 0xce, 0x08, 0x63, 0xbe, 0x2e, 0xa8, 0xca, 0xbd,
  0x3d, 0xb1, 0xac, 0xbd, 0x15, 0xd8, 0x09, 0xb9, 0x4e, 0x92, 0xa7, 0xbe,
  0x0f, 0x9a, 0x64, 0x3e, 0x37, 0xbe, 0x2d, 0xbe, 0x7f, 0x23, 0xc8, 0x39,
  0x53, 0xf4, 0x7f, 0xbb, 0x1b, 0xb0, 0x49, 0x3d, 0xf7, 0x36, 0x31, 0x3e,
  0xcc, 0x51, 0x16, 0xbe, 0x85, 0x4b, 0x91, 0x3d, 0xf7, 0x73, 0x40, 0x3e,
  0x6c, 0xcb, 0x74, 0x3e, 0xeb, 0x75, 0x9f, 0xbc, 0xcf, 0x54, 0x8e, 0xbe,
  0x5b, 0x9d, 0x86, 0xbd, 0x0d, 0x68, 0xac, 0xbc, 0x2b, 0x16, 0x9a, 0x3c,
  0x08, 0x5c, 0xf7, 0xbd, 0x4b, 0xa2, 0x36, 0x3e, 0x1e, 0xae, 0x40, 0xbd,
  0xda, 0x5c, 0xf3, 0x3c, 0x3f, 0x03, 0xdb, 0xba, 0x0b, 0x63, 0xb6, 0x3d,
  0x70, 0x7b, 0xec, 0x3d, 0xc3, 0x0f, 0x4b, 0xbe, 0x82, 0x96, 0x64, 0x3e,
  0xc5, 0xa1, 0x2d, 0xbd, 0x20, 0x55, 0x9d, 0x3e, 0xce, 0x59, 0x15, 0xbe,
  0xf2, 0x08, 0x99, 0xbe, 0xd5, 0x5a, 0xfd, 0xbc, 0x35, 0xfc, 0x3e, 0xbd,
  0x93, 0xce, 0x31, 0xbd, 0x9c, 0x5a, 0x56, 0xbe, 0xbc, 0x14, 0x46, 0x3e,
  0xd0, 0x35, 0x20, 0xbe, 0x15, 0x53, 0x64, 0xbc, 0x53, 0xaf, 0x29, 0xbd,
  0x82, 0x59, 0x90, 0xbc, 0x12, 0x2a, 0xe2, 0x3d, 0x90, 0xd6, 0x24, 0xbe,
  0x59, 0xb6, 0x41, 0x3e, 0x97, 0x3d, 0x3a, 0x3e, 0x88, 0x00, 0xa0, 0x3e,
  0x4b, 0xa1, 0xd0, 0xbd, 0x32, 0xf7, 0x52, 0x3d, 0x7c, 0xed, 0x0f, 0xbe,
  0x86, 0xc9, 0x0d, 0xbd, 0x02, 0x2e, 0x80, 0xbd, 0x5d, 0x5e, 0xcd, 0xbe,
  0x5c, 0x8b, 0x45, 0x3e, 0xe9, 0xc0, 0x84, 0xbd, 0x98, 0x20, 0x38, 0xbd,
  0x1d, 0x81, 0x13, 0x3d, 0xfb, 0xce, 0x54, 0x3d, 0x0e, 0x15, 0x3f, 0x3e,
  0xb0, 0x4f, 0x00, 0xbe, 0x45, 0xa9, 0x22, 0x3e, 0x63, 0x8e, 0x34, 0xbd,
  0xfe, 0xe9, 0xaa, 0x3e, 0x07, 0x1b, 0x99, 0x3d, 0xf2, 0xea, 0xc8, 0xbd,
  0x21, 0xea, 0x2b, 0xbe, 0xe2, 0xf8, 0x4f, 0xbc, 0xd9, 0x89, 0x73, 0xbd,
  0x39, 0x5f, 0x92, 0xbe, 0xbc, 0x5a, 0xa9, 0x3d, 0xae, 0x60, 0x33, 0xbe,
  0xc3, 0x2c, 0x49, 0xbc, 0x22, 0x00, 0x69, 0x3d, 0x60, 0x08, 0xe5, 0x3d,
  0x65, 0x30, 0x62, 0x3e, 0xfe, 0xa1, 0xb2, 0xbd, 0x33, 0x21, 0x25, 0x3e,
  0x63, 0x41, 0x25, 0x3e, 0x0d, 0x39, 0x3f, 0x3e, 0xfb, 0x4b, 0xb0, 0x3d,
  0x29, 0xa8, 0x39, 0xbe, 0x97, 0xad, 0x6f, 0xbd, 0xb7, 0x68, 0xd7, 0xbb,
  0xef, 0xd0, 0x9f, 0x3d, 0x3d, 0xb4, 0x03, 0xbf, 0xf2, 0xf1, 0x2f, 0x3e,
  0xf5, 0xf1, 0x2f, 0xbe, 0x9c, 0x0a, 0x1a, 0x3c, 0xda, 0xb7, 0x8e, 0x3d,
  0x92, 0x97, 0xff, 0x3d, 0xb7, 0xa4, 0xf1, 0x3d, 0xef, 0x8f, 0x0d, 0x3c,
  0x4a, 0xb3, 0x95, 0x3c, 0x8b, 0xba, 0x68, 0x3d, 0x36, 0xbe, 0x66, 0x3e,
  0x0f, 0x34, 0x24, 0xbd, 0xde, 0x91, 0xa2, 0xbe, 0x3a, 0x6c, 0x06, 0xbe,
  0xbc, 0xf2, 0xbf, 0xbc, 0x7b, 0x7a, 0x37, 0x3d, 0x3c, 0x3d, 0xb4, 0xbe,
  0xb5, 0x4c, 0x52, 0x3e, 0x2e, 0x67, 0x8d, 0xbe, 0x5a, 0xa9, 0x05, 0x3d,
  0x04, 0x4b, 0x4b, 0x3d, 0x33, 0x03, 0xd6, 0xbc, 0x14, 0x42, 0x7b, 0x3e,
  0x72, 0x0c, 0xc7, 0xbd, 0x94, 0x44, 0xe9, 0x3d, 0xd6, 0x81, 0xf9, 0x3d,
  0xed, 0x06, 0x48, 0x3e, 0x16, 0xa6, 0xca, 0x3b, 0x43, 0x5b, 0x4d, 0xbe,
  0x2d, 0xf5, 0xfe, 0xbb, 0x00, 0x1b, 0xab, 0xbc, 0x92, 0x05, 0xa2, 0x3c,
  0x81, 0x6a, 0xa9, 0xbd, 0x88, 0xef, 0xd3, 0x3e, 0xd1, 0x6b, 0x9e, 0xbe,
  0x71, 0x37, 0x4e, 0xbc, 0xe9, 0xf5, 0x1b, 0x3d, 0x21, 0x4f, 0xc8, 0x3d,
  0x0e, 0x78, 0x7b, 0x3e, 0x17, 0x4f, 0xf2, 0xbd, 0x54, 0xb9, 0x4d, 0x3d,
  0x84, 0xa9, 0x21, 0x3e, 0xc1, 0xa9, 0x4f, 0x3e, 0x62, 0x41, 0x4a, 0x3d,
  0x5f, 0x12, 0x8f, 0xbe, 0x7c, 0x77, 0x35, 0xbe, 0x08, 0x3f, 0xfd, 0x3b,
  0x46, 0xf8, 0xa2, 0x3d, 0x70, 0xa5, 0x8b, 0xbe, 0x67, 0x51, 0xfe, 0x3d,
  0x71, 0x0c, 0x31, 0xbf, 0xa5, 0xba, 0x86, 0x3d, 0x50, 0xd4, 0x9b, 0xbc,
  0x5a, 0xc6, 0xd3, 0x3d, 0xd0, 0x80, 0xb5, 0xbc, 0x36, 0x33, 0x13, 0xbe,
  0x08, 0xac, 0x91, 0xbb, 0xcd, 0x1f, 0x15, 0x3e, 0xc6, 0x65, 0xaf, 0x3e,
  0x53, 0x2c, 0xf1, 0x3c, 0xe5, 0xe5, 0x84, 0xbe, 0x1b, 0x8a, 0xe9, 0xbe,
  0x5a, 0xb3, 0xa3, 0xbc, 0x0e, 0x37, 0xb1, 0xbd, 0xe5, 0x2e, 0xdf, 0xbc,
  0x55, 0x85, 0xe5, 0x3d, 0x93, 0x40, 0x09, 0xbe, 0x0e, 0x39, 0x9e, 0x3c,
  0xa9, 0x8e, 0xae, 0xbc, 0x4d, 0xc1, 0x76, 0x3c, 0xef, 0x0c, 0x74, 0xbe,
  0xc0, 0x27, 0x85, 0xbe, 0xb5, 0x26, 0x1d, 0x3e, 0xa3, 0x5c, 0xae, 0x3c,
  0xd5, 0x84, 0x03, 0x3e, 0xb7, 0x11, 0xa4, 0x3c, 0xee, 0x04, 0x9f, 0xbd,
  0x23, 0xdc, 0xea, 0xbe, 0x27, 0xed, 0x33, 0x3d, 0xbb, 0xaa, 0x78, 0xbd,
  0x5a, 0x76, 0x21, 0xbf, 0x6b, 0xdd, 0x5d, 0xbf, 0x22, 0x8c, 0x0d, 0x3d,
  0xee, 0xd2, 0x54, 0x3c, 0x33, 0x71, 0xb5, 0xbe, 0x1e, 0x6d, 0x03, 0xbf,
  0x56, 0x9b, 0xdc, 0xbd, 0x5f, 0x81, 0xcf, 0xbe, 0xb2, 0xd3, 0x91, 0xbd,
  0x6e, 0xc2, 0x32, 0x3d, 0xa9, 0x4a, 0x8c, 0x3e, 0xb0, 0x92, 0xd9, 0x3d,
  0x77, 0x6d, 0x5f, 0xbf, 0x7a, 0x4c, 0xb5, 0xbe, 0xc7, 0x4d, 0x1d, 0xbb,
  0x1e, 0x3c, 0xdf, 0xbb, 0x04, 0xa9, 0x1a, 0xbe, 0x85, 0xe3, 0x9e, 0xbd,
  0x6d, 0x27, 0x5a, 0xbd, 0x56, 0xb9, 0xbf, 0xbc, 0x3c, 0x38, 0x51, 0xbd,
  0x73, 0x87, 0x45, 0x3e, 0x82, 0x8d, 0xea, 0xbe, 0x9f, 0x12, 0x4c, 0x3e,
  0xeb, 0x9b, 0x7d, 0x3c, 0x2b, 0xa4, 0x6b, 0xbe, 0xcf, 0x3d, 0xdf, 0xbc,
  0x39, 0xf6, 0xb3, 0x3b, 0xd6, 0x51, 0x55, 0x3e, 0x21, 0x20, 0x8e, 0x3e,
  0x36, 0x28, 0x3f, 0x3d, 0x46, 0x69, 0x0d, 0xbe, 0x2f, 0xfc, 0x8d, 0xbe,
  0xcf, 0xb6, 0x99, 0x3d, 0x8e, 0x99, 0xba, 0xbe, 0x82, 0x7f, 0x64, 0x3d,
  0xef, 0xf1, 0xc7, 0xbe, 0xc9, 0xdb, 0x15, 0xbf, 0x86, 0x25, 0x6e, 0xbe,
  0xec, 0x54, 0x08, 0x3d, 0x88, 0x3c, 0x49, 0xbe, 0x8d, 0x8d, 0x4e, 0xbe,
  0x77, 0x3a, 0x78, 0xbe, 0xf4, 0xed, 0xce, 0xbd, 0xcb, 0x64, 0x33, 0xbe,
  0xf2, 0x35, 0x84, 0xbe, 0x79, 0x40, 0xa3, 0x3d, 0x2b, 0x1e, 0x52, 0xbe,
  0x8d, 0x21, 0x4a, 0xbe, 0xda, 0x21, 0x42, 0x3d, 0xf3, 0xc3, 0x03, 0xbe,
  0x2a, 0xa7, 0x82, 0x3d, 0x74, 0xcd, 0xbb, 0xbe, 0x16, 0xc1, 0x13, 0xbf,
  0x32, 0x20, 0x13, 0xbe, 0xba, 0x0f, 0x92, 0xbd, 0x1b, 0x35, 0x41, 0xbe,
  0x32, 0xca, 0x1b, 0xbe, 0x46, 0x3a, 0xaf, 0xbe, 0x93, 0x2c, 0x09, 0xbe,
  0x7b, 0x6d, 0x21, 0x3d, 0x74, 0xce, 0x20, 0xbe, 0xbc, 0x7b, 0xab, 0x3d,
  0x90, 0xc0, 0x85, 0xbe, 0x77, 0xe8, 0x30, 0xbe, 0xa8, 0x47, 0xee, 0x3c,
  0x4e, 0xc5, 0xd9, 0xbe, 0x96, 0x77, 0xce, 0x3c, 0x60, 0x99, 0xe5, 0xbe,
  0x52, 0x81, 0x00, 0xbf, 0xcb, 0xad, 0x5a, 0xbe, 0xcd, 0x67, 0x60, 0x3d,
  0x7a, 0x81, 0xf4, 0xbd, 0x97, 0x47, 0x87, 0x3c, 0x66, 0x25, 0x65, 0x3e,
  0x39, 0x9b, 0x46, 0xbd, 0x2b, 0xa9, 0x27, 0xbe, 0xa7, 0xf1, 0x4d, 0xbe,
  0xfd, 0x63, 0xad, 0x3d, 0x8b, 0x6b, 0xbf, 0x3c, 0x52, 0x2e, 0xb2, 0xbe,
  0xf5, 0x5b, 0x5e, 0x3d, 0x79, 0x81, 0x07, 0xbf, 0xf3, 0xaf, 0x52, 0x3d,
  0x49, 0xb7, 0x1c, 0xbe, 0x22, 0x62, 0x09, 0xbf, 0x95, 0x77, 0xf2, 0xbd,
  0x22, 0x71, 0x6d, 0x3a, 0xa8, 0xd7, 0x64, 0xbd, 0x95, 0xd4, 0x95, 0xbd,
  0xe7, 0xf1, 0x02, 0xbe, 0xe5, 0x4d, 0x0b, 0x3e, 0xb7, 0x3b, 0x47, 0x3d,
  0xac, 0x60, 0x9a, 0xbe, 0x2e, 0xb5, 0x26, 0x3e, 0x40, 0xe1, 0x5b, 0xbd,
  0xaf, 0x35, 0xe8, 0xbd, 0xea, 0xb4, 0x0f, 0xbd, 0x24, 0xf7, 0x9e, 0x3e,
  0xa7, 0xf1, 0x8d, 0x3d, 0xce, 0xbf, 0x46, 0x3d, 0x99, 0xca, 0x97, 0x3d,
  0xa6, 0xe4, 0x0c, 0x3e, 0x09, 0xb3, 0xb2, 0xbd, 0x5a, 0x3b, 0x62, 0x3d,
  0xc1, 0x48, 0x94, 0xbe, 0x4a, 0x50, 0x6b, 0xbe, 0xe5, 0xfb, 0x24, 0x3e,
  0x2d, 0xd2, 0x64, 0xbd, 0x1e, 0x35, 0x46, 0xbd, 0xec, 0xa8, 0x94, 0x3d,
  0x39, 0x15, 0xcb, 0x3d, 0x35, 0x9f, 0x2b, 0x3d, 0xc5, 0x30, 0x2e, 0xbd,
  0x9e, 0x56, 0x13, 0x3e, 0x4d, 0xf8, 0xd1, 0x3d, 0x1c, 0x6f, 0x11, 0x3e,
  0x74, 0x66, 0xd6, 0x3c, 0xe4, 0x11, 0x46, 0x3e, 0x4b, 0x4a, 0x25, 0xbe,
  0x91, 0xda, 0x12, 0xbe, 0xe6, 0xb7, 0xb5, 0xbd, 0x8e, 0x67, 0x94, 0xbb,
  0x4a, 0x58, 0x2a, 0xbd, 0x3e, 0xa3, 0xd4, 0x3d, 0x84, 0xd1, 0xf1, 0x3d,
  0x42, 0x60, 0xab, 0x3b, 0xac, 0xe5, 0x1d, 0x3e, 0x5d, 0xb5, 0xa9, 0x3d,
  0x94, 0x0d, 0x6f, 0xbe, 0x93, 0xa3, 0x87, 0x3e, 0x9c, 0x30, 0x87, 0x3b,
  0x51, 0x3a, 0x29, 0x3d, 0xd9, 0x2a, 0xa0, 0xbd, 0x21, 0x8b, 0x70, 0x3e,
  0x61, 0xef, 0x1b, 0xbe, 0x95, 0x7a, 0x6b, 0x3e, 0x67, 0x82, 0x20, 0x3e,
  0xdc, 0xb8, 0xc7, 0x3c, 0xc6, 0x46, 0xda, 0xbb, 0x06, 0x31, 0x21, 0xbe,
  0x66, 0x5f, 0x78, 0x3b, 0x3a, 0xda, 0xdb, 0x3d, 0xaf, 0xc2, 0x1e, 0x3e,
  0xba, 0x20, 0xa9, 0x3d, 0xcb, 0x8f, 0x3c, 0xbe, 0x8a, 0x6a, 0x33, 0x3e,
  0xcb, 0xf7, 0x7c, 0x3d, 0xc4, 0x48, 0xb3, 0xbc, 0x54, 0x85, 0x7d, 0x3d,
  0xd0, 0x33, 0x98, 0x3e, 0x40, 0x49, 0x8c, 0xbd, 0xd2, 0x76, 0xe7, 0x3d,
  0xbe, 0x84, 0x5a, 0x3e, 0x4c, 0x64, 0x7e, 0xbe, 0x98, 0x15, 0x7d, 0x3c,
  0xa5, 0xea, 0xdb, 0xbd, 0x85, 0xbe, 0xdd, 0x3d, 0x48, 0x11, 0x88, 0x3d,
  0x5b, 0x68, 0x86, 0x3d, 0x7c, 0x85, 0x6f, 0xbd, 0x5c, 0x1f, 0xce, 0xbd,
  0xed, 0x15, 0x81, 0x3e, 0x9a, 0x51, 0x2e, 0xbe, 0xc6, 0xd1, 0x9e, 0xbb,
  0x49, 0xa4, 0x15, 0xbd, 0x55, 0xc9, 0x87, 0x3e, 0x47, 0x22, 0x32, 0xbd,
  0x33, 0xf2, 0xe5, 0x3d, 0x87, 0xd7, 0x6c, 0x3e, 0x17, 0x05, 0xf6, 0xbd,
  0x72, 0x79, 0x07, 0x3c, 0xd9, 0x39, 0x83, 0xbe, 0xc4, 0x1c, 0x49, 0x3d,
  0xba, 0xb6, 0x5e, 0x3d, 0xa3, 0xd0, 0xb1, 0x3e, 0x49, 0xae, 0x23, 0xbe,
  0xd2, 0xa6, 0xc3, 0xbd, 0x0a, 0x3b, 0x9f, 0x3e, 0xc0, 0xcc, 0xb2, 0xbe,
  0x2e, 0x6e, 0xda, 0x3c, 0xe1, 0xc6, 0x67, 0x3d, 0x7c, 0x4c, 0xaf, 0x3e,
  0xe0, 0xcf, 0xc2, 0xbc, 0x6d, 0xdf, 0x47, 0x3e, 0x5d, 0x4b, 0x96, 0x3d,
  0x6f, 0xde, 0xa7, 0x3c, 0x95, 0x7e, 0x0e, 0x3e, 0xed, 0xf4, 0x09, 0xbe,
  0xc6, 0xdb, 0x43, 0xbc, 0x2f, 0x14, 0x82, 0xbe, 0x2f, 0x78, 0x78, 0x3e,
  0x24, 0x30, 0x17, 0x3e, 0xd7, 0x7e, 0x29, 0x3d, 0xa6, 0x73, 0x34, 0x3e,
  0x94, 0x56, 0x4d, 0xbe, 0x30, 0x1d, 0xf6, 0xbd, 0x1d, 0xfb, 0xf9, 0x3d,
  0xa2, 0x32, 0x40, 0xbf, 0x45, 0xe0, 0x13, 0xbb, 0x56, 0x63, 0x5b, 0xbd,
  0xbf, 0xa5, 0xcb, 0xbe, 0x22, 0x6a, 0xd3, 0xbd, 0xa0, 0x88, 0xa2, 0xbc,
  0xf2, 0x69, 0xf5, 0xbc, 0x9e, 0xd1, 0x87, 0xbe, 0x75, 0xa6, 0x2b, 0xbf,
  0x65, 0xa7, 0x9f, 0x3e, 0xba, 0xe2, 0x8b, 0x3e, 0xa5, 0xf8, 0x6a, 0x3c,
  0x58, 0x27, 0xad, 0xbd, 0x63, 0x90, 0x88, 0xbe, 0x40, 0xae, 0xd3, 0xbe,
  0x31, 0x50, 0x0a, 0x3e, 0x9a, 0x97, 0xb0, 0xbe, 0xf7, 0xa8, 0xd1, 0x3d,
  0x31, 0xb5, 0xc1, 0xbd, 0x0e, 0xfa, 0x37, 0x3c, 0x30, 0xf8, 0x17, 0xbe,
  0x24, 0x0b, 0xa9, 0x3d, 0x84, 0x77, 0x53, 0xbd, 0x4e, 0x37, 0x8d, 0x3c,
  0x4e, 0xe5, 0x27, 0xbf, 0xd2, 0x78, 0xb6, 0xbd, 0x3e, 0x06, 0xb6, 0xbd,
  0x35, 0xad, 0x0e, 0x3e, 0x5b, 0xf7, 0x75, 0xbe, 0x83, 0x2f, 0x80, 0xbe,
  0x5a, 0xb9, 0x6a, 0xbe, 0xaa, 0xd4, 0x8c, 0xbd, 0xaa, 0xc4, 0xf4, 0xbe,
  0xba, 0x62, 0xa9, 0x3e, 0xfb, 0x39, 0x40, 0xbe, 0xe5, 0xd9, 0x99, 0xbe,
  0xe8, 0xcd, 0x0d, 0x3d, 0xae, 0x0c, 0xfc, 0xbc, 0xcc, 0x3f, 0x0f, 0x3e,
  0xe2, 0xc6, 0xb2, 0x3d, 0x3e, 0xb6, 0x21, 0xbf, 0x0f, 0xfc, 0xcb, 0xbc,
  0xd6, 0x4c, 0xbc, 0x3d, 0x7c, 0xb9, 0x01, 0x3d, 0x64, 0xc0, 0x13, 0x3f,
  0x29, 0xbb, 0xf4, 0x3d, 0x8b, 0xd3, 0xb3, 0x3d, 0xe0, 0x4b, 0xb1, 0xbe,
  0x90, 0xf3, 0x4d, 0x3e, 0x93, 0x4a, 0xab, 0xbd, 0x30, 0xad, 0xc5, 0x3c,
  0xc6, 0x26, 0x83, 0x3d, 0x40, 0xbe, 0x98, 0xbd, 0x76, 0xa6, 0xaf, 0xbc,
  0xae, 0x80, 0x25, 0xbe, 0x96, 0x57, 0x0f, 0xbc, 0xb8, 0x31, 0x19, 0x3e,
  0x56, 0xb7, 0xd8, 0x3b, 0x65, 0x3d, 0x30, 0x3e, 0xa4, 0x7c, 0x0c, 0xbd,
  0x2b, 0xf2, 0x55, 0x3e, 0xfc, 0x49, 0x61, 0x3d, 0x9b, 0xc2, 0x56, 0xbd,
  0x3a, 0x67, 0xec, 0xbc, 0x1a, 0x50, 0x62, 0x3e, 0xab, 0x6e, 0x79, 0x3b,
  0x17, 0xe7, 0x9f, 0x3d, 0x6e, 0x27, 0x31, 0x3d, 0x46, 0x57, 0x99, 0xbe,
  0x8e, 0x45, 0x15, 0x3e, 0xdd, 0x31, 0x3e, 0xbe, 0xa1, 0xc5, 0x2e, 0x3c,
  0x6e, 0x88, 0xcd, 0x3d, 0xcd, 0x09, 0xf5, 0x3c, 0x79, 0x90, 0xe4, 0x3d,
  0x62, 0x00, 0xbb, 0x3c, 0xb1, 0xa2, 0x45, 0x3d, 0x5d, 0xc9, 0x43, 0xbd,
  0x05, 0x8b, 0xbc, 0xbc, 0xdd, 0x31, 0x20, 0xbd, 0x3c, 0x22, 0x0f, 0x3e,
  0xb8, 0xd4, 0xd4, 0xbd, 0xa0, 0x30, 0x6e, 0x3d, 0x30, 0x2d, 0x1a, 0xbb,
  0x07, 0xb6, 0x90, 0xbe, 0xc4, 0x28, 0x53, 0x3d, 0x87, 0x6b, 0xe2, 0xbd,
  0xd3, 0x37, 0x88, 0x3c, 0xf6, 0x18, 0x15, 0x3d, 0xd1, 0x0d, 0xca, 0x3c,
  0x0b, 0xa5, 0x64, 0xbe, 0x73, 0x40, 0x07, 0x3d, 0x04, 0x11, 0x0c, 0x3e,
  0x9e, 0x10, 0x19, 0xbd, 0xcb, 0x87, 0x25, 0x3d, 0x9f, 0xc0, 0xf0, 0xbd,
  0x85, 0xec, 0x87, 0x3b, 0xdf, 0x37, 0x0e, 0xbd, 0x39, 0x95, 0x09, 0x3e,
  0x4a, 0x9d, 0xda, 0xbd, 0xc6, 0x8e, 0x36, 0xbe, 0xd8, 0x56, 0x19, 0x3d,
  0x9b, 0xca, 0x06, 0xbe, 0xca, 0x68, 0x20, 0xbd, 0x4b, 0x45, 0x10, 0x3d,
  0xba, 0x88, 0xcf, 0xbb, 0x23, 0x44, 0x07, 0xbe, 0x9b, 0x4a, 0x95, 0x3d,
  0x15, 0x47, 0xc1, 0x3c, 0x4d, 0x9a, 0x54, 0xbc, 0x15, 0x47, 0xa8, 0xbd,
  0x02, 0xfb, 0x17, 0xbe, 0x88, 0x86, 0x32, 0x3d, 0x8a, 0xde, 0xbd, 0x3c,
  0x1f, 0x86, 0xec, 0x3d, 0x30, 0x3d, 0xd2, 0x3c, 0xa0, 0x8c, 0x4b, 0xbe,
  0x75, 0xa3, 0x02, 0x3e, 0xf3, 0x8b, 0xeb, 0x3c, 0x6c, 0xe0, 0x5c, 0xbd,
  0x21, 0x99, 0x10, 0x3d, 0x0b, 0xec, 0x2b, 0xbd, 0x82, 0xf1, 0x80, 0xbe,
  0xa5, 0xfb, 0xf6, 0x3c, 0xc2, 0x2d, 0x09, 0x3e, 0xf3, 0x53, 0x54, 0xbd,
  0x29, 0x75, 0x53, 0x3d, 0x64, 0x0d, 0x30, 0xbd, 0xee, 0x2b, 0x41, 0x3e,
  0x73, 0x3a, 0x24, 0xbd, 0x2a, 0xad, 0x97, 0x3d, 0x29, 0x88, 0x17, 0xbe,
  0xf0, 0xfa, 0x25, 0xbe, 0xd2, 0xf6, 0xe2, 0x3d, 0xe0, 0xcb, 0x52, 0xbc,
  0x01, 0x0a, 0xbc, 0xbb, 0x6d, 0x54, 0x85, 0x3d, 0xa8, 0x63, 0x20, 0x3d,
  0x39, 0x81, 0xa6, 0xbe, 0x8e, 0x36, 0x76, 0x3d, 0x2e, 0xc8, 0x21, 0x3e,
  0x48, 0x33, 0x7b, 0xbc, 0x67, 0xba, 0x8a, 0x3d, 0xb9, 0x43, 0xd5, 0xbd,
  0x31, 0x09, 0xdf, 0x3d, 0xc2, 0x17, 0x4a, 0xbd, 0x50, 0xe9, 0x25, 0x3c,
  0x54, 0x4e, 0xf9, 0x3d, 0x70, 0xc7, 0x94, 0xbe, 0x1c, 0x4e, 0xc4, 0xbd,
  0x81, 0x9d, 0x3e, 0xbd, 0x82, 0x62, 0xbf, 0x3b, 0xaa, 0xf9, 0x75, 0x3d,
  0xbd, 0x59, 0x13, 0x3e, 0x9c, 0x27, 0x28, 0x3e, 0x42, 0x25, 0xf7, 0xbc,
  0x17, 0x4c, 0x32, 0x3e, 0x3a, 0x7e, 0xfc, 0x3b, 0x43, 0x87, 0x5c, 0xbd,
  0x68, 0x7c, 0xcd, 0xbd, 0xe2, 0x68, 0x9e, 0x3d, 0xfb, 0x16, 0x88, 0xbc,
  0x9c, 0xee, 0xc3, 0x3d, 0x55, 0x3d, 0xc9, 0x3d, 0xae, 0xc4, 0x6f, 0xbe,
  0x3a, 0x9f, 0x00, 0x3e, 0x01, 0x15, 0x86, 0xbd, 0x52, 0x35, 0x4a, 0xbc,
  0x89, 0x34, 0x54, 0x3d, 0x3c, 0x67, 0xc8, 0x3d, 0xbb, 0xa6, 0xd7, 0xbd,
  0x94, 0x3f, 0x25, 0xbd, 0x22, 0xd6, 0xb7, 0x3d, 0x5a, 0x1c, 0x09, 0xbd,
  0x44, 0xde, 0x2a, 0x3d, 0x06, 0xc9, 0x36, 0xbc, 0x41, 0x48, 0xee, 0x3d,
  0xde, 0x94, 0x34, 0x3c, 0x72, 0x73, 0xc3, 0x3d, 0x5a, 0xd5, 0x11, 0x3e,
  0x22, 0x1d, 0x8d, 0xbe, 0x02, 0x46, 0x1e, 0xbe, 0xc5, 0x4e, 0x17, 0xbe,
  0xf6, 0x1b, 0x90, 0xbc, 0xda, 0xe0, 0xa8, 0x3d, 0x6e, 0x20, 0xc4, 0x3d,
  0xea, 0x37, 0x25, 0xbe, 0x54, 0x43, 0x3b, 0xbd, 0xc5, 0xe1, 0x22, 0x3e,
  0x38, 0xd1, 0x2e, 0xbd, 0x80, 0xca, 0x84, 0x3c, 0x1e, 0x85, 0x5f, 0xbd,
  0x17, 0xfb, 0x3b, 0x3e, 0x65, 0xf1, 0xb1, 0x3c, 0xfc, 0x17, 0x25, 0x3e,
  0x0f, 0x43, 0x5a, 0xbd, 0x3f, 0xdb, 0x6a, 0xbe, 0x91, 0x63, 0x0c, 0x3d,
  0x84, 0xcc, 0x0d, 0xbe, 0x2c, 0x5f, 0x38, 0x3c, 0x1c, 0x6e, 0x9e, 0xbc,
  0xac, 0xb3, 0x8b, 0x3d, 0xdd, 0xd3, 0x5e, 0xbe, 0x8d, 0xf2, 0x8b, 0x3d,
  0x80, 0x5d, 0x10, 0x3e, 0x09, 0xba, 0x39, 0x3d, 0xbf, 0x9f, 0x07, 0x3c,
  0x4f, 0x8a, 0xa1, 0xbc, 0x41, 0x1f, 0x3a, 0x3e, 0xad, 0x87, 0xec, 0x3d,
  0xc1, 0x72, 0x5e, 0x3e, 0xb0, 0xa4, 0xd2, 0x3d, 0xf1, 0x6d, 0xa2, 0xbe,
  0xb9, 0x1a, 0x0e, 0x3e, 0xf8, 0xe4, 0xa2, 0xbd, 0x2b, 0xf5, 0x85, 0xbd,
  0x18, 0xd2, 0x24, 0x3d, 0x6e, 0x76, 0xc8, 0x3d, 0x03, 0x41, 0x1a, 0x3c,
  0xb0, 0xa1, 0x54, 0x3d, 0x0a, 0xad, 0xe7, 0x3d, 0xc3, 0xf4, 0x3a, 0x3d,
  0xc7, 0xa3, 0xe5, 0xbd, 0x51, 0x27, 0x7f, 0x3d, 0xc7, 0x14, 0x82, 0x3d,
  0x43, 0x90, 0x35, 0x3e, 0x68, 0x61, 0x44, 0x3e, 0x9e, 0x7e, 0xd0, 0x3d,
  0xb9, 0xab, 0xc8, 0xbe, 0x1f, 0x91, 0x1e, 0x3e, 0x81, 0x21, 0xe7, 0xbd,
  0xa7, 0x28, 0xae, 0x3d, 0xeb, 0xd5, 0x31, 0x3d, 0x23, 0x0d, 0xd4, 0x3d,
  0x98, 0x68, 0x6c, 0xbe, 0x32, 0xa3, 0xee, 0xbd, 0x6b, 0xc2, 0x2f, 0x3e,
  0xc6, 0x2b, 0xb4, 0xbd, 0xf4, 0x79, 0x12, 0xbe, 0x16, 0x2d, 0xc0, 0x3d,
  0xea, 0x05, 0x82, 0x3e, 0xbb, 0x30, 0x55, 0x3e, 0xb4, 0x3e, 0x9c, 0x3e,
  0xc9, 0xd8, 0x52, 0x3e, 0x8c, 0x93, 0x9b, 0xbe, 0x40, 0x5f, 0x6a, 0x3b,
  0x22, 0x5e, 0x93, 0xbe, 0x2a, 0x37, 0xbe, 0xbc, 0x29, 0x08, 0x0c, 0xbc,
  0xa3, 0xfe, 0x52, 0x3e, 0x1f, 0x67, 0x25, 0xbf, 0xad, 0x57, 0x04, 0x3e,
  0x97, 0x5b, 0x1f, 0x3d, 0xb6, 0x2f, 0x25, 0xbe, 0x81, 0x39, 0x37, 0xbe,
  0xbb, 0x5f, 0x83, 0x3d, 0x10, 0x13, 0xc4, 0xbe, 0xcb, 0xe3, 0xd2, 0x3e,
  0x85, 0x98, 0x73, 0x3e, 0xf3, 0x49, 0x9a, 0xbe, 0xa7, 0x22, 0x0b, 0xbe,
  0xe3, 0x08, 0xc5, 0x3d, 0xd2, 0xe4, 0x64, 0x3e, 0x8a, 0xcc, 0xe4, 0xbc,
  0xad, 0xa4, 0x60, 0xbe, 0xcd, 0x88, 0x0a, 0x3f, 0x2b, 0x34, 0x0c, 0x3f,
  0x2f, 0xbe, 0xee, 0xbd, 0xf2, 0x71, 0x4b, 0x3f, 0x1d, 0xeb, 0xd3, 0xbd,
  0x98, 0x0e, 0xa1, 0x3d, 0xb8, 0xa7, 0x50, 0x3e, 0x03, 0x03, 0xac, 0xbd,
  0x9a, 0x9f, 0x5a, 0xbd, 0xf3, 0x2e, 0xf1, 0x3e, 0xfa, 0xe9, 0xe8, 0x3d,
  0xd7, 0x11, 0xa5, 0x3e, 0x44, 0x4d, 0xd5, 0x3d, 0x37, 0xd3, 0x47, 0x3e,
  0x98, 0x71, 0x6f, 0x3d, 0x42, 0xe1, 0x94, 0xbd, 0x4a, 0x45, 0xdc, 0xbd,
  0xae, 0xc9, 0x1e, 0x3e, 0xcc, 0x76, 0x06, 0xbe, 0xe0, 0x6b, 0xb9, 0x3d,
  0xa6, 0xfd, 0x68, 0xbe, 0xa6, 0x8d, 0x29, 0x3d, 0x51, 0x02, 0x76, 0xbe,
  0x36, 0xe9, 0x64, 0x3e, 0x20, 0x2f, 0xab, 0xbd, 0xf9, 0x81, 0x62, 0xbc,
  0xdd, 0x60, 0xe6, 0xbd, 0x2c, 0xb8, 0x75, 0x3d, 0x9e, 0x6e, 0xba, 0xbd,
  0x4c, 0x05, 0x95, 0xbe, 0x6c, 0x18, 0x5f, 0xbd, 0x19, 0xe5, 0xbd, 0xbc,
  0x1c, 0x1c, 0x4d, 0xbd, 0x17, 0x13, 0x9c, 0xbd, 0x61, 0x4f, 0x94, 0xbd,
  0xf8, 0x98, 0xe1, 0x3d, 0xc9, 0x45, 0x79, 0xbe, 0x53, 0x3e, 0x99, 0x3d,
  0xcd, 0xf3, 0xff, 0xbd, 0x27, 0x9a, 0xce, 0xba, 0xa3, 0xea, 0x2c, 0xbe,
  0x39, 0xfa, 0xce, 0x3c, 0xf0, 0x87, 0xbd, 0xbd, 0x69, 0xa0, 0x55, 0x3d,
  0x8d, 0x30, 0xbe, 0xbc, 0x83, 0x46, 0xa7, 0xbd, 0xc3, 0x7e, 0xb5, 0x3c,
  0xa9, 0x13, 0xac, 0x3d, 0xcc, 0x38, 0xbb, 0xbd, 0x23, 0x2a, 0xe5, 0xbd,
  0x07, 0x3c, 0x29, 0xbd, 0x11, 0x66, 0xc8, 0x3c, 0xc1, 0x38, 0x49, 0xbe,
  0x17, 0xce, 0x1f, 0x3e, 0x37, 0x76, 0x24, 0xbd, 0xf5, 0xa9, 0x85, 0x3e,
  0xf6, 0x7a, 0x88, 0xbe, 0x06, 0x53, 0x26, 0x3e, 0x29, 0x2e, 0x85, 0xbe,
  0xdf, 0x49, 0xe0, 0x3d, 0xb7, 0x26, 0x7c, 0xbd, 0xc9, 0x27, 0x69, 0xbe,
  0x66, 0x6f, 0xf5, 0x3d, 0xd7, 0x64, 0xeb, 0x3c, 0xea, 0xe9, 0xfc, 0xbc,
  0x6e, 0xdf, 0x4b, 0xba, 0x87, 0xe1, 0xb1, 0xbd, 0xb4, 0x36, 0x28, 0xb9,
  0x14, 0x49, 0x59, 0xbe, 0x9b, 0x19, 0x4f, 0x3e, 0x2d, 0x10, 0x17, 0x3b,
  0x3b, 0xc1, 0x1b, 0x3e, 0xd2, 0xb3, 0x41, 0xbe, 0xed, 0x57, 0x10, 0x3e,
  0xa9, 0xcf, 0xc0, 0xbc, 0xa6, 0x21, 0x19, 0xba, 0x9d, 0xe7, 0x93, 0x3d,
  0x83, 0x6b, 0xba, 0xbc, 0x14, 0xe8, 0xad, 0xbd, 0x99, 0x81, 0x54, 0xbd,
  0xe2, 0x2b, 0x1e, 0xbd, 0x21, 0x11, 0x46, 0x3e, 0x6b, 0xad, 0x0e, 0x3c,
  0x91, 0xf2, 0x4b, 0xbd, 0x99, 0xeb, 0xd9, 0xbd, 0x91, 0xc2, 0x3d, 0x3e,
  0xbc, 0xb7, 0x5c, 0xbd, 0xb2, 0x31, 0xb7, 0xbd, 0x12, 0xe4, 0x0c, 0xbe,
  0x1e, 0x70, 0x2d, 0x3e, 0x75, 0x31, 0x9d, 0xbd, 0xae, 0xa2, 0x92, 0xbd,
  0xfc, 0xa9, 0xae, 0xbc, 0x25, 0x74, 0x26, 0xbe, 0xdf, 0x8c, 0xe3, 0x3d,
  0x03, 0x1f, 0xe5, 0xbc, 0x4c, 0x7f, 0x36, 0xbd, 0x75, 0xfa, 0x06, 0x3e,
  0x84, 0x3d, 0xd2, 0x3d, 0x79, 0x37, 0xbb, 0xbd, 0x44, 0x3d, 0x6b, 0xbe,
  0x3a, 0xdf, 0x2a, 0x3e, 0xb1, 0xe3, 0xb3, 0x3d, 0x1f, 0x13, 0x98, 0x3d,
  0x78, 0x6c, 0x49, 0xbe, 0x1b, 0x8c, 0xe5, 0xbd, 0x12, 0x3e, 0x09, 0x3d,
  0x0d, 0xfc, 0x0a, 0xbc, 0xbe, 0x9a, 0xbe, 0xbc, 0x24, 0xb7, 0x29, 0x3d,
  0x78, 0xf4, 0x4b, 0x3d, 0x84, 0xe6, 0xae, 0xbe, 0x08, 0x0f, 0x7c, 0xbc,
  0xbe, 0xac, 0x04, 0xbc, 0x72, 0xed, 0x2c, 0x3c, 0x82, 0x5b, 0x22, 0x3e,
  0x16, 0x57, 0x2d, 0xbf, 0x0e, 0x77, 0x0d, 0x3e, 0xb1, 0x66, 0xd7, 0xbd,
  0xe2, 0x3d, 0xc4, 0xbd, 0x13, 0x43, 0x66, 0x3b, 0xfa, 0x3a, 0x00, 0x3e,
  0xd7, 0xca, 0xb0, 0x3d, 0x42, 0xe3, 0xfa, 0x3c, 0x2c, 0x7f, 0xbe, 0xbd,
  0x6b, 0x74, 0x75, 0x3d, 0xb4, 0x59, 0xf0, 0x3d, 0xfd, 0x20, 0xdb, 0xbd,
  0xe7, 0x42, 0x9c, 0xbd, 0x76, 0x37, 0xcb, 0xbd, 0xf8, 0x14, 0x85, 0x3d,
  0x77, 0xc5, 0xe6, 0xbc, 0xed, 0x91, 0x34, 0xbf, 0x50, 0xe4, 0x52, 0x3e,
  0x24, 0x5b, 0x21, 0xbe, 0x2f, 0xf7, 0xa4, 0x3c, 0x1a, 0x9d, 0x6c, 0xbe,
  0x15, 0x19, 0x7b, 0x3e, 0x85, 0x1d, 0xd4, 0xbd, 0x95, 0xb4, 0x9f, 0xbd,
  0x3d, 0x7a, 0x63, 0x3d, 0xac, 0x30, 0x1a, 0xbe, 0x1e, 0x0e, 0x58, 0x3d,
  0x54, 0x82, 0xd1, 0xbd, 0xd5, 0x88, 0x07, 0x3e, 0x1e, 0x2b, 0x9b, 0xbd,
  0x6e, 0x3a, 0xd3, 0x3d, 0x6a, 0x61, 0x15, 0x3d, 0xbc, 0xab, 0x10, 0xbf,
  0x79, 0x53, 0xa1, 0x3d, 0x90, 0x34, 0x1e, 0xbe, 0x3b, 0xcf, 0x85, 0x3e,
  0xab, 0x50, 0xf3, 0xbd, 0x35, 0xc1, 0x07, 0xbe, 0x76, 0xd0, 0x98, 0x3d,
  0x93, 0xf5, 0xb8, 0x3c, 0x34, 0xb4, 0x84, 0x3d, 0x54, 0x44, 0xe5, 0x3d,
  0xc9, 0xd4, 0xc7, 0x3c, 0x42, 0xe9, 0x0a, 0x3b, 0xf4, 0x53, 0x2a, 0x3e,
  0x1f, 0xd8, 0x60, 0x3e, 0xf0, 0xd7, 0xab, 0x3c, 0xcc, 0xe7, 0x69, 0x3e,
  0xc2, 0x02, 0xd5, 0xbe, 0xeb, 0x33, 0xe4, 0xbb, 0xc8, 0x3d, 0x1a, 0xbe,
  0x39, 0x6d, 0x5e, 0x3d, 0x2f, 0xf0, 0xc2, 0xbd, 0x69, 0x29, 0x32, 0xbe,
  0xf9, 0xf7, 0x83, 0x3d, 0x93, 0xe7, 0x4b, 0x3d, 0xac, 0x25, 0x07, 0x3e,
  0x94, 0x8d, 0x15, 0x3e, 0xa7, 0xe5, 0x3b, 0x3c, 0xaf, 0x4d, 0x1a, 0xbe,
  0xbb, 0x91, 0xf7, 0x3d, 0x27, 0x8e, 0x8d, 0x3d, 0xe2, 0x34, 0xba, 0xba,
  0xca, 0xc5, 0x87, 0x3e, 0x10, 0xfc, 0x4a, 0xbe, 0x29, 0x29, 0x1a, 0x3d,
  0x88, 0xaa, 0x5c, 0xbd, 0x35, 0x21, 0x77, 0x3c, 0xf5, 0xdc, 0x17, 0xbe,
  0x8c, 0x28, 0x7c, 0x3c, 0x9a, 0xc6, 0x0e, 0xbd, 0x32, 0x76, 0x11, 0xbe,
  0x81, 0x07, 0xa6, 0x3c, 0xd9, 0x58, 0xe5, 0x3d, 0x58, 0x7c, 0x14, 0x3e,
  0x12, 0xb3, 0x53, 0xbe, 0x21, 0x8b, 0xb8, 0x3d, 0x12, 0xba, 0x01, 0x3e,
  0xfa, 0xcc, 0xb4, 0x3d, 0x89, 0xc0, 0xe0, 0x3d, 0x2c, 0x6d, 0x2b, 0xbf,
  0xf7, 0x51, 0x11, 0x3e, 0xe3, 0x4f, 0xa8, 0xbd, 0x3f, 0xfe, 0xcf, 0x3d,
  0x1a, 0xff, 0x91, 0xbc, 0x04, 0x5f, 0xb7, 0xbd, 0x8a, 0xd2, 0x82, 0xbe,
  0x11, 0x1f, 0xb2, 0xbd, 0xf6, 0x1e, 0xe2, 0x3d, 0x98, 0xf2, 0xe0, 0x3b,
  0x64, 0x5f, 0xf5, 0x3d, 0x92, 0x6c, 0x91, 0xbe, 0x71, 0xe4, 0x1f, 0x3e,
  0xb0, 0x64, 0x04, 0xbe, 0x07, 0xc6, 0x20, 0x3e, 0x7e, 0x6d, 0xd4, 0xbc,
  0xd6, 0x55, 0x35, 0xbf, 0x90, 0x90, 0xfb, 0x3d, 0x16, 0x62, 0xda, 0x3d,
  0xec, 0x67, 0x1c, 0xbe, 0x2d, 0x86, 0x3f, 0xbe, 0xa4, 0x48, 0x99, 0xbe,
  0xa5, 0xe4, 0xa4, 0xbe, 0x38, 0xe5, 0x53, 0x3d, 0xec, 0x70, 0x0a, 0xbe,
  0x48, 0x40, 0xb7, 0x3e, 0x0b, 0x2e, 0xf1, 0xbc, 0xb5, 0x80, 0x30, 0x3e,
  0xdb, 0xfa, 0xb6, 0x3c, 0x40, 0x78, 0x70, 0x3d, 0x7c, 0x31, 0x5a, 0xbc,
  0xc8, 0xfd, 0x73, 0xbe, 0x2f, 0x47, 0xad, 0xbc, 0xa4, 0x37, 0x40, 0xbe,
  0x1f, 0x43, 0x16, 0xbd, 0xcc, 0x3f, 0x2f, 0xbe, 0xbc, 0x29, 0x38, 0xbe,
  0x53, 0x58, 0x38, 0xbd, 0xd9, 0xec, 0xe8, 0x37, 0x93, 0x68, 0xd0, 0xbd,
  0xa8, 0x60, 0x92, 0x3d, 0x82, 0xe3, 0xbd, 0xbd, 0x80, 0xd1, 0x0a, 0x3d,
  0xa3, 0x67, 0x12, 0xbe, 0x99, 0xea, 0x0d, 0x3e, 0xfb, 0x9f, 0x94, 0x3c,
  0x2d, 0x98, 0xf3, 0xbd, 0x29, 0x73, 0xb9, 0xbd, 0x9a, 0x06, 0x27, 0xbe,
  0xe6, 0x17, 0x3a, 0xbe, 0x6b, 0xc7, 0x36, 0xbd, 0xa9, 0x42, 0x9e, 0x3c,
  0xd9, 0xa3, 0x1f, 0xbe, 0x8d, 0x01, 0x32, 0xbe, 0xa5, 0xff, 0x70, 0xbd,
  0x12, 0xd7, 0x21, 0xbe, 0x35, 0xa2, 0xee, 0x3d, 0x76, 0x8b, 0xa0, 0x3c,
  0x9c, 0x00, 0x59, 0x3d, 0x4d, 0x0b, 0x5a, 0xbe, 0x24, 0x5c, 0x14, 0x3e,
  0x34, 0xed, 0x98, 0xbd, 0x1c, 0x1c, 0xe9, 0xbd, 0x70, 0x5a, 0xbc, 0xbd,
  0xeb, 0x52, 0xca, 0xbd, 0x1f, 0x6f, 0x6d, 0xbd, 0x92, 0xc7, 0x81, 0xbd,
  0x94, 0x28, 0x84, 0xbd, 0xe9, 0xcf, 0xf3, 0x3c, 0x39, 0xbb, 0x25, 0xbd,
  0x1e, 0x79, 0x9e, 0x3c, 0x9f, 0x73, 0x0c, 0xbe, 0x86, 0x70, 0x28, 0x3e,
  0xb5, 0xb9, 0x35, 0xbe, 0x7c, 0x63, 0x20, 0xbe, 0xa0, 0x5c, 0x10, 0xbe,
  0x22, 0x89, 0xd3, 0x3c, 0xb8, 0x2a, 0x20, 0xbe, 0x3d, 0x57, 0xf9, 0x3d,
  0xda, 0xd9, 0x1b, 0xbe, 0x8e, 0xce, 0x16, 0x3d, 0xf9, 0x10, 0x74, 0xbd,
  0xf4, 0x0e, 0x04, 0xbe, 0x82, 0x30, 0x13, 0xbe, 0x7e, 0x3e, 0xc1, 0xbd,
  0x59, 0x75, 0x0f, 0x3d, 0xa5, 0x1d, 0xa1, 0x3d, 0xf4, 0x0f, 0x6b, 0x39,
  0x57, 0x63, 0x02, 0x3e, 0x37, 0x48, 0x49, 0xbe, 0x18, 0x2f, 0x18, 0xbe,
  0xd5, 0x1b, 0xef, 0xbd, 0xa0, 0x9b, 0x1f, 0xbe, 0x0f, 0xdb, 0xa3, 0xba,
  0x49, 0x85, 0x99, 0x3d, 0x26, 0x1d, 0x63, 0xbb, 0x90, 0xbb, 0x84, 0x3d,
  0x16, 0x5f, 0x39, 0xbd, 0x17, 0x6e, 0xcc, 0xbd, 0x37, 0xd2, 0x8c, 0xbd,
  0x4a, 0xc3, 0x2c, 0xbc, 0x2c, 0x66, 0xa6, 0x3d, 0xd2, 0xed, 0x68, 0x3c,
  0x79, 0x8c, 0x30, 0x3d, 0x62, 0x52, 0xe2, 0xbd, 0x90, 0xd1, 0xe0, 0x3d,
  0x6d, 0x9c, 0xe9, 0xbd, 0xc0, 0x92, 0x66, 0xbe, 0xd8, 0x36, 0xdb, 0x3d,
  0x6b, 0x2b, 0xc0, 0xbc, 0xdd, 0x88, 0xd4, 0x3d, 0x1f, 0xc2, 0x5b, 0xbd,
  0xba, 0x8d, 0xbb, 0x3d, 0x1a, 0xf7, 0x4a, 0xbe, 0x45, 0x62, 0x61, 0x3c,
  0xe4, 0x9e, 0xb2, 0x3d, 0xfb, 0x24, 0x0c, 0xbd, 0x49, 0x6c, 0xac, 0x3c,
  0x71, 0xe1, 0x9a, 0xbd, 0x84, 0xab, 0x15, 0xbe, 0x5b, 0x64, 0x87, 0x3d,
  0xe2, 0xe1, 0x54, 0xbc, 0xa0, 0x3a, 0xc0, 0xbb, 0x41, 0xb2, 0xf4, 0xbd,
