unsigned char _content_ds_cnn_2_model_tflite[] = {
  0x1c, 0x00, 0x00, 0x00, 0x54, 0x46, 0x4c, 0x33, 0x14, 0x00, 0x20, 0x00,
  0x04, 0x00, 0x08, 0x00, 0x0c, 0x00, 0x10, 0x00, 0x14, 0x00, 0x00, 0x00,
  0x18, 0x00, 0x1c, 0x00, 0x14, 0x00, 0x00, 0x00, 0x03, 0x00, 0x00, 0x00,
  0x18, 0x00, 0x00, 0x00, 0x2c, 0x00, 0x00, 0x00, 0xe8, 0x00, 0x00, 0x00,
  0x2c, 0x00, 0x00, 0x00, 0x90, 0x00, 0x00, 0x00, 0x88, 0x00, 0x00, 0x00,
  0x05, 0x00, 0x00, 0x00, 0x60, 0x08, 0x00, 0x00, 0xf4, 0x06, 0x00, 0x00,
  0xdc, 0x03, 0x00, 0x00, 0x18, 0x03, 0x00, 0x00, 0xcc, 0x01, 0x00, 0x00,
  0x01, 0x00, 0x00, 0x00, 0xe0, 0x00, 0x00, 0x00, 0x18, 0x00, 0x00, 0x00,
  0x14, 0x63, 0x00, 0x00, 0x10, 0x63, 0x00, 0x00, 0xe0, 0x61, 0x00, 0x00,
  0x4c, 0x61, 0x00, 0x00, 0xa4, 0x60, 0x00, 0x00, 0x2c, 0x60, 0x00, 0x00,
  0xb8, 0x5f, 0x00, 0x00, 0x04, 0x5f, 0x00, 0x00, 0x98, 0x5e, 0x00, 0x00,
  0x48, 0x1e, 0x00, 0x00, 0xf4, 0x1c, 0x00, 0x00, 0x68, 0x1c, 0x00, 0x00,
  0xcc, 0x1b, 0x00, 0x00, 0x64, 0x0b, 0x00, 0x00, 0x08, 0x09, 0x00, 0x00,
  0xd8, 0x62, 0x00, 0x00, 0xd4, 0x62, 0x00, 0x00, 0xd0, 0x62, 0x00, 0x00,
  0xcc, 0x62, 0x00, 0x00, 0xc8, 0x62, 0x00, 0x00, 0xc4, 0x62, 0x00, 0x00,
  0xc0, 0x62, 0x00, 0x00, 0xbc, 0x62, 0x00, 0x00, 0x3c, 0x00, 0x00, 0x00,
  0x00, 0x00, 0x00, 0x00, 0x01, 0x00, 0x00, 0x00, 0x0c, 0x00, 0x00, 0x00,
  0x08, 0x00, 0x0c, 0x00, 0x04, 0x00, 0x08, 0x00, 0x08, 0x00, 0x00, 0x00,
  0x08, 0x00, 0x00, 0x00, 0x17, 0x00, 0x00, 0x00, 0x13, 0x00, 0x00, 0x00,
  0x6d, 0x69, 0x6e, 0x5f, 0x72, 0x75, 0x6e, 0x74, 0x69, 0x6d, 0x65, 0x5f,
  0x76, 0x65, 0x72, 0x73, 0x69, 0x6f, 0x6e, 0x00, 0xb6, 0x9e, 0xff, 0xff,
  0x04, 0x00, 0x00, 0x00, 0x10, 0x00, 0x00, 0x00, 0x31, 0x2e, 0x35, 0x2e,
  0x30, 0x00, 0x00, 0x00, 0x00, 0x00, 0x00, 0x00, 0x00, 0x00, 0x00, 0x00,
  0x0f, 0x00, 0x00, 0x00, 0x4d, 0x4c, 0x49, 0x52, 0x20, 0x43, 0x6f, 0x6e,
  0x76, 0x65, 0x72, 0x74, 0x65, 0x64, 0x2e, 0x00, 0x00, 0x00, 0x0e, 0x00,
  0x18, 0x00, 0x04, 0x00, 0x08, 0x00, 0x0c, 0x00, 0x10, 0x00, 0x14, 0x00,
  0x0e, 0x00, 0x00, 0x00, 0x14, 0x00, 0x00, 0x00, 0x6c, 0x00, 0x00, 0x00,
  0x70, 0x00, 0x00, 0x00, 0x74, 0x00, 0x00, 0x00, 0x94, 0x00, 0x00, 0x00,
  0x16, 0x00, 0x00, 0x00, 0xbc, 0x61, 0x00, 0x00, 0x4c, 0x61, 0x00, 0x00,
  0x88, 0x60, 0x00, 0x00, 0x00, 0x60, 0x00, 0x00, 0x58, 0x5f, 0x00, 0x00,
  0xd8, 0x5e, 0x00, 0x00, 0x60, 0x5e, 0x00, 0x00, 0xcc, 0x5d, 0x00, 0x00,
  0x64, 0x5d, 0x00, 0x00, 0x10, 0x1d, 0x00, 0x00, 0xa8, 0x1b, 0x00, 0x00,
  0x28, 0x1b, 0x00, 0x00, 0x80, 0x1a, 0x00, 0x00, 0x24, 0x0a, 0x00, 0x00,
  0x24, 0x07, 0x00, 0x00, 0xb8, 0x05, 0x00, 0x00, 0x50, 0x04, 0x00, 0x00,
  0x30, 0x03, 0x00, 0x00, 0x98, 0x02, 0x00, 0x00, 0xd4, 0x01, 0x00, 0x00,
  0x00, 0x01, 0x00, 0x00, 0x84, 0x00, 0x00, 0x00, 0x01, 0x00, 0x00, 0x00,
  0x00, 0x00, 0x00, 0x00, 0x01, 0x00, 0x00, 0x00, 0x15, 0x00, 0x00, 0x00,
  0x08, 0x00, 0x00, 0x00, 0x84, 0x06, 0x00, 0x00, 0x28, 0x05, 0x00, 0x00,
  0xdc, 0x03, 0x00, 0x00, 0xbc, 0x02, 0x00, 0x00, 0x30, 0x02, 0x00, 0x00,
  0x50, 0x01, 0x00, 0x00, 0x98, 0x00, 0x00, 0x00, 0x10, 0x00, 0x00, 0x00,
  0x04, 0x00, 0x00, 0x00, 0x6d, 0x61, 0x69, 0x6e, 0x00, 0x00, 0x00, 0x00,
  0x0e, 0xfb, 0xff, 0xff, 0x00, 0x00, 0x00, 0x09, 0x04, 0x00, 0x00, 0x00,
  0x1c, 0x00, 0x00, 0x00, 0x10, 0x00, 0x00, 0x00, 0x04, 0x00, 0x00, 0x00,
  0xc2, 0x9f, 0xff, 0xff, 0x00, 0x00, 0x80, 0x3f, 0x01, 0x00, 0x00, 0x00,
  0x15, 0x00, 0x00, 0x00, 0x01, 0x00, 0x00, 0x00, 0x14, 0x00, 0x00, 0x00,
  0x88, 0xf9, 0xff, 0xff, 0x19, 0x00, 0x00, 0x00, 0x00, 0x00, 0x00, 0x19,
  0x01, 0x00, 0x00, 0x00, 0x30, 0x9f, 0xff, 0xff, 0x14, 0x00, 0x00, 0x00,
  0x16, 0x00, 0x00, 0x00, 0x18, 0x00, 0x00, 0x00, 0x30, 0x00, 0x00, 0x00,
  0x20, 0x00, 0x00, 0x00, 0x02, 0x00, 0x00, 0x00, 0x01, 0x00, 0x00, 0x00,
  0x04, 0x00, 0x00, 0x00, 0x08, 0x00, 0x00, 0x00, 0x49, 0x64, 0x65, 0x6e,
  0x74, 0x69, 0x74, 0x79, 0x00, 0x00, 0x00, 0x00, 0x02, 0x00, 0x00, 0x00,
  0xff, 0xff, 0xff, 0xff, 0x04, 0x00, 0x00, 0x00, 0xfc, 0x9e, 0xff, 0xff,
  0x92, 0xfb, 0xff, 0xff, 0x00, 0x00, 0x00, 0x08, 0x03, 0x00, 0x00, 0x00,
  0x18, 0x00, 0x00, 0x00, 0x0c, 0x00, 0x00, 0x00, 0x04, 0x00, 0x00, 0x00,
  0x18, 0x9f, 0xff, 0xff, 0x01, 0x00, 0x00, 0x00, 0x14, 0x00, 0x00, 0x00,
  0x03, 0x00, 0x00, 0x00, 0x13, 0x00, 0x00, 0x00, 0x09, 0x00, 0x00, 0x00,
  0x04, 0x00, 0x00, 0x00, 0xa8, 0x9f, 0xff, 0xff, 0x14, 0x00, 0x00, 0x00,
  0x15, 0x00, 0x00, 0x00, 0x18, 0x00, 0x00, 0x00, 0x5c, 0x00, 0x00, 0x00,
  0x4c, 0x00, 0x00, 0x00, 0x02, 0x00, 0x00, 0x00, 0x01, 0x00, 0x00, 0x00,
  0x04, 0x00, 0x00, 0x00, 0x34, 0x00, 0x00, 0x00, 0x73, 0x65, 0x71, 0x75,
  0x65, 0x6e, 0x74, 0x69, 0x61, 0x6c, 0x2f, 0x64, 0x65, 0x6e, 0x73, 0x65,
  0x5f, 0x31, 0x2f, 0x4d, 0x61, 0x74, 0x4d, 0x75, 0x6c, 0x3b, 0x73, 0x65,
  0x71, 0x75, 0x65, 0x6e, 0x74, 0x69, 0x61, 0x6c, 0x2f, 0x64, 0x65, 0x6e,
  0x73, 0x65, 0x5f, 0x31, 0x2f, 0x42, 0x69, 0x61, 0x73, 0x41, 0x64, 0x64,
  0x00, 0x00, 0x00, 0x00, 0x02, 0x00, 0x00, 0x00, 0xff, 0xff, 0xff, 0xff,
  0x04, 0x00, 0x00, 0x00, 0xd8, 0xa0, 0xff, 0xff, 0x00, 0x00, 0x0e, 0x00,
  0x1a, 0x00, 0x08, 0x00, 0x0c, 0x00, 0x10, 0x00, 0x07, 0x00, 0x14, 0x00,
  0x0e, 0x00, 0x00, 0x00, 0x00, 0x00, 0x00, 0x08, 0x03, 0x00, 0x00, 0x00,
  0x24, 0x00, 0x00, 0x00, 0x18, 0x00, 0x00, 0x00, 0x0c, 0x00, 0x00, 0x00,
  0x00, 0x00, 0x06, 0x00, 0x08, 0x00, 0x07, 0x00, 0x06, 0x00, 0x00, 0x00,
  0x00, 0x00, 0x00, 0x01, 0x01, 0x00, 0x00, 0x00, 0x13, 0x00, 0x00, 0x00,
  0x03, 0x00, 0x00, 0x00, 0x12, 0x00, 0x00, 0x00, 0x08, 0x00, 0x00, 0x00,
  0x03, 0x00, 0x00, 0x00, 0xd0, 0xfa, 0xff, 0xff, 0x09, 0x00, 0x00, 0x00,
  0x00, 0x00, 0x00, 0x09, 0x01, 0x00, 0x00, 0x00, 0x78, 0xa0, 0xff, 0xff,
  0x14, 0x00, 0x00, 0x00, 0x14, 0x00, 0x00, 0x00, 0x18, 0x00, 0x00, 0x00,
  0x6c, 0x00, 0x00, 0x00, 0x5c, 0x00, 0x00, 0x00, 0x02, 0x00, 0x00, 0x00,
  0x01, 0x00, 0x00, 0x00, 0x10, 0x00, 0x00, 0x00, 0x46, 0x00, 0x00, 0x00,
  0x73, 0x65, 0x71, 0x75, 0x65, 0x6e, 0x74, 0x69, 0x61, 0x6c, 0x2f, 0x64,
  0x65, 0x6e, 0x73, 0x65, 0x2f, 0x4d, 0x61, 0x74, 0x4d, 0x75, 0x6c, 0x3b,
  0x73, 0x65, 0x71, 0x75, 0x65, 0x6e, 0x74, 0x69, 0x61, 0x6c, 0x2f, 0x64,
  0x65, 0x6e, 0x73, 0x65, 0x2f, 0x52, 0x65, 0x6c, 0x75, 0x3b, 0x73, 0x65,
  0x71, 0x75, 0x65, 0x6e, 0x74, 0x69, 0x61, 0x6c, 0x2f, 0x64, 0x65, 0x6e,
  0x73, 0x65, 0x2f, 0x42, 0x69, 0x61, 0x73, 0x41, 0x64, 0x64, 0x00, 0x00,
  0x02, 0x00, 0x00, 0x00, 0xff, 0xff, 0xff, 0xff, 0x10, 0x00, 0x00, 0x00,
  0xb8, 0xa1, 0xff, 0xff, 0x00, 0x00, 0x0a, 0x00, 0x10, 0x00, 0x04, 0x00,
  0x08, 0x00, 0x0c, 0x00, 0x0a, 0x00, 0x00, 0x00, 0x02, 0x00, 0x00, 0x00,
  0x10, 0x00, 0x00, 0x00, 0x04, 0x00, 0x00, 0x00, 0x01, 0x00, 0x00, 0x00,
  0x12, 0x00, 0x00, 0x00, 0x02, 0x00, 0x00, 0x00, 0x11, 0x00, 0x00, 0x00,
  0x07, 0x00, 0x00, 0x00, 0x90, 0xfb, 0xff, 0xff, 0x16, 0x00, 0x00, 0x00,
  0x00, 0x00, 0x00, 0x16, 0x01, 0x00, 0x00, 0x00, 0x38, 0xa1, 0xff, 0xff,
  0x14, 0x00, 0x00, 0x00, 0x13, 0x00, 0x00, 0x00, 0x18, 0x00, 0x00, 0x00,
  0x40, 0x00, 0x00, 0x00, 0x30, 0x00, 0x00, 0x00, 0x02, 0x00, 0x00, 0x00,
  0x01, 0x00, 0x00, 0x00, 0x00, 0x01, 0x00, 0x00, 0x1a, 0x00, 0x00, 0x00,
  0x73, 0x65, 0x71, 0x75, 0x65, 0x6e, 0x74, 0x69, 0x61, 0x6c, 0x2f, 0x66,
  0x6c, 0x61, 0x74, 0x74, 0x65, 0x6e, 0x2f, 0x52, 0x65, 0x73, 0x68, 0x61,
  0x70, 0x65, 0x00, 0x00, 0x02, 0x00, 0x00, 0x00, 0xff, 0xff, 0xff, 0xff,
  0x00, 0x01, 0x00, 0x00, 0x14, 0xa1, 0xff, 0xff, 0xaa, 0xfd, 0xff, 0xff,
  0x00, 0x00, 0x00, 0x01, 0x01, 0x00, 0x00, 0x00, 0x24, 0x00, 0x00, 0x00,
  0x18, 0x00, 0x00, 0x00, 0x04, 0x00, 0x00, 0x00, 0x9c, 0xfd, 0xff, 0xff,
  0x01, 0x00, 0x00, 0x00, 0x01, 0x00, 0x00, 0x00, 0x00, 0x00, 0x00, 0x01,
  0x01, 0x00, 0x00, 0x00, 0x11, 0x00, 0x00, 0x00, 0x03, 0x00, 0x00, 0x00,
  0x10, 0x00, 0x00, 0x00, 0x0d, 0x00, 0x00, 0x00, 0x02, 0x00, 0x00, 0x00,
  0xcc, 0xa1, 0xff, 0xff, 0x14, 0x00, 0x00, 0x00, 0x12, 0x00, 0x00, 0x00,
  0x20, 0x00, 0x00, 0x00, 0xb8, 0x00, 0x00, 0x00, 0xa0, 0x00, 0x00, 0x00,
  0x04, 0x00, 0x00, 0x00, 0x01, 0x00, 0x00, 0x00, 0x20, 0x00, 0x00, 0x00,
  0x01, 0x00, 0x00, 0x00, 0x08, 0x00, 0x00, 0x00, 0x83, 0x00, 0x00, 0x00,
  0x73, 0x65, 0x71, 0x75, 0x65, 0x6e, 0x74, 0x69, 0x61, 0x6c, 0x2f, 0x63,
  0x6f, 0x6e, 0x76, 0x32, 0x64, 0x5f, 0x31, 0x2f, 0x52, 0x65, 0x6c, 0x75,
  0x3b, 0x73, 0x65, 0x71, 0x75, 0x65, 0x6e, 0x74, 0x69, 0x61, 0x6c, 0x2f,
  0x63, 0x6f, 0x6e, 0x76, 0x32, 0x64, 0x5f, 0x31, 0x2f, 0x42, 0x69, 0x61,
  0x73, 0x41, 0x64, 0x64, 0x3b, 0x73, 0x65, 0x71, 0x75, 0x65, 0x6e, 0x74,
  0x69, 0x61, 0x6c, 0x2f, 0x63, 0x6f, 0x6e, 0x76, 0x32, 0x64, 0x5f, 0x31,
  0x2f, 0x43, 0x6f, 0x6e, 0x76, 0x32, 0x44, 0x3b, 0x73, 0x65, 0x71, 0x75,
  0x65, 0x6e, 0x74, 0x69, 0x61, 0x6c, 0x2f, 0x63, 0x6f, 0x6e, 0x76, 0x32,
  0x64, 0x5f, 0x31, 0x2f, 0x42, 0x69, 0x61, 0x73, 0x41, 0x64, 0x64, 0x2f,
  0x52, 0x65, 0x61, 0x64, 0x56, 0x61, 0x72, 0x69, 0x61, 0x62, 0x6c, 0x65,
  0x4f, 0x70, 0x2f, 0x72, 0x65, 0x73, 0x6f, 0x75, 0x72, 0x63, 0x65, 0x00,
  0x04, 0x00, 0x00, 0x00, 0xff, 0xff, 0xff, 0xff, 0x20, 0x00, 0x00, 0x00,
  0x01, 0x00, 0x00, 0x00, 0x08, 0x00, 0x00, 0x00, 0x58, 0xa3, 0xff, 0xff,
  0x00, 0x00, 0x0e, 0x00, 0x14, 0x00, 0x00, 0x00, 0x08, 0x00, 0x0c, 0x00,
  0x07, 0x00, 0x10, 0x00, 0x0e, 0x00, 0x00, 0x00, 0x00, 0x00, 0x00, 0x02,
  0x28, 0x00, 0x00, 0x00, 0x1c, 0x00, 0x00, 0x00, 0x04, 0x00, 0x00, 0x00,
  0x5e, 0xfd, 0xff, 0xff, 0x01, 0x00, 0x00, 0x00, 0x02, 0x00, 0x00, 0x00,
  0x02, 0x00, 0x00, 0x00, 0x00, 0x00, 0x00, 0x01, 0x01, 0x00, 0x00, 0x00,
  0x10, 0x00, 0x00, 0x00, 0x03, 0x00, 0x00, 0x00, 0x0f, 0x00, 0x00, 0x00,
  0x0c, 0x00, 0x00, 0x00, 0x06, 0x00, 0x00, 0x00, 0xe8, 0xa2, 0xff, 0xff,
  0x14, 0x00, 0x00, 0x00, 0x11, 0x00, 0x00, 0x00, 0x20, 0x00, 0x00, 0x00,
  0xe4, 0x00, 0x00, 0x00, 0xcc, 0x00, 0x00, 0x00, 0x04, 0x00, 0x00, 0x00,
  0x01, 0x00, 0x00, 0x00, 0x20, 0x00, 0x00, 0x00, 0x01, 0x00, 0x00, 0x00,
  0x10, 0x00, 0x00, 0x00, 0xae, 0x00, 0x00, 0x00, 0x73, 0x65, 0x71, 0x75,
  0x65, 0x6e, 0x74, 0x69, 0x61, 0x6c, 0x2f, 0x64, 0x65, 0x70, 0x74, 0x68,
  0x77, 0x69, 0x73, 0x65, 0x5f, 0x63, 0x6f, 0x6e, 0x76, 0x32, 0x64, 0x5f,
  0x31, 0x2f, 0x52, 0x65, 0x6c, 0x75, 0x3b, 0x73, 0x65, 0x71, 0x75, 0x65,
  0x6e, 0x74, 0x69, 0x61, 0x6c, 0x2f, 0x64, 0x65, 0x70, 0x74, 0x68, 0x77,
  0x69, 0x73, 0x65, 0x5f, 0x63, 0x6f, 0x6e, 0x76, 0x32, 0x64, 0x5f, 0x31,
  0x2f, 0x42, 0x69, 0x61, 0x73, 0x41, 0x64, 0x64, 0x3b, 0x73, 0x65, 0x71,
  0x75, 0x65, 0x6e, 0x74, 0x69, 0x61, 0x6c, 0x2f, 0x64, 0x65, 0x70, 0x74,
  0x68, 0x77, 0x69, 0x73, 0x65, 0x5f, 0x63, 0x6f, 0x6e, 0x76, 0x32, 0x64,
  0x5f, 0x31, 0x2f, 0x64, 0x65, 0x70, 0x74, 0x68, 0x77, 0x69, 0x73, 0x65,
  0x3b, 0x73, 0x65, 0x71, 0x75, 0x65, 0x6e, 0x74, 0x69, 0x61, 0x6c, 0x2f,
  0x64, 0x65, 0x70, 0x74, 0x68, 0x77, 0x69, 0x73, 0x65, 0x5f, 0x63, 0x6f,
  0x6e, 0x76, 0x32, 0x64, 0x5f, 0x31, 0x2f, 0x42, 0x69, 0x61, 0x73, 0x41,
  0x64, 0x64, 0x2f, 0x52, 0x65, 0x61, 0x64, 0x56, 0x61, 0x72, 0x69, 0x61,
  0x62, 0x6c, 0x65, 0x4f, 0x70, 0x2f, 0x72, 0x65, 0x73, 0x6f, 0x75, 0x72,
  0x63, 0x65, 0x00, 0x00, 0x04, 0x00, 0x00, 0x00, 0xff, 0xff, 0xff, 0xff,
  0x20, 0x00, 0x00, 0x00, 0x01, 0x00, 0x00, 0x00, 0x10, 0x00, 0x00, 0x00,
  0xa0, 0xa4, 0xff, 0xff, 0x00, 0x00, 0x0e, 0x00, 0x18, 0x00, 0x08, 0x00,
  0x0c, 0x00, 0x10, 0x00, 0x07, 0x00, 0x14, 0x00, 0x0e, 0x00, 0x00, 0x00,
  0x00, 0x00, 0x00, 0x01, 0x01, 0x00, 0x00, 0x00, 0x30, 0x00, 0x00, 0x00,
  0x24, 0x00, 0x00, 0x00, 0x10, 0x00, 0x00, 0x00, 0x0c, 0x00, 0x10, 0x00,
  0x00, 0x00, 0x04, 0x00, 0x08, 0x00, 0x0f, 0x00, 0x0c, 0x00, 0x00, 0x00,
  0x01, 0x00, 0x00, 0x00, 0x01, 0x00, 0x00, 0x00, 0x00, 0x00, 0x00, 0x01,
  0x01, 0x00, 0x00, 0x00, 0x0f, 0x00, 0x00, 0x00, 0x03, 0x00, 0x00, 0x00,
  0x0e, 0x00, 0x00, 0x00, 0x0b, 0x00, 0x00, 0x00, 0x01, 0x00, 0x00, 0x00,
  0xa4, 0xfe, 0xff, 0xff, 0x03, 0x00, 0x00, 0x00, 0x00, 0x00, 0x00, 0x03,
  0x01, 0x00, 0x00, 0x00, 0x4c, 0xa4, 0xff, 0xff, 0x14, 0x00, 0x00, 0x00,
  0x10, 0x00, 0x00, 0x00, 0x20, 0x00, 0x00, 0x00, 0xd8, 0x00, 0x00, 0x00,
  0xc0, 0x00, 0x00, 0x00, 0x04, 0x00, 0x00, 0x00, 0x01, 0x00, 0x00, 0x00,
  0x40, 0x00, 0x00, 0x00, 0x02, 0x00, 0x00, 0x00, 0x10, 0x00, 0x00, 0x00,
  0xa3, 0x00, 0x00, 0x00, 0x73, 0x65, 0x71, 0x75, 0x65, 0x6e, 0x74, 0x69,
  0x61, 0x6c, 0x2f, 0x63, 0x6f, 0x6e, 0x76, 0x32, 0x64, 0x2f, 0x52, 0x65,
  0x6c, 0x75, 0x3b, 0x73, 0x65, 0x71, 0x75, 0x65, 0x6e, 0x74, 0x69, 0x61,
  0x6c, 0x2f, 0x63, 0x6f, 0x6e, 0x76, 0x32, 0x64, 0x2f, 0x42, 0x69, 0x61,
  0x73, 0x41, 0x64, 0x64, 0x3b, 0x73, 0x65, 0x71, 0x75, 0x65, 0x6e, 0x74,
  0x69, 0x61, 0x6c, 0x2f, 0x64, 0x65, 0x70, 0x74, 0x68, 0x77, 0x69, 0x73,
  0x65, 0x5f, 0x63, 0x6f, 0x6e, 0x76, 0x32, 0x64, 0x5f, 0x31, 0x2f, 0x64,
  0x65, 0x70, 0x74, 0x68, 0x77, 0x69, 0x73, 0x65, 0x3b, 0x73, 0x65, 0x71,
  0x75, 0x65, 0x6e, 0x74, 0x69, 0x61, 0x6c, 0x2f, 0x63, 0x6f, 0x6e, 0x76,
  0x32, 0x64, 0x2f, 0x43, 0x6f, 0x6e, 0x76, 0x32, 0x44, 0x3b, 0x73, 0x65,
  0x71, 0x75, 0x65, 0x6e, 0x74, 0x69, 0x61, 0x6c, 0x2f, 0x63, 0x6f, 0x6e,
  0x76, 0x32, 0x64, 0x2f, 0x42, 0x69, 0x61, 0x73, 0x41, 0x64, 0x64, 0x2f,
  0x52, 0x65, 0x61, 0x64, 0x56, 0x61, 0x72, 0x69, 0x61, 0x62, 0x6c, 0x65,
  0x4f, 0x70, 0x2f, 0x72, 0x65, 0x73, 0x6f, 0x75, 0x72, 0x63, 0x65, 0x00,
  0x04, 0x00, 0x00, 0x00, 0xff, 0xff, 0xff, 0xff, 0x40, 0x00, 0x00, 0x00,
  0x02, 0x00, 0x00, 0x00, 0x10, 0x00, 0x00, 0x00, 0xf8, 0xa5, 0xff, 0xff,
  0x00, 0x00, 0x0e, 0x00, 0x16, 0x00, 0x00, 0x00, 0x08, 0x00, 0x0c, 0x00,
  0x07, 0x00, 0x10, 0x00, 0x0e, 0x00, 0x00, 0x00, 0x00, 0x00, 0x00, 0x02,
  0x38, 0x00, 0x00, 0x00, 0x2c, 0x00, 0x00, 0x00, 0x14, 0x00, 0x00, 0x00,
  0x00, 0x00, 0x0e, 0x00, 0x14, 0x00, 0x00, 0x00, 0x08, 0x00, 0x0c, 0x00,
  0x04, 0x00, 0x13, 0x00, 0x0e, 0x00, 0x00, 0x00, 0x01, 0x00, 0x00, 0x00,
  0x02, 0x00, 0x00, 0x00, 0x02, 0x00, 0x00, 0x00, 0x00, 0x00, 0x00, 0x01,
  0x01, 0x00, 0x00, 0x00, 0x0e, 0x00, 0x00, 0x00, 0x03, 0x00, 0x00, 0x00,
  0x00, 0x00, 0x00, 0x00, 0x0a, 0x00, 0x00, 0x00, 0x05, 0x00, 0x00, 0x00,
  0x0c, 0x00, 0x10, 0x00, 0x0b, 0x00, 0x00, 0x00, 0x0c, 0x00, 0x04, 0x00,
  0x0c, 0x00, 0x00, 0x00, 0x04, 0x00, 0x00, 0x00, 0x00, 0x00, 0x00, 0x04,
  0x01, 0x00, 0x00, 0x00, 0xb4, 0xa5, 0xff, 0xff, 0x14, 0x00, 0x00, 0x00,
  0x0f, 0x00, 0x00, 0x00, 0x20, 0x00, 0x00, 0x00, 0xdc, 0x00, 0x00, 0x00,
  0xc4, 0x00, 0x00, 0x00, 0x04, 0x00, 0x00, 0x00, 0x01, 0x00, 0x00, 0x00,
  0x40, 0x00, 0x00, 0x00, 0x02, 0x00, 0x00, 0x00, 0x01, 0x00, 0x00, 0x00,
  0xa6, 0x00, 0x00, 0x00, 0x73, 0x65, 0x71, 0x75, 0x65, 0x6e, 0x74, 0x69,
  0x61, 0x6c, 0x2f, 0x64, 0x65, 0x70, 0x74, 0x68, 0x77, 0x69, 0x73, 0x65,
  0x5f, 0x63, 0x6f, 0x6e, 0x76, 0x32, 0x64, 0x2f, 0x52, 0x65, 0x6c, 0x75,
  0x3b, 0x73, 0x65, 0x71, 0x75, 0x65, 0x6e, 0x74, 0x69, 0x61, 0x6c, 0x2f,
  0x64, 0x65, 0x70, 0x74, 0x68, 0x77, 0x69, 0x73, 0x65, 0x5f, 0x63, 0x6f,
  0x6e, 0x76, 0x32, 0x64, 0x2f, 0x42, 0x69, 0x61, 0x73, 0x41, 0x64, 0x64,
  0x3b, 0x73, 0x65, 0x71, 0x75, 0x65, 0x6e, 0x74, 0x69, 0x61, 0x6c, 0x2f,
  0x64, 0x65, 0x70, 0x74, 0x68, 0x77, 0x69, 0x73, 0x65, 0x5f, 0x63, 0x6f,
  0x6e, 0x76, 0x32, 0x64, 0x2f, 0x64, 0x65, 0x70, 0x74, 0x68, 0x77, 0x69,
  0x73, 0x65, 0x3b, 0x73, 0x65, 0x71, 0x75, 0x65, 0x6e, 0x74, 0x69, 0x61,
  0x6c, 0x2f, 0x64, 0x65, 0x70, 0x74, 0x68, 0x77, 0x69, 0x73, 0x65, 0x5f,
  0x63, 0x6f, 0x6e, 0x76, 0x32, 0x64, 0x2f, 0x42, 0x69, 0x61, 0x73, 0x41,
  0x64, 0x64, 0x2f, 0x52, 0x65, 0x61, 0x64, 0x56, 0x61, 0x72, 0x69, 0x61,
  0x62, 0x6c, 0x65, 0x4f, 0x70, 0x2f, 0x72, 0x65, 0x73, 0x6f, 0x75, 0x72,
  0x63, 0x65, 0x00, 0x00, 0x04, 0x00, 0x00, 0x00, 0xff, 0xff, 0xff, 0xff,
  0x40, 0x00, 0x00, 0x00, 0x02, 0x00, 0x00, 0x00, 0x01, 0x00, 0x00, 0x00,
  0x2c, 0xa6, 0xff, 0xff, 0x5e, 0xa7, 0xff, 0xff, 0x04, 0x00, 0x00, 0x00,
  0x00, 0x02, 0x00, 0x00, 0x52, 0x98, 0x0f, 0x3c, 0x08, 0x65, 0x97, 0xbe,
  0x36, 0x1b, 0x06, 0xbe, 0xdd, 0x81, 0x0c, 0xbf, 0x80, 0x4c, 0x21, 0x3e,
  0xae, 0xfc, 0x84, 0xbe, 0xba, 0x59, 0x4c, 0xbf, 0x3c, 0xf3, 0x42, 0xbf,
  0x90, 0x76, 0xf7, 0xbd, 0x70, 0x91, 0xa2, 0x3d, 0xc5, 0x87, 0x78, 0xbd,
  0xe8, 0x65, 0x2e, 0xbe, 0x58, 0x54, 0x24, 0xbf, 0xcc, 0x76, 0xa0, 0x3e,
  0xe4, 0xf2, 0x83, 0x3e, 0x78, 0xbf, 0x3e, 0x3e, 0xbe, 0x98, 0xa7, 0x3d,
  0x78, 0x8c, 0xc9, 0xbe, 0x83, 0x4b, 0xd5, 0x3e, 0xa0, 0x58, 0x37, 0x3d,
  0xd0, 0x3c, 0x1f, 0xbe, 0x55, 0xf9, 0xb1, 0xbe, 0xfd, 0x2b, 0xce, 0xbe,
  0x71, 0xdc, 0x07, 0xbf, 0x30, 0x70, 0x68, 0xbe, 0xf8, 0x5d, 0x8b, 0x3e,
  0x55, 0xdf, 0xac, 0xbe, 0xeb, 0xc7, 0x0e, 0xbe, 0xbf, 0x45, 0xd6, 0xbd,
  0x00, 0xa5, 0x72, 0x3d, 0x64, 0x30, 0xf7, 0xbe, 0x4c, 0x98, 0xe3, 0xbe,
  0xbd, 0x49, 0x5d, 0xbd, 0x00, 0x78, 0xc4, 0x3c, 0x6f, 0x8d, 0xfc, 0xbb,
  0x40, 0x93, 0x2d, 0x3c, 0x70, 0x75, 0x93, 0x3d, 0x49, 0x50, 0x8a, 0xbe,
  0xdc, 0xdd, 0xde, 0xbe, 0xb4, 0x1f, 0xc4, 0xbd, 0xe0, 0x75, 0xe9, 0x3d,
  0x2c, 0x1d, 0xf9, 0x3e, 0x44, 0xba, 0xa1, 0x3e, 0xee, 0x29, 0xf3, 0x3e,
  0x2f, 0x87, 0x0e, 0xbf, 0x40, 0x3d, 0xa5, 0x3c, 0x80, 0x78, 0x4f, 0xbe,
  0xbe, 0x13, 0xa7, 0x3e, 0x94, 0x4f, 0x2e, 0x3e, 0x88, 0x8e, 0xf2, 0x3e,
  0x6e, 0x6c, 0x31, 0xbf, 0xfb, 0x73, 0xa8, 0x3d, 0x40, 0x71, 0x69, 0xbd,
  0x04, 0xa9, 0x1d, 0xbe, 0xa6, 0xa6, 0x37, 0x3e, 0x8f, 0x53, 0x81, 0xbe,
  0x60, 0x66, 0xd4, 0xbd, 0xec, 0x48, 0xad, 0xbe, 0xad, 0xf5, 0xce, 0x3e,
  0xc4, 0x28, 0x81, 0xbe, 0x44, 0xf1, 0xa0, 0x3e, 0x48, 0x08, 0x70, 0xbe,
  0x00, 0x9e, 0x22, 0x3b, 0xaf, 0x97, 0xba, 0x3e, 0x4f, 0x0d, 0x74, 0x3e,
  0xb8, 0x2c, 0x8a, 0x3e, 0xa5, 0x49, 0xb4, 0x3c, 0x6a, 0x25, 0x0b, 0xbe,
  0xb8, 0xb9, 0x74, 0xbe, 0xaa, 0xc5, 0xb2, 0x3e, 0xde, 0xc9, 0x06, 0xbe,
  0xe6, 0x74, 0x1f, 0xbf, 0xb4, 0x0d, 0xc9, 0x3e, 0x90, 0x49, 0xab, 0x3e,
  0x8b, 0xeb, 0xfa, 0x3b, 0x8f, 0x0d, 0x1b, 0xbc, 0xaa, 0x54, 0xb6, 0xbd,
  0x50, 0x3c, 0xd2, 0x3d, 0xc0, 0x7e, 0xec, 0xbe, 0x57, 0xeb, 0x9f, 0x3e,
  0x73, 0xee, 0x1b, 0x3f, 0x80, 0xad, 0x7b, 0xbc, 0xd5, 0xc5, 0x58, 0xbf,
  0x47, 0xcc, 0x90, 0x3e, 0xf8, 0xeb, 0x2e, 0xbe, 0xae, 0xd6, 0x1c, 0xbe,
  0xc9, 0xb1, 0x36, 0xbe, 0x1f, 0x08, 0x4d, 0xbe, 0x14, 0x0b, 0xbd, 0xbe,
  0x00, 0x67, 0x6b, 0x3e, 0xe7, 0x4a, 0xea, 0xbe, 0x50, 0x95, 0xce, 0xbd,
  0x4c, 0xa3, 0x83, 0xbe, 0x30, 0x8e, 0xf9, 0x3d, 0x50, 0x7a, 0x80, 0xbe,
  0x91, 0xc9, 0x2b, 0xbd, 0x92, 0x99, 0xc8, 0xbe, 0xf8, 0x1d, 0xf5, 0xbe,
  0x42, 0xa6, 0x55, 0x3d, 0x34, 0xcf, 0x94, 0x3e, 0xa0, 0x31, 0xff, 0x3e,
  0x2c, 0x73, 0x2c, 0xbd, 0x54, 0xa0, 0x01, 0xb8, 0x43, 0xdc, 0xb7, 0xbc,
  0xec, 0x4d, 0xd5, 0x3e, 0x80, 0x6a, 0xf3, 0x3d, 0x3e, 0xac, 0x92, 0x3e,
  0xdb, 0x58, 0x35, 0xbe, 0x22, 0x6a, 0x6f, 0xbd, 0xa8, 0x62, 0xce, 0xbe,
  0xd4, 0x3b, 0xe1, 0xbe, 0x44, 0xb7, 0x96, 0x3d, 0x81, 0x8c, 0xb1, 0xbd,
  0xc0, 0xf0, 0x0c, 0x3d, 0x00, 0x76, 0x85, 0x3e, 0x4d, 0x20, 0x30, 0xbf,
  0x9c, 0xce, 0xff, 0x3e, 0xd1, 0x66, 0x99, 0x3e, 0xbf, 0xe8, 0x15, 0xbd,
  0x90, 0x38, 0x25, 0xbf, 0x70, 0x3a, 0xfb, 0xbe, 0x20, 0xb7, 0x87, 0xbd,
  0x9c, 0x9b, 0x3b, 0xbe, 0xd5, 0xcb, 0x59, 0xbe, 0x75, 0xef, 0xd4, 0x3c,
  0xe0, 0x16, 0x05, 0xbd, 0xbc, 0x59, 0xe7, 0xbe, 0xd5, 0xda, 0xd9, 0xbe,
  0x16, 0xa9, 0xff, 0xff, 0x10, 0x00, 0x00, 0x00, 0x0e, 0x00, 0x00, 0x00,
  0x1c, 0x00, 0x00, 0x00, 0x38, 0x00, 0x00, 0x00, 0x04, 0x00, 0x00, 0x00,
  0x08, 0x00, 0x00, 0x00, 0x01, 0x00, 0x00, 0x00, 0x01, 0x00, 0x00, 0x00,
  0x10, 0x00, 0x00, 0x00, 0x1a, 0x00, 0x00, 0x00, 0x73, 0x65, 0x71, 0x75,
  0x65, 0x6e, 0x74, 0x69, 0x61, 0x6c, 0x2f, 0x63, 0x6f, 0x6e, 0x76, 0x32,
  0x64, 0x5f, 0x31, 0x2f, 0x43, 0x6f, 0x6e, 0x76, 0x32, 0x44, 0x00, 0x00,
  0x84, 0xa8, 0xff, 0xff, 0xb6, 0xa9, 0xff, 0xff, 0x04, 0x00, 0x00, 0x00,
  0x00, 0x10, 0x00, 0x00, 0xe0, 0x54, 0xb1, 0x3c, 0xb4, 0x36, 0x15, 0x3d,
  0xca, 0xb9, 0x9d, 0xbc, 0x83, 0x83, 0x95, 0xbd, 0x6e, 0x29, 0x4b, 0xbd,
  0x68, 0x1e, 0x7d, 0x3d, 0x80, 0xa4, 0x0e, 0xbb, 0xe4, 0x61, 0xae, 0xbc,
  0x6e, 0x37, 0x90, 0xbd, 0xd0, 0x9d, 0x86, 0xbc, 0x7c, 0x24, 0x61, 0x3d,
  0xc0, 0x4c, 0xfe, 0x3a, 0x0c, 0xd5, 0x6d, 0x3d, 0xc0, 0x91, 0x2e, 0x3b,
  0xfa, 0x7a, 0x84, 0xbd, 0xbc, 0x27, 0x89, 0x3d, 0x1d, 0xee, 0x73, 0xbd,
  0x48, 0x69, 0x43, 0xbd, 0x5a, 0x06, 0x3d, 0xbd, 0x58, 0xc9, 0x31, 0x3d,
  0xf6, 0x22, 0x47, 0x3d, 0x9c, 0xf7, 0x7d, 0x3d, 0xc0, 0x3f, 0xf9, 0xbc,
  0x52, 0x1e, 0xdd, 0xbc, 0x00, 0x14, 0x38, 0xbc, 0xc8, 0x70, 0x6a, 0x3d,
  0x60, 0x70, 0x8b, 0x3b, 0x78, 0x9b, 0x5c, 0x3d, 0xce, 0x04, 0x79, 0xbd,
  0x40, 0xe6, 0xd5, 0x3c, 0xed, 0x44, 0x95, 0xbd, 0x84, 0x24, 0x87, 0xbd,
  0x3f, 0x54, 0x29, 0xbd, 0xa4, 0x53, 0x5c, 0xbd, 0xd8, 0x6e, 0xa4, 0x3c,
  0xe0, 0x7d, 0x00, 0xbc, 0x3c, 0x1a, 0x50, 0x3d, 0xbd, 0xf7, 0x1d, 0xbd,
  0x18, 0xa5, 0x03, 0x3c, 0x4c, 0xf4, 0xf1, 0x3c, 0x44, 0x0c, 0x8d, 0x3d,
  0x10, 0xa4, 0x72, 0x3d, 0xd2, 0x19, 0x1a, 0xbd, 0x80, 0x5d, 0x1c, 0xba,
  0x82, 0x1a, 0x33, 0x3d, 0x37, 0x28, 0x93, 0xbd, 0xe9, 0x45, 0x4a, 0xbd,
  0x3c, 0x73, 0x13, 0x3d, 0x9a, 0xe8, 0x39, 0xbe, 0x0c, 0x72, 0xdf, 0x3c,
  0xcf, 0x9a, 0x7b, 0x3d, 0xaa, 0x49, 0xca, 0x3d, 0xf8, 0x89, 0x4b, 0xbd,
  0x87, 0x29, 0x6b, 0xbe, 0xf9, 0xac, 0x2d, 0x3e, 0xa9, 0x12, 0x6f, 0xbd,
  0xce, 0x34, 0xfa, 0xbc, 0x09, 0xbb, 0x2b, 0xbd, 0x34, 0x9b, 0x50, 0xbd,
  0xb4, 0xfe, 0xbc, 0x3e, 0x77, 0x18, 0xac, 0xbd, 0xf7, 0x71, 0x8e, 0xbd,
  0x98, 0xfa, 0xf2, 0x3c, 0xad, 0xff, 0x1b, 0xbd, 0x8d, 0x27, 0x0b, 0x3d,
  0x58, 0xd5, 0x29, 0xbc, 0x4b, 0x85, 0x98, 0x3c, 0x81, 0xf2, 0xe4, 0x3e,
  0xf8, 0x62, 0x54, 0x3d, 0x2c, 0x8b, 0x43, 0x3d, 0xc0, 0x4d, 0x8e, 0xbe,
  0xdb, 0x20, 0x72, 0x3d, 0x28, 0x1f, 0xf2, 0x3c, 0x00, 0x13, 0xa2, 0xb9,
  0x6b, 0xb3, 0x8c, 0xbe, 0x97, 0xf1, 0x62, 0x3e, 0xcb, 0xec, 0x34, 0xbe,
  0x6d, 0xa3, 0x8f, 0xbd, 0x00, 0x08, 0xef, 0x3b, 0xd0, 0x86, 0x5f, 0xbf,
  0x5c, 0xfc, 0xcc, 0x3c, 0x10, 0x8a, 0x99, 0xbb, 0x04, 0xf9, 0xdb, 0x3c,
  0x98, 0xa4, 0x51, 0x3d, 0x90, 0xca, 0xa7, 0x3b, 0x42, 0x06, 0x12, 0x3d,
  0x4e, 0x95, 0x12, 0xbd, 0xd4, 0x73, 0xdd, 0xbc, 0xb0, 0xe2, 0x8a, 0x3b,
  0x62, 0x29, 0x87, 0x3d, 0x88, 0x72, 0x41, 0x3d, 0x5c, 0x9b, 0x07, 0xbd,
  0x10, 0x41, 0xd5, 0xbc, 0x8a, 0xc5, 0x51, 0xbd, 0xe5, 0xf3, 0x2d, 0xbd,
  0x30, 0x79, 0xb0, 0x3b, 0x15, 0x5a, 0x71, 0xbd, 0x80, 0x37, 0xb3, 0x3b,
  0x97, 0x40, 0x4d, 0xbd, 0x2c, 0xa4, 0x96, 0xbd, 0x30, 0xe8, 0xb7, 0x3b,
  0x08, 0x09, 0x30, 0xbd, 0x3b, 0x94, 0x6b, 0xbd, 0xbc, 0x48, 0xde, 0x3c,
  0xd0, 0x8a, 0xc1, 0xbb, 0x88, 0x07, 0xcf, 0x3c, 0x6c, 0xb9, 0x5f, 0x3d,
  0xf0, 0xb5, 0x81, 0x3d, 0x26, 0x87, 0x15, 0xbd, 0xd2, 0xf8, 0x5f, 0xbd,
  0x9c, 0xcb, 0xc2, 0xbc, 0xf0, 0xca, 0xa4, 0xbc, 0xf0, 0xf6, 0x9e, 0xbb,
  0x70, 0x79, 0x7b, 0x3c, 0x3c, 0xde, 0x51, 0x3d, 0xd8, 0x6b, 0x17, 0x3c,
  0xed, 0xed, 0x35, 0xbd, 0x24, 0x25, 0x70, 0x3d, 0x1a, 0x9f, 0xb9, 0xbc,
  0x94, 0x91, 0x0c, 0x3d, 0x14, 0x1e, 0x0d, 0x3d, 0xf0, 0x6d, 0xc3, 0x3c,
  0xb0, 0x10, 0x84, 0x3c, 0xbc, 0x47, 0x04, 0xbd, 0x54, 0x11, 0x96, 0x3d,
  0x04, 0x37, 0x8e, 0x3d, 0x95, 0x90, 0x73, 0xbd, 0x00, 0x4c, 0x87, 0x3a,
  0xaa, 0x8a, 0x18, 0xbd, 0x0c, 0x25, 0x75, 0xbd, 0x86, 0x4f, 0x8a, 0x3d,
  0xdf, 0x8e, 0x90, 0xbd, 0x90, 0x09, 0x90, 0x3b, 0xb0, 0x96, 0x64, 0xbd,
  0x08, 0xa5, 0x28, 0x3d, 0xf8, 0xde, 0x4e, 0x3d, 0xc0, 0x14, 0x4a, 0xbd,
  0x16, 0x18, 0xd6, 0xbc, 0x24, 0xd8, 0xa6, 0x3c, 0x42, 0xc8, 0x16, 0x3d,
  0x24, 0xc9, 0x17, 0xbd, 0xf6, 0x07, 0x4a, 0x3d, 0x28, 0x75, 0x74, 0xbd,
  0x26, 0x4e, 0x8c, 0xbc, 0x38, 0xb8, 0x80, 0xbd, 0xcb, 0x80, 0x8c, 0xbd,
  0xc0, 0x25, 0x4c, 0xbc, 0x98, 0x02, 0x87, 0x3c, 0x08, 0x0e, 0x68, 0x3d,
  0x60, 0x42, 0x6d, 0xbb, 0xa0, 0x69, 0xc2, 0xbb, 0xa8, 0xd9, 0x23, 0x3d,
  0x56, 0xe7, 0x90, 0x3d, 0x1c, 0x68, 0x8f, 0x3d, 0xf4, 0xfc, 0x77, 0x3d,
  0xf0, 0x9b, 0xbf, 0xbb, 0x4c, 0x4a, 0xb4, 0x3c, 0x8c, 0xb4, 0xdd, 0xbc,
  0xd0, 0x6f, 0x04, 0xbc, 0x80, 0x30, 0xe2, 0x3b, 0x90, 0x29, 0x73, 0xbc,
  0x62, 0xa3, 0x07, 0x3d, 0x68, 0x28, 0xce, 0x3c, 0x5c, 0x54, 0x8a, 0x3c,
  0x30, 0x1e, 0x52, 0x3c, 0xd6, 0xb7, 0xd7, 0xbc, 0x6c, 0xa5, 0x12, 0xbd,
  0x89, 0xef, 0x27, 0xbd, 0xc2, 0xcc, 0x37, 0xbd, 0xd3, 0x07, 0x94, 0xbd,
  0x3f, 0xf0, 0x5f, 0xbd, 0x95, 0xf1, 0x93, 0xbd, 0x5d, 0x85, 0x8e, 0xbd,
  0x1f, 0xb7, 0x74, 0xbd, 0x10, 0xde, 0xa9, 0x3c, 0xae, 0x35, 0x4c, 0x3d,
  0x19, 0xd7, 0x97, 0xbe, 0xc0, 0xb3, 0x5f, 0x3c, 0x76, 0x45, 0xcf, 0x3d,
  0xea, 0xf3, 0x64, 0x3e, 0xb0, 0x9b, 0xb2, 0x3c, 0x9b, 0xf7, 0x5e, 0xbe,
  0x60, 0xd3, 0x41, 0x3e, 0x4a, 0xf6, 0xff, 0xbd, 0xe6, 0x40, 0x40, 0x3d,
  0xe0, 0x46, 0x2e, 0x3b, 0x81, 0xd9, 0x6a, 0x3e, 0x0b, 0xdd, 0x09, 0x3e,
  0x70, 0x51, 0x30, 0x3e, 0x16, 0xba, 0x0d, 0x3d, 0xdb, 0x9c, 0x3e, 0xbd,
  0xf0, 0x54, 0xe1, 0x3c, 0x8c, 0x18, 0xf9, 0xbd, 0xe0, 0x4c, 0x79, 0xbb,
  0xea, 0xb7, 0xc5, 0x3c, 0x16, 0xf8, 0x91, 0x3e, 0x10, 0xac, 0x25, 0xbc,
  0xc1, 0x6b, 0xf9, 0x3c, 0x02, 0x76, 0x89, 0xbe, 0x60, 0xc6, 0x82, 0xbd,
  0x28, 0xfd, 0xe8, 0xbc, 0xde, 0x2a, 0x93, 0x3d, 0xd4, 0xca, 0xf8, 0xbe,
  0xcf, 0x35, 0x5a, 0x3e, 0x5e, 0xde, 0xb4, 0xbe, 0x1a, 0x5e, 0xfa, 0xbc,
  0xd4, 0x2e, 0xb2, 0x3c, 0xc6, 0x58, 0x60, 0xbf, 0x20, 0x87, 0xc7, 0xbb,
  0x44, 0xbe, 0x65, 0x3d, 0xf0, 0xe6, 0x5e, 0x3d, 0x14, 0xe7, 0x9a, 0x3c,
  0x7a, 0x36, 0x5b, 0xbd, 0xc7, 0xad, 0x70, 0xbd, 0xc0, 0x87, 0xbd, 0xba,
  0xac, 0x8a, 0x85, 0x3c, 0x30, 0x7c, 0x87, 0x3c, 0x0e, 0x6a, 0x4a, 0x3d,
  0xc3, 0xe7, 0x90, 0xbd, 0x40, 0x4e, 0xd5, 0xbb, 0x12, 0x4b, 0xea, 0xbc,
  0xf0, 0x32, 0x4f, 0x3d, 0xa2, 0xcb, 0x90, 0xbc, 0x9c, 0x76, 0xbf, 0xbc,
  0x04, 0x1f, 0x9c, 0x3c, 0xbc, 0x63, 0x18, 0x3d, 0x00, 0x32, 0x64, 0x3c,
  0x6e, 0x70, 0x4d, 0xbd, 0x32, 0x97, 0x93, 0xbd, 0xd0, 0x8c, 0x75, 0x3d,
  0x00, 0x02, 0xf3, 0x3b, 0xb4, 0xad, 0x94, 0x3d, 0x2c, 0x09, 0xe8, 0x3c,
  0xc0, 0x7e, 0x87, 0x3d, 0x05, 0xf9, 0x4c, 0xbd, 0x32, 0x27, 0x08, 0xbd,
  0xd8, 0x68, 0x76, 0x3d, 0x08, 0xcd, 0x68, 0xbd, 0xae, 0x86, 0x2c, 0xbd,
  0xb4, 0x82, 0x50, 0x3d, 0x16, 0xb4, 0x95, 0x3d, 0x30, 0xa9, 0xdd, 0xbc,
  0xe0, 0x60, 0xcd, 0xbc, 0x86, 0xaa, 0x03, 0x3d, 0xe0, 0x3b, 0xb1, 0xbb,
  0x95, 0x1c, 0x45, 0xbd, 0x0a, 0xfb, 0x8c, 0xbd, 0xbf, 0x57, 0x2c, 0xbd,
  0x20, 0x48, 0x63, 0xbb, 0xf8, 0x33, 0x55, 0x3d, 0x2c, 0xd5, 0x94, 0xbd,
  0x74, 0xf8, 0x3f, 0x3d, 0x60, 0x9d, 0x68, 0x3b, 0x80, 0x53, 0xbc, 0xbb,
  0xb2, 0xb6, 0x6f, 0xbd, 0x6a, 0x7d, 0x2c, 0x3d, 0xde, 0x8f, 0x5b, 0xbd,
  0x64, 0xbc, 0x4f, 0x3d, 0x34, 0x26, 0x54, 0x3d, 0x24, 0x83, 0xde, 0x3c,
  0xa4, 0x35, 0x2c, 0xbd, 0x00, 0xf4, 0x69, 0x3d, 0x7a, 0x41, 0x3e, 0x3d,
  0x14, 0x07, 0x2c, 0x3d, 0xa8, 0xe0, 0x03, 0x3d, 0x21, 0xff, 0x8a, 0xbd,
  0x1e, 0xfe, 0xaf, 0xbc, 0x00, 0x78, 0x6f, 0xbd, 0xc4, 0x60, 0x8a, 0xbd,
  0x88, 0x55, 0x6c, 0x3d, 0x40, 0x37, 0x1b, 0xbc, 0xb8, 0x45, 0xd4, 0x3c,
  0x58, 0x72, 0xb6, 0x3c, 0x50, 0x0d, 0xba, 0x3c, 0x80, 0xa7, 0xcc, 0xbb,
  0x76, 0x88, 0x1b, 0x3d, 0xb2, 0xb4, 0x8e, 0xbc, 0x70, 0x9b, 0x79, 0x3d,
  0xf8, 0xf7, 0x24, 0x3c, 0x92, 0xb0, 0x7e, 0xbd, 0x6a, 0xb2, 0x4c, 0x3d,
  0x42, 0x2e, 0x8a, 0xbc, 0x08, 0xd0, 0x26, 0x3d, 0xd3, 0xfa, 0x4b, 0xbd,
  0x56, 0xb3, 0x8a, 0xbc, 0x3c, 0x1e, 0x78, 0x3d, 0x99, 0x93, 0x4c, 0xbd,
  0x10, 0x66, 0xe4, 0x3b, 0x00, 0xce, 0x97, 0x3b, 0x6e, 0x1a, 0x96, 0xbc,
  0xc0, 0x72, 0xb9, 0xba, 0x78, 0xee, 0x03, 0x3c, 0x18, 0x98, 0xd5, 0x3c,
  0xa0, 0x99, 0x5e, 0xbb, 0xd0, 0x4d, 0xe0, 0x3c, 0x3e, 0xbc, 0x83, 0x3d,
  0xec, 0x2c, 0x4a, 0xbd, 0x0a, 0xce, 0x37, 0x3d, 0x24, 0x61, 0x40, 0x3d,
  0x62, 0xde, 0xd5, 0xbc, 0x8a, 0xfd, 0x81, 0xbc, 0xa1, 0xe7, 0x7a, 0xbd,
  0x50, 0x9e, 0x60, 0xbd, 0x90, 0x08, 0xdd, 0xbb, 0x7d, 0x2d, 0xcf, 0xbe,
  0x02, 0x85, 0x27, 0xbd, 0x8d, 0x11, 0xcc, 0x3d, 0x9b, 0xc0, 0x10, 0x3b,
  0xe0, 0x83, 0x27, 0x3d, 0x9b, 0xca, 0x3f, 0xbe, 0x9d, 0xef, 0x09, 0x3d,
  0xbc, 0xee, 0x7f, 0x3d, 0x18, 0xc5, 0x3f, 0xbc, 0x61, 0xb2, 0x1d, 0xbd,
  0x97, 0xa5, 0xb2, 0xbc, 0x2f, 0x41, 0xde, 0xbd, 0xcd, 0xd7, 0x64, 0x3e,
  0x24, 0x25, 0xe4, 0xbc, 0x0a, 0x6c, 0x20, 0x3d, 0x32, 0xb4, 0x12, 0x3e,
  0x8d, 0x11, 0x0a, 0xbe, 0x28, 0x80, 0x94, 0x3d, 0xcb, 0x87, 0xea, 0x3d,
  0x46, 0xa6, 0xf4, 0x3c, 0x14, 0x54, 0x93, 0x3c, 0x36, 0x1b, 0x49, 0xbc,
  0x27, 0xba, 0x23, 0xbe, 0xf0, 0xa7, 0x4e, 0xbd, 0xb0, 0x9c, 0xbf, 0xbb,
  0xe0, 0x67, 0x69, 0x3d, 0x7a, 0xe5, 0x46, 0xbe, 0xc0, 0x73, 0xf2, 0x3d,
  0x2b, 0xda, 0x9b, 0xbe, 0x59, 0x99, 0x19, 0xbd, 0xbf, 0x38, 0x0b, 0xbd,
  0x8a, 0xf0, 0x5b, 0xbd, 0xd2, 0xd2, 0xea, 0xbc, 0x10, 0xb0, 0xe5, 0xbc,
  0xa1, 0xd2, 0x46, 0xbd, 0xc6, 0x45, 0x57, 0xbd, 0xd8, 0x02, 0x31, 0x3c,
  0xa0, 0x34, 0xe6, 0x3c, 0xd0, 0x13, 0x81, 0x3b, 0x50, 0xbf, 0x84, 0x3d,
  0xc2, 0xc4, 0x4d, 0x3d, 0x74, 0x6d, 0xb4, 0xbc, 0x10, 0x09, 0x53, 0x3c,
  0xc2, 0x86, 0x10, 0x3d, 0x62, 0x48, 0x8d, 0x3d, 0x30, 0xd6, 0xb9, 0xbb,
  0x92, 0x4d, 0x0d, 0xbd, 0x78, 0xf7, 0xfb, 0x3c, 0x00, 0x85, 0x8a, 0x3d,
  0x94, 0x6d, 0x99, 0x3c, 0xf6, 0x56, 0x83, 0xbc, 0x88, 0x9b, 0x24, 0xbc,
  0xa6, 0x8f, 0x80, 0xbc, 0x00, 0xb7, 0x71, 0xbc, 0x54, 0xb4, 0x60, 0xbc,
  0xa0, 0x71, 0xab, 0xbb, 0x6d, 0x57, 0x93, 0xbd, 0x2d, 0xff, 0x05, 0xbd,
  0xd8, 0x81, 0xf4, 0x3c, 0x5c, 0x0a, 0x67, 0xbd, 0x5e, 0xbc, 0x21, 0x3d,
  0xac, 0xd0, 0x74, 0x3d, 0xc2, 0x98, 0x03, 0x3d, 0xe4, 0x0c, 0x66, 0xbc,
  0xc0, 0xfc, 0xf4, 0xbb, 0xbc, 0xaf, 0x4f, 0xbd, 0x5e, 0xf9, 0xc8, 0xbc,
  0x88, 0x5b, 0x02, 0xbd, 0x78, 0x68, 0xf6, 0x3c, 0x32, 0x51, 0x3b, 0xbd,
  0x24, 0x11, 0x1c, 0xbd, 0xb3, 0x9b, 0x83, 0xbd, 0xec, 0x0f, 0xcc, 0x3c,
  0xc4, 0x95, 0x29, 0xbd, 0x52, 0xe0, 0xbf, 0xbc, 0x28, 0x04, 0x0d, 0x3c,
  0x02, 0xd0, 0x8b, 0xbd, 0x0d, 0xa8, 0x58, 0xbd, 0x32, 0x98, 0xcf, 0xbc,
  0x64, 0x53, 0xb4, 0xbc, 0xea, 0xb1, 0x4d, 0xbd, 0x58, 0x70, 0xc5, 0x3c,
  0xc0, 0xf6, 0xff, 0xba, 0xe8, 0x3e, 0x25, 0xbc, 0x08, 0x7d, 0xa1, 0x3c,
  0x92, 0xe1, 0x86, 0xbd, 0x26, 0x5a, 0x54, 0xbd, 0xf6, 0x2e, 0x00, 0x3d,
  0x4c, 0x77, 0x9e, 0x3c, 0x94, 0xa4, 0x80, 0x3d, 0x00, 0x4c, 0x13, 0xba,
  0xe0, 0x32, 0x96, 0xbb, 0x49, 0xad, 0x97, 0xbd, 0x44, 0x8f, 0x48, 0x3d,
  0x1c, 0xa4, 0x7a, 0xbd, 0x0c, 0xf0, 0x74, 0xbc, 0x64, 0x2e, 0xd8, 0x3c,
  0x30, 0x56, 0xa0, 0xbb, 0x2a, 0xb5, 0x0d, 0x3d, 0x59, 0x7c, 0x8a, 0xbd,
  0xe4, 0xa2, 0xde, 0x3c, 0x58, 0x8c, 0x2c, 0x3c, 0x68, 0x9e, 0xfa, 0xbc,
  0xd4, 0x72, 0x84, 0x3c, 0x8a, 0x6a, 0x89, 0x3d, 0x08, 0x31, 0x39, 0x3d,
  0x20, 0xc4, 0x4d, 0x3d, 0x90, 0x52, 0x13, 0xbd, 0xda, 0x19, 0x31, 0x3d,
  0x64, 0xec, 0x7f, 0xbc, 0x3c, 0xa4, 0x1c, 0xbd, 0x00, 0x96, 0xe8, 0xb9,
  0xe6, 0xff, 0x35, 0x3d, 0xd4, 0xee, 0x37, 0xbd, 0xea, 0x50, 0x60, 0xbd,
  0xea, 0x60, 0x85, 0xbd, 0xbc, 0x71, 0x58, 0x3d, 0xe2, 0xc9, 0x61, 0xbd,
  0xe6, 0x92, 0x20, 0x3d, 0x30, 0x71, 0x62, 0x3d, 0xce, 0xfc, 0x33, 0xbd,
  0x04, 0xd7, 0xf6, 0x3c, 0x84, 0xb3, 0x26, 0xbd, 0x44, 0xfb, 0x80, 0x3d,
  0x98, 0x05, 0x71, 0x3d, 0xe4, 0x45, 0x84, 0x3d, 0xb8, 0xa9, 0x6c, 0x3d,
  0xf7, 0xcb, 0x8f, 0xbd, 0x0b, 0x93, 0xa2, 0xbe, 0xa4, 0xf7, 0x96, 0x3d,
  0xae, 0x71, 0x86, 0x3e, 0x9b, 0x37, 0x29, 0xbd, 0x50, 0x0f, 0x5c, 0x3d,
  0x0d, 0xe1, 0x08, 0xbb, 0xf3, 0x2e, 0x92, 0xbe, 0xdc, 0x7e, 0xc3, 0xbb,
  0x54, 0x3f, 0x76, 0x3d, 0x0e, 0x56, 0x2c, 0x3d, 0xfa, 0x45, 0x8d, 0x3e,
  0x0f, 0x74, 0xf5, 0xbc, 0x57, 0x3b, 0xd6, 0xbc, 0xb0, 0xdb, 0xe5, 0x3c,
  0x73, 0x82, 0x5a, 0xbd, 0xee, 0xfb, 0xf6, 0x3c, 0x08, 0x70, 0x4e, 0xbe,
  0x0e, 0x57, 0xb3, 0xbc, 0xbc, 0x01, 0x28, 0x3e, 0xdf, 0x3b, 0x60, 0x3e,
  0x5a, 0x18, 0x92, 0xbd, 0x38, 0xac, 0x5c, 0xbd, 0xcd, 0xe5, 0x0d, 0x3d,
  0x0a, 0xf0, 0x04, 0x3e, 0xd1, 0x29, 0x8c, 0xbd, 0x74, 0x9f, 0x35, 0x3d,
  0x9f, 0xf8, 0x77, 0x3e, 0x96, 0x27, 0x81, 0x3d, 0xca, 0xd6, 0x22, 0xbe,
  0x00, 0xfa, 0x77, 0xba, 0xb4, 0xed, 0x6d, 0x3d, 0x96, 0x97, 0xa8, 0x3d,
  0x1d, 0x02, 0x49, 0xbd, 0x2e, 0xcc, 0x73, 0xbd, 0x2a, 0x13, 0x5b, 0xbd,
  0x74, 0x78, 0x1d, 0xbd, 0xf8, 0x93, 0x05, 0x3c, 0x80, 0x21, 0x73, 0x3d,
  0x66, 0x04, 0x8f, 0x3d, 0x54, 0x2a, 0x94, 0xbc, 0xfc, 0x5a, 0x3f, 0xbd,
  0xec, 0x90, 0x22, 0x3d, 0x94, 0x7f, 0x8a, 0x3c, 0xe6, 0xa6, 0x84, 0xbd,
  0x68, 0xb7, 0x63, 0x3d, 0x14, 0x14, 0xc0, 0xbc, 0x23, 0x82, 0x3f, 0xbd,
  0x60, 0x2d, 0xde, 0x3c, 0x68, 0xb9, 0xee, 0x3c, 0x84, 0xba, 0x17, 0x3d,
  0x64, 0xe3, 0x61, 0xbd, 0xc4, 0x63, 0x1a, 0x3d, 0xaa, 0xfa, 0xaf, 0xbc,
  0xd0, 0x2a, 0x84, 0xbb, 0x2d, 0x49, 0x81, 0xbd, 0x24, 0xae, 0x86, 0x3d,
  0xfc, 0x2f, 0x7e, 0x3d, 0x7a, 0x21, 0x4c, 0x3d, 0x94, 0x3d, 0xc4, 0x3c,
  0x12, 0x03, 0x07, 0xbd, 0x96, 0xe3, 0x39, 0xbd, 0xa8, 0x72, 0x0f, 0x3d,
  0xd8, 0x59, 0x91, 0xbc, 0x92, 0x71, 0x27, 0xbd, 0x38, 0x21, 0xbb, 0xbc,
  0x40, 0x24, 0xbf, 0x3c, 0xde, 0xb5, 0x8e, 0xbd, 0x40, 0x8f, 0xa1, 0x3a,
  0x14, 0x8f, 0x15, 0xbd, 0xdc, 0x70, 0x89, 0xbd, 0x14, 0x6b, 0xbb, 0x3c,
  0xc4, 0xf2, 0x84, 0xbd, 0xf2, 0x82, 0x4d, 0x3d, 0x30, 0xb5, 0x51, 0xbc,
  0x98, 0x8b, 0x38, 0xbd, 0x62, 0xdb, 0xbf, 0xbc, 0x32, 0x7e, 0xfb, 0xbc,
  0x8c, 0x95, 0xb6, 0x3c, 0x50, 0xb3, 0x4b, 0xbd, 0x3e, 0xfb, 0x91, 0xbd,
  0x78, 0x52, 0x71, 0xbd, 0xf8, 0x3b, 0x8d, 0xbc, 0x34, 0x88, 0x31, 0x3d,
  0x80, 0x36, 0x2c, 0x3c, 0x40, 0x1d, 0xe6, 0x3b, 0x54, 0x36, 0x44, 0xbc,
  0xe4, 0x84, 0x93, 0xbd, 0xc0, 0xc4, 0x27, 0xbb, 0x60, 0x4a, 0x54, 0xbb,
  0xee, 0xce, 0x80, 0xbd, 0xd5, 0x9b, 0x3f, 0xbd, 0x15, 0xea, 0x8b, 0xbd,
  0xa4, 0xc6, 0xfb, 0x3c, 0x4c, 0x51, 0xdd, 0xbc, 0x88, 0xbb, 0x93, 0x3d,
  0x72, 0x2d, 0x44, 0xbd, 0x42, 0x42, 0x1a, 0x3d, 0x5b, 0x9c, 0x72, 0xbd,
  0x20, 0xf4, 0x30, 0xbb, 0xfe, 0xc8, 0x37, 0xbd, 0x00, 0x53, 0x06, 0xbb,
  0x95, 0x78, 0x62, 0xbd, 0x82, 0xf9, 0xa5, 0xbc, 0xb7, 0x6a, 0x95, 0xbd,
  0x4c, 0x2a, 0x58, 0x3d, 0x18, 0x58, 0x6e, 0x3c, 0x58, 0x71, 0x38, 0x3c,
  0x9c, 0x3e, 0x5b, 0xbd, 0xbe, 0x43, 0x84, 0xbd, 0x40, 0xf9, 0xcf, 0x3c,
  0x56, 0x55, 0xdf, 0xbc, 0x60, 0xdd, 0xc6, 0x3c, 0xce, 0x0f, 0x75, 0xbd,
  0xa8, 0x97, 0x92, 0xbd, 0xf4, 0xa6, 0x8a, 0xbd, 0x20, 0xb2, 0x84, 0xbb,
  0xc0, 0x8c, 0x93, 0xba, 0x70, 0x4b, 0x29, 0x3c, 0x80, 0x8f, 0x53, 0x3a,
  0x84, 0x44, 0xba, 0xbc, 0xc8, 0x77, 0x6a, 0x3d, 0x9e, 0x68, 0x3d, 0xbd,
  0x10, 0x83, 0x84, 0xbb, 0xe5, 0x65, 0x75, 0xbd, 0x00, 0x8d, 0xb0, 0xba,
  0x80, 0x7a, 0x77, 0x3d, 0xce, 0xab, 0x38, 0xbd, 0x3c, 0x32, 0x55, 0x3d,
  0x40, 0x2f, 0x14, 0xbe, 0xd1, 0xe5, 0x0f, 0xbd, 0x26, 0x69, 0xae, 0x3e,
  0x6b, 0xd3, 0x93, 0xbd, 0xec, 0x9e, 0x61, 0x3d, 0x12, 0xdd, 0xb0, 0x3e,
  0x9f, 0x88, 0x8d, 0xbe, 0x19, 0x1c, 0x62, 0xbd, 0x88, 0xb1, 0xa9, 0x3c,
  0x1c, 0x66, 0x14, 0x3d, 0x06, 0xf7, 0x87, 0xbd, 0xa1, 0xf4, 0xa0, 0xbd,
  0x39, 0xc6, 0x56, 0xbe, 0x20, 0x63, 0x65, 0x3c, 0x00, 0x67, 0xe1, 0x39,
  0x8d, 0x61, 0x3f, 0xbd, 0x2e, 0xad, 0xbc, 0x3d, 0x0a, 0x20, 0x1a, 0x3d,
  0xe9, 0xdb, 0x06, 0xbe, 0xb2, 0xe6, 0x53, 0x3d, 0xf8, 0x88, 0x70, 0x3d,
  0xf7, 0xdb, 0x09, 0xbf, 0x7f, 0x6a, 0xbe, 0x3d, 0xc6, 0x6c, 0x2f, 0xbf,
  0xb1, 0xea, 0x5b, 0xbd, 0xa0, 0x8d, 0x8c, 0xbd, 0x43, 0x09, 0x20, 0x3e,
  0x05, 0x71, 0x89, 0xbe, 0x3e, 0xed, 0x33, 0xbd, 0x30, 0xbc, 0xe6, 0x3c,
  0x36, 0xfb, 0x2d, 0x3d, 0x3b, 0x39, 0x84, 0x3e, 0x30, 0xd8, 0x5d, 0xbc,
  0xc7, 0xa5, 0x84, 0xbd, 0x0c, 0xe1, 0xd2, 0xbc, 0x60, 0x26, 0x2b, 0xbb,
  0xa7, 0x2c, 0x95, 0xbd, 0xa7, 0x33, 0x0d, 0xbd, 0x74, 0xd2, 0x0a, 0x3d,
  0x01, 0xd2, 0x10, 0xbd, 0x84, 0x72, 0x7b, 0xbd, 0x2e, 0x0d, 0x4d, 0xbd,
  0x49, 0x12, 0x6d, 0xbd, 0x2c, 0x06, 0xd2, 0x3c, 0xa0, 0xea, 0x35, 0x3b,
  0x58, 0x61, 0xd4, 0x3c, 0x7c, 0xa2, 0x50, 0xbc, 0x7c, 0x02, 0xa3, 0xbc,
  0xb4, 0x37, 0x71, 0x3d, 0x38, 0xd5, 0x5d, 0x3d, 0x10, 0x4c, 0x83, 0x3d,
  0xec, 0xfb, 0x96, 0x3d, 0xac, 0xb3, 0x3e, 0xbd, 0xfa, 0x4e, 0x87, 0x3d,
  0x4c, 0x05, 0x8c, 0xbc, 0x7f, 0xfc, 0x11, 0xbd, 0xc4, 0x64, 0x8a, 0xbc,
  0x7a, 0x0b, 0xdc, 0xbc, 0x56, 0x5a, 0x34, 0x3d, 0x8e, 0x91, 0x8b, 0xbd,
  0x4c, 0x9b, 0xec, 0x3c, 0x07, 0x78, 0x83, 0xbd, 0x26, 0x0f, 0x1e, 0xbd,
  0x34, 0x4e, 0x75, 0xbc, 0xe1, 0x93, 0x84, 0xbd, 0x4e, 0xcc, 0x85, 0xbd,
  0x27, 0x3d, 0x1e, 0xbd, 0x04, 0x33, 0xc8, 0x3c, 0xab, 0x8a, 0x8a, 0xbd,
  0xb0, 0x20, 0xea, 0xbb, 0xea, 0xfe, 0x39, 0x3d, 0xe9, 0x28, 0x1b, 0xbd,
  0xe0, 0x41, 0x2e, 0x3c, 0x3c, 0x0b, 0xc9, 0x3c, 0x74, 0x2c, 0x94, 0xbd,
  0x8c, 0xc8, 0x87, 0x3d, 0x94, 0x24, 0x12, 0x3d, 0xb4, 0xe6, 0x2b, 0xbd,
  0x4c, 0x27, 0xa4, 0x3c, 0x84, 0x62, 0x6c, 0x3d, 0x74, 0x7c, 0x9b, 0x3c,
  0xfc, 0xa0, 0xcc, 0x3c, 0xc0, 0xcb, 0xe0, 0x3b, 0x2c, 0xc4, 0x6f, 0xbd,
  0xb4, 0x7b, 0x5c, 0xbd, 0xb9, 0x3d, 0x79, 0xbd, 0x54, 0xe5, 0xb2, 0x3c,
  0x9a, 0x86, 0x82, 0xbd, 0x66, 0x3e, 0xcc, 0xbc, 0xc0, 0x32, 0x3b, 0xbc,
  0x99, 0x86, 0x7d, 0xbd, 0xfa, 0x3b, 0x7f, 0xbd, 0xbe, 0x28, 0x0b, 0x3d,
  0xe4, 0x37, 0x63, 0x3d, 0x7f, 0xf2, 0x8f, 0xbd, 0x56, 0x79, 0xaf, 0xbc,
  0xf8, 0xb9, 0x06, 0xbc, 0x48, 0x3f, 0x8a, 0x3d, 0x23, 0x56, 0x2a, 0xbd,
  0xee, 0x92, 0x2c, 0x3d, 0x00, 0x0b, 0xc5, 0xb9, 0x70, 0x33, 0x12, 0x3c,
  0xc0, 0x36, 0x62, 0xbd, 0xf4, 0x30, 0xd8, 0xbc, 0x60, 0x1f, 0xad, 0x3c,
  0x58, 0x57, 0x83, 0xbd, 0x30, 0x0a, 0xa6, 0x3c, 0xf0, 0x26, 0xd0, 0xbb,
  0x30, 0xdc, 0xb2, 0xbb, 0x6e, 0x88, 0x8a, 0x3d, 0x3a, 0x00, 0x87, 0x3d,
  0xae, 0x2e, 0x3c, 0xbd, 0xd8, 0x09, 0x22, 0xbd, 0xfa, 0x8a, 0x49, 0x3d,
  0x9e, 0xe2, 0x64, 0xbd, 0x98, 0xb5, 0x71, 0xbc, 0xce, 0x4e, 0x25, 0x3d,
  0x06, 0x2d, 0x88, 0xbd, 0xf8, 0x9a, 0x88, 0xbd, 0x22, 0x53, 0x82, 0x3d,
  0x60, 0xad, 0xea, 0x3b, 0xd8, 0x4a, 0xf6, 0x3c, 0x84, 0xf0, 0x82, 0x3c,
  0x9c, 0x01, 0x3e, 0x3d, 0xc4, 0xfc, 0x5f, 0x3d, 0x18, 0xc6, 0x48, 0xbd,
  0x9c, 0xa2, 0x9a, 0xbc, 0x2c, 0x52, 0xf7, 0x3c, 0x31, 0xcc, 0xec, 0x3d,
  0x80, 0x05, 0x9d, 0xbb, 0xe5, 0xaf, 0x0c, 0x3e, 0xe9, 0x1e, 0x7f, 0xbd,
  0x12, 0x65, 0x99, 0xbc, 0x4a, 0xbf, 0x1a, 0x3d, 0x38, 0x3d, 0xd2, 0xbe,
  0xda, 0x48, 0x78, 0xbe, 0xd2, 0x2f, 0x05, 0x3d, 0x90, 0x22, 0xef, 0xbc,
  0x33, 0x75, 0x55, 0xbe, 0xa0, 0x6a, 0x31, 0xbe, 0xd8, 0x69, 0x8e, 0xbe,
  0x70, 0xc9, 0xdf, 0xbb, 0x16, 0x70, 0x82, 0xbd, 0x6f, 0xbf, 0x57, 0xbd,
  0x8a, 0x0a, 0x4a, 0x3e, 0x90, 0x05, 0xc3, 0x3b, 0xc5, 0x33, 0x15, 0xbe,
  0x86, 0x8e, 0x16, 0x3e, 0xf0, 0xe6, 0x12, 0xbd, 0x93, 0x9d, 0xd5, 0xbd,
  0x0c, 0xda, 0x1a, 0x3e, 0x0f, 0xf3, 0x68, 0x3e, 0x50, 0xf6, 0x73, 0x3c,
  0xf6, 0x18, 0x74, 0xbd, 0xbe, 0xa3, 0x0c, 0x3e, 0xc4, 0xeb, 0x12, 0xbf,
  0xf0, 0x15, 0x1c, 0x3e, 0x48, 0x7f, 0x64, 0x3d, 0xe8, 0x8a, 0x05, 0x3c,
  0x2d, 0xb5, 0xa8, 0x3e, 0x28, 0x58, 0x56, 0xbd, 0xe8, 0x9b, 0xe3, 0xbc,
  0x9c, 0xe0, 0x36, 0xbd, 0x7e, 0xdb, 0x39, 0x3d, 0x10, 0xed, 0x7e, 0x3d,
  0xe6, 0x9b, 0xc2, 0xbc, 0xdd, 0xa7, 0x1a, 0xbd, 0x74, 0xcf, 0x2d, 0x3d,
  0xec, 0xe4, 0x2a, 0xbd, 0x82, 0x86, 0xb3, 0xbc, 0x28, 0x7c, 0xaa, 0xbc,
  0xe4, 0x9f, 0xfc, 0x3c, 0x5c, 0x12, 0x7b, 0x3d, 0xae, 0x64, 0x1e, 0x3d,
  0xcc, 0xe1, 0xda, 0x3c, 0xcd, 0xd2, 0x16, 0xbd, 0xb0, 0xe3, 0x89, 0xbb,
  0xba, 0x4a, 0xec, 0xbc, 0x64, 0x1d, 0xac, 0xbc, 0x8e, 0x92, 0xed, 0xbc,
  0x60, 0x6b, 0x11, 0x3c, 0x50, 0x94, 0x60, 0x3c, 0xf8, 0xb6, 0x6b, 0xbd,
  0x85, 0x04, 0x89, 0xbd, 0x20, 0xcc, 0x7d, 0xbd, 0x8e, 0x48, 0x47, 0x3d,
  0x6a, 0x9c, 0x38, 0x3d, 0x20, 0xd6, 0xaf, 0x3c, 0x28, 0x23, 0x2a, 0x3c,
  0xf0, 0xf1, 0xb3, 0x3b, 0x60, 0x17, 0xda, 0xbb, 0xb8, 0x0f, 0x23, 0x3c,
  0xa0, 0x8f, 0xf7, 0xbc, 0x4b, 0x88, 0x41, 0xbd, 0x60, 0x5a, 0xe5, 0x3b,
  0x00, 0x69, 0x80, 0x3c, 0x70, 0x9c, 0x69, 0x3c, 0x96, 0x3f, 0xf3, 0xbc,
  0x74, 0x2c, 0xce, 0x3c, 0x3c, 0x9b, 0x7b, 0xbc, 0xd8, 0xb0, 0x1c, 0xbc,
  0xd8, 0x77, 0x93, 0x3c, 0xf0, 0x74, 0xb2, 0x3b, 0x91, 0xfd, 0x1d, 0xbd,
  0xcc, 0x88, 0x8f, 0x3d, 0x15, 0x33, 0x2b, 0xbd, 0x78, 0xa8, 0xe1, 0xbc,
  0x7c, 0x48, 0x41, 0x3d, 0xfa, 0x4f, 0x1f, 0x3d, 0xe0, 0x7b, 0xe7, 0x3b,
  0x50, 0x60, 0x68, 0xbd, 0x7c, 0x8c, 0x85, 0x3d, 0x65, 0x33, 0x2c, 0xbd,
  0xc8, 0xfc, 0x14, 0xbc, 0x68, 0xfb, 0x8b, 0x3d, 0xce, 0x31, 0x1b, 0x3d,
  0x6e, 0xf5, 0x44, 0xbd, 0x04, 0xa0, 0x9d, 0x3c, 0x7c, 0x2a, 0xbf, 0x3c,
  0xf0, 0xab, 0xa1, 0xbb, 0xc8, 0xf5, 0x0f, 0xbd, 0xec, 0x0d, 0x6c, 0x3d,
  0x3c, 0x1f, 0x3b, 0xbd, 0xa7, 0x21, 0x4f, 0xbd, 0x28, 0x2f, 0x57, 0x3c,
  0xda, 0xed, 0x74, 0xbd, 0xdc, 0xd0, 0x84, 0xbd, 0x80, 0xd6, 0xce, 0x3a,
  0x00, 0x59, 0x0d, 0x3b, 0x4d, 0xbc, 0x64, 0xbd, 0xe9, 0xeb, 0x4d, 0xbd,
  0x8a, 0x27, 0xaa, 0xbc, 0x10, 0xf7, 0x11, 0x3c, 0xba, 0x6f, 0x4e, 0x3d,
  0x9a, 0x59, 0x4c, 0xbd, 0xc0, 0x36, 0xf9, 0xbb, 0xd4, 0xc1, 0xc4, 0x3c,
  0x40, 0xc7, 0x90, 0xbb, 0x10, 0xb1, 0x9d, 0xbb, 0xfa, 0xd2, 0xe1, 0xbc,
  0x6c, 0xbb, 0xcc, 0x3c, 0x6c, 0x52, 0xd9, 0xbc, 0x10, 0x91, 0x80, 0xbc,
  0xb8, 0x4b, 0xa6, 0x3c, 0x40, 0x0d, 0x2f, 0xbd, 0xc0, 0x39, 0x70, 0x3d,
  0x18, 0xcd, 0x2f, 0x3c, 0x04, 0xf9, 0x8b, 0x3c, 0x03, 0xf0, 0x77, 0xbd,
  0xb8, 0xd8, 0x8c, 0xbc, 0xec, 0x99, 0xa2, 0x3c, 0x62, 0xca, 0x47, 0xbd,
  0x54, 0x6d, 0xbd, 0x3c, 0x30, 0x91, 0x70, 0x3d, 0x96, 0xf1, 0x90, 0x3d,
  0x40, 0x09, 0x31, 0x3b, 0xdf, 0xc5, 0x99, 0x3e, 0x2a, 0xd8, 0x8f, 0x3d,
  0xc7, 0x57, 0xa8, 0x3a, 0x3e, 0xc9, 0x9a, 0xbd, 0xd0, 0xcb, 0x42, 0xbd,
  0x56, 0x8e, 0x7d, 0x3d, 0x39, 0x71, 0xf1, 0xbe, 0xd5, 0x83, 0x80, 0xbd,
  0xb8, 0x69, 0x41, 0x3c, 0x34, 0xb2, 0x60, 0x3d, 0xf7, 0xb6, 0x26, 0xbe,
  0x17, 0xaa, 0x2d, 0xbe, 0x66, 0x43, 0xe9, 0xbe, 0x1a, 0x95, 0x94, 0x3d,
  0xd8, 0xcf, 0x52, 0x3d, 0xcf, 0xed, 0xb7, 0xbd, 0x60, 0x33, 0xec, 0x3d,
  0x16, 0x6a, 0x83, 0xbd, 0x94, 0xaf, 0xb6, 0xbc, 0xa5, 0x23, 0xa6, 0x3e,
  0xb8, 0xa9, 0x31, 0x3c, 0xfd, 0xea, 0x2f, 0xbd, 0x72, 0x01, 0x14, 0x3e,
  0x4c, 0x29, 0x88, 0xbf, 0x10, 0x8e, 0xe3, 0xbc, 0x96, 0xbc, 0xc3, 0xbc,
  0xf5, 0x79, 0x1d, 0x3e, 0x86, 0x56, 0x4d, 0xbd, 0x2a, 0x68, 0x8a, 0x3e,
  0x8c, 0xfa, 0x0c, 0xbd, 0x6e, 0xbc, 0x96, 0xbd, 0x51, 0x9e, 0x15, 0x3e,
  0x18, 0x7b, 0x5f, 0x3c, 0x98, 0x07, 0xce, 0x3c, 0x98, 0x17, 0x4d, 0x3d,
  0x68, 0x84, 0xbe, 0xbc, 0x50, 0xbc, 0x46, 0xbd, 0x52, 0x8b, 0x7b, 0xbd,
  0xe4, 0x55, 0x60, 0xbd, 0x98, 0xc8, 0x5a, 0xbc, 0xfa, 0xed, 0x3c, 0xbd,
  0x80, 0xb8, 0x5f, 0x3d, 0xe0, 0xac, 0x76, 0x3c, 0x77, 0x67, 0x72, 0xbd,
  0xc0, 0x9a, 0x9c, 0x3b, 0xfc, 0xdd, 0x33, 0x3d, 0x56, 0xde, 0x81, 0x3d,
  0xce, 0x6b, 0x92, 0x3d, 0x65, 0xe0, 0x1f, 0xbd, 0x8e, 0xcb, 0x37, 0xbd,
  0x0a, 0x30, 0x93, 0x3d, 0xa4, 0x47, 0x7d, 0xbd, 0x78, 0x85, 0x8c, 0x3c,
  0x70, 0xbe, 0x20, 0xbc, 0x00, 0x02, 0x57, 0x39, 0xc8, 0x14, 0x12, 0x3d,
  0x98, 0xd7, 0x93, 0x3c, 0xbe, 0xcd, 0x19, 0x3d, 0xfa, 0xf5, 0x17, 0xbd,
  0x71, 0xb6, 0x03, 0xbd, 0x6d, 0x68, 0x78, 0xbd, 0xd0, 0x5f, 0x59, 0xbd,
  0x4e, 0xe1, 0x88, 0x3d, 0xba, 0xcc, 0x30, 0x3d, 0x40, 0x36, 0x8c, 0xba,
  0xee, 0x75, 0x96, 0x3d, 0x53, 0xc0, 0x11, 0xbd, 0x78, 0x69, 0xb3, 0x3c,
  0x54, 0xcb, 0xe1, 0x3c, 0xf0, 0xea, 0xfd, 0x3c, 0x5c, 0x6e, 0xad, 0x3c,
  0xb0, 0xe1, 0xa8, 0x3c, 0x28, 0x5c, 0x0e, 0xbd, 0x64, 0xc0, 0x91, 0x3d,
  0x60, 0x5e, 0x1e, 0x3b, 0x8c, 0xb2, 0x42, 0xbd, 0x80, 0xd7, 0x5c, 0xbb,
  0x52, 0x7e, 0x28, 0x3d, 0xa0, 0x7a, 0xb1, 0x3c, 0x98, 0x6b, 0x64, 0x3d,
  0x00, 0x02, 0x0e, 0x3c, 0xc6, 0x7c, 0x5e, 0xbd, 0xb2, 0xb4, 0x33, 0x3d,
  0x98, 0x77, 0x82, 0xbd, 0x88, 0x83, 0x24, 0x3c, 0xf0, 0xf2, 0x81, 0xbd,
  0x7e, 0x07, 0x45, 0x3d, 0x92, 0x77, 0x5a, 0xbd, 0x3c, 0x9a, 0xaa, 0x3c,
  0x68, 0xa4, 0x2a, 0xbd, 0x78, 0x93, 0x70, 0x3d, 0x24, 0x91, 0x33, 0x3d,
  0xac, 0x7b, 0xd6, 0x3c, 0xe0, 0xc9, 0x98, 0xbb, 0xfc, 0x85, 0xda, 0x3c,
  0x60, 0xe1, 0xe2, 0x3b, 0x15, 0xe8, 0x19, 0xbd, 0xf8, 0x0d, 0x7a, 0x3d,
  0x68, 0x05, 0x22, 0xbd, 0x4c, 0xed, 0x72, 0x3d, 0x80, 0x00, 0xa1, 0x3b,
  0x48, 0x10, 0x52, 0x3d, 0xd8, 0x5c, 0x6f, 0x3d, 0xd0, 0xe9, 0xd9, 0xbb,
  0x80, 0xdc, 0xa1, 0xbb, 0x68, 0x4a, 0x68, 0x3d, 0xac, 0x5d, 0x30, 0xbd,
  0x1e, 0x19, 0x3d, 0x3d, 0xa0, 0x4c, 0x0c, 0xbd, 0x70, 0xcb, 0xcf, 0x3b,
  0xe8, 0x2f, 0x45, 0x3d, 0xa6, 0xbd, 0x02, 0x3d, 0x02, 0x03, 0x99, 0xbc,
  0x01, 0xba, 0x0e, 0xbd, 0x46, 0x2a, 0x19, 0xbd, 0x40, 0x8e, 0xd4, 0x3a,
  0xb9, 0x9e, 0x3b, 0xbd, 0x50, 0xd6, 0x2f, 0x3d, 0x79, 0xfd, 0x86, 0xbd,
  0x26, 0x64, 0x93, 0x3d, 0xea, 0xa9, 0xd7, 0xbc, 0x30, 0xdc, 0x37, 0xbd,
  0xb0, 0x74, 0x93, 0x3b, 0xc8, 0x3c, 0x76, 0x3d, 0xf4, 0x76, 0x46, 0x3d,
  0x4f, 0x7e, 0x89, 0xbd, 0x18, 0xe1, 0x09, 0x3c, 0x24, 0xb4, 0x4e, 0xbc,
  0x97, 0xd1, 0x2d, 0x3e, 0xc0, 0xb6, 0xaf, 0x3c, 0x2d, 0x95, 0x3f, 0x3c,
  0x85, 0x88, 0x1e, 0xbe, 0x60, 0xd6, 0x48, 0x3d, 0x93, 0xdf, 0x46, 0xbc,
  0x80, 0xff, 0x84, 0xbd, 0xfe, 0x60, 0x34, 0xbd, 0xf0, 0xfc, 0xdf, 0x3c,
  0x76, 0x56, 0x92, 0x3d, 0x0b, 0x98, 0x21, 0xbe, 0x38, 0xdb, 0x3a, 0xbe,
  0x96, 0xf9, 0x44, 0xbe, 0xf4, 0x08, 0x76, 0x3d, 0xc0, 0x75, 0x88, 0x3b,
  0x2f, 0x5c, 0xad, 0xbd, 0x5e, 0xa3, 0x54, 0x3d, 0xd4, 0x0b, 0x3d, 0xbd,
  0xa4, 0x5d, 0x6d, 0x3c, 0x1b, 0xf2, 0x24, 0x3e, 0x80, 0x4d, 0x8e, 0xbd,
  0x1a, 0x60, 0xa6, 0x3c, 0x2e, 0x1d, 0x0b, 0x3e, 0x0a, 0x54, 0xee, 0xbd,
  0x3c, 0xcb, 0x81, 0x3d, 0x82, 0x62, 0x33, 0xbd, 0x57, 0xf4, 0xc8, 0x3d,
  0xe2, 0x31, 0xfa, 0xbc, 0x18, 0x97, 0x40, 0x3e, 0x04, 0x16, 0xe3, 0xbc,
  0x22, 0xc4, 0x41, 0x3d, 0x5e, 0xc6, 0x12, 0x3e, 0x3a, 0xff, 0x93, 0xbd,
  0x9a, 0xd7, 0x41, 0x3d, 0xb0, 0x34, 0xcf, 0xbb, 0x60, 0xa0, 0x58, 0x3c,
  0xc0, 0x2e, 0x5c, 0x3c, 0xf8, 0xd9, 0x09, 0x3c, 0xe4, 0x16, 0x5f, 0x3d,
  0x00, 0xfa, 0x18, 0xbd, 0x3b, 0xab, 0x83, 0xbd, 0x96, 0xa3, 0x7b, 0xbd,
  0x3c, 0x02, 0xe1, 0xbc, 0xea, 0xa1, 0x92, 0x3d, 0x4c, 0xbc, 0x91, 0xbd,
  0x77, 0xf4, 0x68, 0xbd, 0xc8, 0x65, 0x70, 0xbc, 0x50, 0xe9, 0x62, 0xbc,
  0xaa, 0x47, 0x02, 0x3d, 0xc0, 0x9c, 0x5b, 0xbc, 0x18, 0x8f, 0xf9, 0x3c,
  0x48, 0x04, 0x22, 0x3c, 0xca, 0x95, 0xeb, 0xbc, 0x78, 0x43, 0x3c, 0xbd,
  0x72, 0x43, 0x86, 0x3d, 0x54, 0x30, 0x89, 0x3d, 0x08, 0x01, 0x7c, 0x3c,
  0x44, 0xf1, 0x81, 0xbd, 0x6e, 0x53, 0xaa, 0xbc, 0x68, 0x44, 0x3f, 0xbc,
  0x74, 0x73, 0x15, 0x3d, 0xdc, 0xb5, 0xb4, 0x3c, 0x2a, 0xc0, 0xdf, 0xbc,
  0x44, 0xc2, 0x53, 0x3d, 0x98, 0x90, 0xbc, 0xbc, 0x98, 0x00, 0x74, 0x3d,
  0x40, 0xd9, 0xa6, 0x3a, 0x08, 0xf5, 0x3b, 0xbd, 0x80, 0xf0, 0xac, 0xbb,
  0x8c, 0x9a, 0x16, 0x3d, 0x42, 0x82, 0xa8, 0xbc, 0xb8, 0x42, 0x6b, 0x3d,
  0xa8, 0xa0, 0x23, 0xbc, 0xb0, 0x4d, 0x60, 0x3d, 0xd6, 0x83, 0x46, 0x3d,
  0xf8, 0x7a, 0x30, 0x3d, 0x90, 0xe4, 0x9c, 0xbb, 0xe4, 0x05, 0x08, 0x3d,
  0x4c, 0x96, 0x44, 0x3d, 0x02, 0xdc, 0x87, 0x3d, 0x6e, 0xb9, 0xff, 0xff,
  0x10, 0x00, 0x00, 0x00, 0x0d, 0x00, 0x00, 0x00, 0x1c, 0x00, 0x00, 0x00,
  0x44, 0x00, 0x00, 0x00, 0x04, 0x00, 0x00, 0x00, 0x01, 0x00, 0x00, 0x00,
  0x08, 0x00, 0x00, 0x00, 0x08, 0x00, 0x00, 0x00, 0x10, 0x00, 0x00, 0x00,
  0x27, 0x00, 0x00, 0x00, 0x73, 0x65, 0x71, 0x75, 0x65, 0x6e, 0x74, 0x69,
  0x61, 0x6c, 0x2f, 0x64, 0x65, 0x70, 0x74, 0x68, 0x77, 0x69, 0x73, 0x65,
  0x5f, 0x63, 0x6f, 0x6e, 0x76, 0x32, 0x64, 0x5f, 0x31, 0x2f, 0x64, 0x65,
  0x70, 0x74, 0x68, 0x77, 0x69, 0x73, 0x65, 0x00, 0xe8, 0xb8, 0xff, 0xff,
  0x1a, 0xba, 0xff, 0xff, 0x04, 0x00, 0x00, 0x00, 0x40, 0x00, 0x00, 0x00,
  0x43, 0xd4, 0x32, 0x3e, 0xc9, 0xb3, 0x0e, 0xbf, 0x83, 0x8d, 0x90, 0x3d,
  0xe1, 0x18, 0x7a, 0x3d, 0xe0, 0xc5, 0xde, 0xbc, 0xcc, 0xa2, 0x73, 0x3e,
  0xc5, 0x3d, 0x0f, 0x3e, 0x62, 0xb8, 0x3c, 0x3e, 0x4e, 0x88, 0xfd, 0xbe,
  0x2e, 0xa0, 0x0c, 0xbf, 0x42, 0x72, 0xcd, 0x3d, 0x17, 0xb9, 0x52, 0x3e,
  0xa6, 0xbf, 0x11, 0x3e, 0xcc, 0xc8, 0x0f, 0xbe, 0x09, 0x0d, 0xbd, 0xbe,
  0x24, 0xfc, 0xd5, 0x3d, 0x12, 0xba, 0xff, 0xff, 0x10, 0x00, 0x00, 0x00,
  0x0c, 0x00, 0x00, 0x00, 0x1c, 0x00, 0x00, 0x00, 0x38, 0x00, 0x00, 0x00,
  0x04, 0x00, 0x00, 0x00, 0x10, 0x00, 0x00, 0x00, 0x01, 0x00, 0x00, 0x00,
  0x01, 0x00, 0x00, 0x00, 0x01, 0x00, 0x00, 0x00, 0x18, 0x00, 0x00, 0x00,
  0x73, 0x65, 0x71, 0x75, 0x65, 0x6e, 0x74, 0x69, 0x61, 0x6c, 0x2f, 0x63,
  0x6f, 0x6e, 0x76, 0x32, 0x64, 0x2f, 0x43, 0x6f, 0x6e, 0x76, 0x32, 0x44,
  0x00, 0x00, 0x00, 0x00, 0x80, 0xb9, 0xff, 0xff, 0xb2, 0xba, 0xff, 0xff,
  0x04, 0x00, 0x00, 0x00, 0x24, 0x00, 0x00, 0x00, 0x19, 0x04, 0x2c, 0xbe,
  0x70, 0x1e, 0x0f, 0xbf, 0x7e, 0x44, 0x06, 0x3e, 0x94, 0xeb, 0xf9, 0x3d,
  0xc0, 0x39, 0x67, 0xbe, 0x99, 0xc7, 0x97, 0x3d, 0xa4, 0xcf, 0x4a, 0x3e,
  0x53, 0xa6, 0x2e, 0x3f, 0x58, 0xe2, 0xd4, 0xbd, 0x8e, 0xba, 0xff, 0xff,
  0x10, 0x00, 0x00, 0x00, 0x0b, 0x00, 0x00, 0x00, 0x1c, 0x00, 0x00, 0x00,
  0x44, 0x00, 0x00, 0x00, 0x04, 0x00, 0x00, 0x00, 0x01, 0x00, 0x00, 0x00,
  0x03, 0x00, 0x00, 0x00, 0x03, 0x00, 0x00, 0x00, 0x01, 0x00, 0x00, 0x00,
  0x25, 0x00, 0x00, 0x00, 0x73, 0x65, 0x71, 0x75, 0x65, 0x6e, 0x74, 0x69,
  0x61, 0x6c, 0x2f, 0x64, 0x65, 0x70, 0x74, 0x68, 0x77, 0x69, 0x73, 0x65,
  0x5f, 0x63, 0x6f, 0x6e, 0x76, 0x32, 0x64, 0x2f, 0x64, 0x65, 0x70, 0x74,
  0x68, 0x77, 0x69, 0x73, 0x65, 0x00, 0x00, 0x00, 0x08, 0xba, 0xff, 0xff,
  0x3a, 0xbb, 0xff, 0xff, 0x04, 0x00, 0x00, 0x00, 0x00, 0x01, 0x00, 0x00,
  0x87, 0x60, 0x01, 0x3f, 0x21, 0x68, 0xb2, 0xbe, 0x08, 0x19, 0x2c, 0xbf,
  0x96, 0x0d, 0x93, 0xbc, 0x34, 0x2d, 0xd6, 0xbe, 0xb9, 0x73, 0xee, 0x3e,
  0x8f, 0x92, 0xc7, 0x3e, 0x44, 0xb1, 0x83, 0xbf, 0x0b, 0x12, 0x42, 0xbf,
  0x23, 0xc4, 0xaf, 0x3e, 0x9c, 0x76, 0xf6, 0x3d, 0x86, 0xd2, 0xc9, 0x3e,
  0xa6, 0xd3, 0xb8, 0x3e, 0x9b, 0x04, 0xa3, 0xbc, 0x1f, 0x46, 0x8d, 0xbe,
  0xc5, 0x29, 0x1e, 0xbe, 0xc8, 0x0c, 0xd6, 0x3e, 0x7d, 0x51, 0x51, 0x3e,
  0x81, 0xdb, 0xac, 0xbe, 0xea, 0x34, 0x19, 0xbf, 0xfe, 0x58, 0x80, 0xbe,
  0x27, 0xed, 0x68, 0xbc, 0xbc, 0xd3, 0x9f, 0x3e, 0x22, 0xad, 0xf0, 0xbe,
  0x04, 0xfa, 0x1c, 0xbe, 0xcd, 0xb5, 0x24, 0xbe, 0x27, 0xac, 0xd5, 0x3d,
  0xa2, 0x4f, 0x91, 0x3e, 0x68, 0x08, 0x1b, 0x3e, 0xc4, 0xd0, 0x91, 0xbf,
  0xca, 0x47, 0x55, 0x3e, 0xcf, 0x72, 0xbe, 0xbe, 0xfa, 0xd4, 0xf2, 0x3e,
  0x29, 0x55, 0x8e, 0xbf, 0xc3, 0xdb, 0x15, 0x3e, 0xa0, 0xb8, 0x20, 0xbd,
  0xd8, 0xc0, 0xe2, 0xbe, 0x15, 0x9e, 0x95, 0xbd, 0x1b, 0xaf, 0xcc, 0x3e,
  0xb3, 0xe1, 0x01, 0xbe, 0x0d, 0xe4, 0xfd, 0x3c, 0x87, 0x54, 0x84, 0xbe,
  0x1c, 0xc2, 0x65, 0xbf, 0x34, 0xf8, 0xa7, 0x3e, 0x44, 0x06, 0xaa, 0x3e,
  0x72, 0x3a, 0x8b, 0xbe, 0x16, 0x04, 0x42, 0xbf, 0xac, 0x13, 0x02, 0x3b,
  0xff, 0xe1, 0xcd, 0xbe, 0xd5, 0xdf, 0xfd, 0x3d, 0xa7, 0xb3, 0x98, 0x3e,
  0xa3, 0x65, 0x01, 0x3f, 0x70, 0x88, 0x0d, 0xba, 0x23, 0x00, 0xe0, 0x3e,
  0xca, 0x02, 0x12, 0xbf, 0x95, 0xd9, 0xaf, 0x3e, 0x57, 0xb6, 0x52, 0xbe,
  0x52, 0x7b, 0xb3, 0x3e, 0x9f, 0xfe, 0x72, 0xbd, 0x24, 0xc8, 0x10, 0xbf,
  0x06, 0x1d, 0x93, 0xbe, 0x0f, 0x3f, 0xc6, 0x3e, 0x20, 0xc7, 0x9c, 0x3e,
  0xdf, 0x69, 0xcf, 0x3e, 0xf2, 0xbb, 0xff, 0xff, 0x10, 0x00, 0x00, 0x00,
  0x0a, 0x00, 0x00, 0x00, 0x14, 0x00, 0x00, 0x00, 0x30, 0x00, 0x00, 0x00,
  0x02, 0x00, 0x00, 0x00, 0x04, 0x00, 0x00, 0x00, 0x10, 0x00, 0x00, 0x00,
  0x19, 0x00, 0x00, 0x00, 0x73, 0x65, 0x71, 0x75, 0x65, 0x6e, 0x74, 0x69,
  0x61, 0x6c, 0x2f, 0x64, 0x65, 0x6e, 0x73, 0x65, 0x5f, 0x31, 0x2f, 0x4d,
  0x61, 0x74, 0x4d, 0x75, 0x6c, 0x00, 0x00, 0x00, 0x58, 0xbb, 0xff, 0xff,
  0x8a, 0xbc, 0xff, 0xff, 0x04, 0x00, 0x00, 0x00, 0x00, 0x40, 0x00, 0x00,
  0x14, 0xb9, 0x9a, 0xbe, 0x75, 0xef, 0x0c, 0x3f, 0x1b, 0x4b, 0x2f, 0xbe,
  0xe0, 0x1e, 0xa4, 0xbd, 0xdf, 0xa2, 0x5b, 0x3e, 0xee, 0x81, 0x37, 0xbe,
  0xad, 0xc6, 0x3d, 0xbe, 0xa9, 0x67, 0x6a, 0x3e, 0xda, 0x7d, 0x37, 0xbd,
  0xe6, 0x3a, 0x9b, 0x3b, 0xe8, 0x40, 0x19, 0xbd, 0xfc, 0xb0, 0x1f, 0x3e,
  0xce, 0x31, 0x51, 0x3e, 0x79, 0x4e, 0x4e, 0xbe, 0xda, 0xb0, 0xa1, 0x3e,
  0x39, 0x43, 0x7a, 0xbd, 0xc4, 0x69, 0xe6, 0xbe, 0xa9, 0xde, 0x22, 0xbd,
  0x18, 0x01, 0x7c, 0x3d, 0x41, 0x1b, 0x93, 0x3e, 0x03, 0xcf, 0x2e, 0x3e,
  0xae, 0xdb, 0x6f, 0xbe, 0xb5, 0xd8, 0xcb, 0x3d, 0x8d, 0x56, 0xd8, 0xbc,
  0x5b, 0xdc, 0xa7, 0xbf, 0x0a, 0x04, 0x70, 0xbd, 0x65, 0x1f, 0x2a, 0x3e,
  0x5e, 0x58, 0x95, 0x3e, 0x7c, 0x0f, 0x5a, 0x3e, 0x2a, 0x22, 0xd8, 0xbc,
  0x59, 0x4d, 0xe6, 0x3e, 0x2f, 0x91, 0xb1, 0xbe, 0x9c, 0x7b, 0xbf, 0xbf,
  0xee, 0x34, 0x65, 0xbe, 0x32, 0x41, 0x76, 0x3d, 0x9d, 0x37, 0x65, 0x3e,
  0x0a, 0x4f, 0x42, 0x3e, 0x73, 0x56, 0x37, 0xbe, 0xe9, 0x37, 0xb1, 0x3d,
  0x8b, 0xe7, 0x8b, 0xbd, 0x74, 0x4e, 0x6d, 0xbf, 0x83, 0x31, 0x21, 0xbe,
  0xe0, 0xfb, 0x3d, 0x3c, 0xeb, 0x9b, 0xf5, 0x3d, 0xda, 0x33, 0x83, 0x3d,
  0x75, 0x43, 0x4d, 0xbd, 0x22, 0xac, 0xa3, 0x3d, 0x9d, 0x6d, 0x54, 0xbc,
  0x95, 0x24, 0xfc, 0xbe, 0xce, 0x59, 0x54, 0xbe, 0x07, 0x34, 0xcb, 0x3c,
  0xa8, 0x6f, 0x6c, 0x3e, 0x30, 0x2c, 0x24, 0x3e, 0x12, 0x17, 0x65, 0xbe,
  0xde, 0x52, 0x89, 0x3e, 0x64, 0xd9, 0xcd, 0xbd, 0x4b, 0x88, 0x41, 0xbf,
  0xd7, 0xf1, 0x54, 0xbe, 0xd9, 0x33, 0x1b, 0xbc, 0xb8, 0xa0, 0xad, 0x3e,
  0xab, 0x0f, 0x4c, 0x3e, 0x2a, 0xb0, 0xb8, 0xbd, 0x05, 0x8a, 0x4f, 0x3e,
  0x55, 0x85, 0x94, 0xbe, 0x18, 0x76, 0x99, 0xbe, 0x60, 0x79, 0xca, 0xbe,
  0xa2, 0x0e, 0x45, 0xbe, 0xda, 0xe5, 0x52, 0x3e, 0xe0, 0x47, 0xf6, 0x3d,
  0x60, 0xa7, 0xa9, 0xbe, 0x46, 0x4e, 0x95, 0xbe, 0x92, 0x95, 0x83, 0xbe,
  0x31, 0x20, 0xd4, 0xbe, 0x93, 0x8e, 0x8a, 0xbe, 0x2f, 0xcc, 0xe0, 0xbd,
  0x2f, 0xba, 0x60, 0x3e, 0x26, 0xb5, 0x5b, 0xbe, 0x31, 0x9e, 0xb5, 0xbd,
  0xdb, 0xdf, 0xc9, 0x3c, 0x43, 0x4b, 0x74, 0x3e, 0xce, 0xdc, 0x17, 0x3e,
  0x7d, 0x64, 0xc8, 0xbe, 0x32, 0x4c, 0x13, 0xbd, 0xa9, 0x82, 0xbb, 0x3e,
  0x13, 0xa8, 0x56, 0x3e, 0x1c, 0x22, 0x79, 0xbe, 0xfd, 0xde, 0x78, 0xbe,
  0x51, 0x14, 0x2a, 0x3e, 0x6a, 0xea, 0x24, 0x3f, 0xb6, 0x0d, 0x2d, 0xbe,
  0xed, 0x00, 0xaa, 0xbe, 0x2f, 0x99, 0xec, 0x3b, 0x9b, 0x71, 0xfd, 0x3c,
  0x27, 0x35, 0x91, 0xbe, 0x80, 0x9a, 0xd9, 0xbd, 0x02, 0xbc, 0x96, 0xbd,
  0x77, 0xe7, 0x55, 0xbe, 0x0b, 0x08, 0xfe, 0xbd, 0x09, 0x8e, 0x21, 0xbe,
  0x24, 0xd6, 0x46, 0x3e, 0x8d, 0x7b, 0x37, 0xbe, 0x98, 0x2a, 0x00, 0xbe,
  0x02, 0xe6, 0x70, 0x3d, 0xe5, 0x6a, 0xed, 0xbd, 0xad, 0xd5, 0x94, 0xbd,
  0xfe, 0xec, 0xe0, 0xbe, 0xf0, 0x0d, 0x94, 0xbe, 0x4e, 0x2c, 0xbc, 0x3e,
  0x84, 0xe3, 0xc4, 0xbe, 0x4c, 0x1f, 0xb8, 0xbe, 0x3f, 0x1e, 0xa8, 0xbd,
  0xa4, 0xc4, 0xbf, 0xbd, 0x24, 0x6b, 0x6e, 0x3f, 0x7e, 0x3a, 0x82, 0xbe,
  0x5e, 0xc9, 0x8c, 0xbe, 0xca, 0x05, 0x09, 0xbe, 0xa9, 0xbb, 0xf2, 0xbe,
  0x6c, 0xa1, 0xde, 0x3c, 0x3f, 0x44, 0x02, 0xbf, 0xc4, 0x42, 0x4e, 0xbe,
  0xb3, 0x43, 0x01, 0x3f, 0xf7, 0x1b, 0x34, 0xbc, 0xf3, 0xde, 0x98, 0xbe,
  0x88, 0x70, 0x3b, 0x3e, 0xff, 0x73, 0xe1, 0xbe, 0x25, 0xf3, 0x9b, 0x3e,
  0x6b, 0xf2, 0x92, 0x3b, 0x3b, 0x01, 0x82, 0x3e, 0xa5, 0x95, 0x13, 0x3f,
  0x51, 0xd3, 0x66, 0xbd, 0x28, 0x63, 0xef, 0xbe, 0xe8, 0xe0, 0x15, 0x3f,
  0x6f, 0xbf, 0xf0, 0xbc, 0xa7, 0x6a, 0xcb, 0xbe, 0x9c, 0x31, 0x47, 0xbe,
  0x41, 0x83, 0x33, 0x3c, 0x21, 0x2d, 0x29, 0x3f, 0x5b, 0x17, 0x8a, 0xbd,
  0xbe, 0x65, 0x3d, 0xbf, 0x13, 0xf6, 0x9b, 0x3d, 0xbd, 0x17, 0x96, 0xbe,
  0x4e, 0x06, 0x1d, 0xbd, 0xc4, 0x32, 0x64, 0xbe, 0x46, 0x44, 0x61, 0xbd,
  0x5b, 0x3d, 0xd9, 0xbd, 0x3c, 0xa3, 0x29, 0x3d, 0x86, 0x94, 0x0b, 0xbf,
  0xb4, 0xd3, 0x35, 0xbe, 0x75, 0x1b, 0xbe, 0xbe, 0x8c, 0xef, 0x7a, 0xbe,
  0xab, 0x6d, 0x1e, 0xbe, 0x62, 0x8f, 0x02, 0x3d, 0xf6, 0x67, 0xa1, 0x3b,
  0x6c, 0x05, 0xcb, 0x3c, 0x3c, 0x9b, 0x37, 0xbf, 0x00, 0x39, 0xec, 0xbd,
  0x67, 0xd2, 0x18, 0xbe, 0x05, 0xa1, 0x59, 0xbe, 0x10, 0x2c, 0xf9, 0x3c,
  0x10, 0x41, 0x3f, 0x3c, 0x7b, 0xbc, 0xe9, 0x3e, 0x59, 0x8c, 0x5b, 0x3e,
  0x4d, 0xc6, 0x10, 0xbf, 0xf7, 0x1e, 0xc9, 0x3d, 0xae, 0x4d, 0x83, 0xbd,
  0x16, 0xd5, 0x74, 0xbe, 0xd7, 0x47, 0xc6, 0x3d, 0x84, 0x71, 0xe2, 0x3d,
  0xe9, 0xc7, 0x94, 0x3d, 0x6c, 0xe9, 0x1f, 0x3e, 0x07, 0xfd, 0x7b, 0xbe,
  0x0b, 0x39, 0x11, 0xbe, 0xbf, 0x14, 0x8e, 0xbd, 0x5f, 0xa9, 0x19, 0x3e,
  0xed, 0xe2, 0xbf, 0x3c, 0xf6, 0xb3, 0xef, 0xbd, 0x56, 0x75, 0x87, 0x3e,
  0x86, 0x0d, 0xee, 0x3d, 0xce, 0xe3, 0x16, 0xbf, 0x4f, 0x85, 0xb4, 0xbd,
  0xd4, 0x81, 0x97, 0xbe, 0x1a, 0xea, 0x00, 0x3e, 0x99, 0x8c, 0x88, 0x3d,
  0xae, 0x94, 0xa9, 0xbc, 0x90, 0x33, 0x43, 0x3e, 0x12, 0xc7, 0x5a, 0x3d,
  0xe6, 0x79, 0x83, 0xbf, 0xdf, 0x02, 0x4b, 0xbf, 0x91, 0x6a, 0x0d, 0xbe,
  0x01, 0x5d, 0xee, 0xbe, 0xf7, 0x34, 0x07, 0xbe, 0xce, 0x94, 0x41, 0xbd,
  0xa3, 0x60, 0xc1, 0x3e, 0x1f, 0xe5, 0x2b, 0x3e, 0xcf, 0xda, 0x84, 0xbe,
  0xf2, 0x2b, 0x9d, 0xbe, 0x83, 0x58, 0x91, 0xbd, 0xfe, 0x36, 0xcd, 0x3e,
  0xca, 0x21, 0x64, 0xbe, 0x38, 0xea, 0xa9, 0xbd, 0x6c, 0xad, 0xb8, 0x3e,
  0xb3, 0xee, 0x83, 0x3d, 0x04, 0x00, 0x8b, 0xbe, 0xa8, 0xb3, 0x98, 0xbe,
  0x53, 0xce, 0x6f, 0xbe, 0x09, 0x1f, 0x8a, 0xbe, 0xb8, 0xd1, 0x5a, 0x3d,
  0x79, 0x56, 0x1e, 0x3c, 0xa3, 0x45, 0xa9, 0x3e, 0x9b, 0x72, 0x3f, 0x3e,
  0xed, 0xfe, 0x58, 0xbf, 0x77, 0x37, 0xc6, 0xbe, 0x1d, 0xac, 0x03, 0xbc,
  0x10, 0x2a, 0x9c, 0xbe, 0x14, 0xf9, 0xd6, 0x3d, 0x1e, 0x30, 0x71, 0x3d,
  0xb9, 0xf6, 0x0c, 0x3e, 0xba, 0x43, 0x58, 0x3d, 0x95, 0x64, 0x3c, 0xbf,
  0x15, 0xf3, 0x49, 0xbf, 0x79, 0x7d, 0x8b, 0xbe, 0xa2, 0x36, 0x68, 0xbe,
  0x2b, 0x69, 0xe7, 0x3d, 0xc4, 0xd8, 0xa2, 0xbc, 0xdc, 0x20, 0xbb, 0x3d,
  0xce, 0xa7, 0xc1, 0x3d, 0xb0, 0x8b, 0x47, 0xbf, 0xe1, 0xf6, 0x52, 0xbf,
  0x38, 0x66, 0x1a, 0xbe, 0xdd, 0xa7, 0xad, 0xbe, 0x26, 0xf3, 0x05, 0x3e,
  0x3c, 0xa7, 0x28, 0xbd, 0x33, 0x28, 0x12, 0x3e, 0xa2, 0x4c, 0x89, 0x3d,
  0xd0, 0xda, 0xe3, 0xbe, 0x46, 0xc3, 0x23, 0xbf, 0x90, 0xfa, 0x0d, 0xbe,
  0x49, 0x9a, 0x51, 0xbe, 0x7f, 0xff, 0x79, 0x3e, 0x5c, 0x2f, 0x85, 0x3d,
  0x5d, 0x43, 0xdf, 0x3e, 0x49, 0xab, 0x3a, 0x3e, 0xf3, 0xfc, 0x95, 0xbe,
  0xf7, 0x22, 0xc6, 0xbe, 0x75, 0x0e, 0x26, 0x3e, 0x60, 0x39, 0xf4, 0xbd,
  0x3d, 0x84, 0xe3, 0xbe, 0x5a, 0x6d, 0x0e, 0xbe, 0x9d, 0x95, 0x7c, 0x3e,
  0x75, 0x01, 0x73, 0x3e, 0xa8, 0xa9, 0x1a, 0x3e, 0xe4, 0x00, 0xbb, 0x3e,
  0x01, 0x15, 0x81, 0x3d, 0x55, 0x7b, 0x4c, 0x3e, 0x3a, 0x2a, 0x0f, 0xbd,
  0x73, 0x8d, 0x2c, 0x3d, 0x8a, 0x05, 0xe2, 0x3e, 0xc7, 0x97, 0x2f, 0xbf,
  0x70, 0xbe, 0x04, 0x3e, 0xd3, 0x03, 0x77, 0x3c, 0x64, 0x3e, 0xce, 0xbe,
  0xe8, 0x15, 0xb3, 0x3e, 0xed, 0xfe, 0x54, 0xbd, 0xcc, 0x9e, 0xa5, 0xbe,
  0x81, 0x88, 0x72, 0x3f, 0x46, 0x17, 0x26, 0x3d, 0xf1, 0x52, 0xdc, 0xbc,
  0x43, 0x64, 0x80, 0xbe, 0xc0, 0xeb, 0xac, 0x3c, 0x55, 0xe2, 0x51, 0x3e,
  0xd4, 0x64, 0x25, 0xbe, 0x93, 0x1b, 0x50, 0xbe, 0x17, 0x07, 0x55, 0x3f,
  0x09, 0x11, 0x1c, 0xbe, 0x8d, 0x4f, 0x4c, 0xbe, 0x7d, 0xa7, 0x31, 0xbe,
  0x9d, 0xbf, 0x0c, 0xbd, 0xc6, 0xaa, 0x4d, 0x3e, 0x93, 0x20, 0xf9, 0x3c,
  0x03, 0x00, 0xee, 0x3c, 0xbb, 0x58, 0x1d, 0x3f, 0x8d, 0x5c, 0x2d, 0xbe,
  0xc9, 0x17, 0xd1, 0xbd, 0xcf, 0xde, 0xa6, 0xbd, 0xd6, 0xb9, 0xe3, 0xbd,
  0x71, 0x7c, 0xf6, 0xbd, 0xd9, 0x41, 0x0b, 0xbe, 0xb5, 0x2c, 0xa4, 0xbd,
  0x5c, 0x6b, 0x19, 0x3e, 0x4f, 0xd3, 0x8f, 0xbe, 0x0b, 0x23, 0x2a, 0xbe,
  0x61, 0x5f, 0x22, 0x3e, 0x5a, 0x73, 0x81, 0xbe, 0x26, 0xf5, 0x91, 0xbd,
  0x11, 0x32, 0x22, 0x3e, 0x8c, 0x80, 0x90, 0x3e, 0xc9, 0xf2, 0xd4, 0x3e,
  0x4e, 0xc8, 0x73, 0xbe, 0x2f, 0x85, 0x89, 0xbe, 0xb2, 0x2a, 0x94, 0x3d,
  0xc7, 0xdd, 0x5a, 0xbe, 0xb6, 0xf4, 0x02, 0x3d, 0xdc, 0x90, 0x87, 0xbe,
  0x5a, 0xc4, 0xeb, 0xbd, 0xa1, 0xe9, 0xb9, 0xbe, 0xf1, 0x73, 0x14, 0xbe,
  0x64, 0xf2, 0x59, 0xbe, 0xe3, 0xfd, 0x82, 0xbe, 0x6f, 0x53, 0x0b, 0xbe,
  0x66, 0xbe, 0xb3, 0xbd, 0xa0, 0x0c, 0x1d, 0xbe, 0x13, 0xb4, 0x9e, 0x3d,
  0xf9, 0xf1, 0x98, 0x3e, 0xcf, 0xc4, 0x45, 0x3d, 0x54, 0xa1, 0x0f, 0xbe,
  0xf8, 0xba, 0x09, 0xbe, 0x2c, 0xf7, 0x5b, 0xbd, 0xce, 0x82, 0x15, 0xbd,
  0x6c, 0x0f, 0xdf, 0x3b, 0x65, 0x98, 0x23, 0xbe, 0x17, 0x0f, 0x10, 0xbe,
  0xa2, 0xed, 0x86, 0xbd, 0x45, 0x41, 0x98, 0xbe, 0x8c, 0x8e, 0x7c, 0xbe,
  0x12, 0xb2, 0xfd, 0xbd, 0x1e, 0x48, 0x04, 0xbc, 0x13, 0x15, 0xc7, 0x3d,
  0xbd, 0x0a, 0x02, 0xbd, 0x3e, 0xaf, 0x2e, 0xbe, 0x6a, 0x75, 0x4e, 0x3d,
  0x8b, 0x21, 0x8e, 0x3d, 0x9e, 0x71, 0xe2, 0xbb, 0x15, 0x50, 0x58, 0x3e,
  0xbb, 0x1b, 0xf7, 0xbd, 0xa7, 0xb7, 0xf3, 0x3d, 0x0e, 0xd9, 0xf8, 0xbd,
  0xdf, 0x7a, 0xbf, 0x3d, 0xcb, 0xe5, 0x4b, 0x3e, 0x79, 0xd6, 0x16, 0xbe,
  0xcd, 0x0a, 0x92, 0xbe, 0xe8, 0x38, 0x2e, 0x3e, 0xab, 0x1a, 0x85, 0x3d,
  0x9b, 0x81, 0x86, 0x3d, 0x89, 0xe0, 0x61, 0xbd, 0x23, 0xbe, 0xe6, 0xbe,
  0x93, 0xa5, 0x6d, 0x3d, 0x8b, 0x2b, 0xd9, 0x3d, 0xae, 0x11, 0x8d, 0x3c,
  0xaf, 0x16, 0xc0, 0xbd, 0xac, 0x4b, 0x59, 0x3e, 0xfd, 0xe9, 0x9e, 0xbd,
  0x12, 0x10, 0x04, 0xbe, 0x19, 0x6e, 0x92, 0xbd, 0xf2, 0xa7, 0x11, 0x3d,
  0x72, 0xbb, 0xf6, 0x3d, 0xdb, 0x34, 0xeb, 0xbd, 0x0d, 0xe1, 0x7a, 0x3e,
  0xc1, 0xce, 0x84, 0xbe, 0xeb, 0xa3, 0xe6, 0x3d, 0x82, 0xae, 0x92, 0xbd,
  0x4d, 0x4d, 0xc0, 0xbe, 0x69, 0x0e, 0x19, 0x3e, 0x74, 0xa8, 0x78, 0xbd,
  0x2f, 0x72, 0xba, 0xbe, 0xf9, 0xe0, 0xae, 0x3e, 0x2c, 0x31, 0x5a, 0xbc,
  0xed, 0x4d, 0xff, 0x3d, 0x20, 0xc6, 0x98, 0xbd, 0x35, 0xd4, 0x75, 0x3e,
  0xae, 0x0d, 0x3c, 0x3e, 0xd6, 0x0f, 0x08, 0x3e, 0x75, 0x2f, 0x99, 0xbe,
  0xca, 0x0b, 0x3d, 0x3e, 0xb7, 0x2d, 0xc8, 0x3c, 0x89, 0xc7, 0xab, 0xbc,
  0x76, 0xd5, 0x44, 0x3e, 0xbc, 0xca, 0x4b, 0x3e, 0x12, 0x6d, 0x92, 0x3c,
  0x68, 0xa4, 0x3d, 0xbe, 0xcd, 0x6c, 0x90, 0x3c, 0xb8, 0xcd, 0x1d, 0x3e,
  0x12, 0x7f, 0x48, 0xbe, 0x65, 0xae, 0xde, 0xbb, 0x11, 0x4d, 0x97, 0xbc,
  0x3e, 0x6f, 0x40, 0xbf, 0xd7, 0xec, 0x0c, 0x3c, 0xef, 0xf2, 0x98, 0xbb,
  0xbb, 0x6d, 0x24, 0xbe, 0xb7, 0xe0, 0x5f, 0x3e, 0x9d, 0xe1, 0xdd, 0xbe,
  0x0b, 0x85, 0x01, 0x3e, 0x86, 0x59, 0xfb, 0x3d, 0x94, 0x22, 0x02, 0xbf,
  0x51, 0x7d, 0x90, 0xbd, 0x11, 0xd1, 0x65, 0xbe, 0x59, 0x08, 0x9d, 0xbe,
  0x89, 0xa3, 0x91, 0xbd, 0xe8, 0x06, 0xb5, 0xbe, 0xd7, 0x7a, 0xa8, 0xbd,
  0xcb, 0xf7, 0x56, 0xbc, 0xc2, 0x10, 0x9c, 0xbd, 0x26, 0x4e, 0xb4, 0xbd,
  0xa1, 0x1e, 0xfc, 0xbd, 0x74, 0x89, 0xf2, 0x3d, 0x4e, 0x37, 0x60, 0xbe,
  0x0c, 0x8b, 0x29, 0xbe, 0x3d, 0x02, 0x27, 0x3e, 0xf9, 0xea, 0x45, 0xbd,
  0x53, 0x7d, 0x19, 0x3e, 0xf8, 0x15, 0x3a, 0xbe, 0x18, 0x08, 0xdc, 0xbd,
  0xc9, 0xca, 0x26, 0xbe, 0xb8, 0x4a, 0x24, 0xbe, 0x93, 0x41, 0x4a, 0x39,
  0x22, 0x61, 0x05, 0xbe, 0x31, 0x87, 0x84, 0x3e, 0x04, 0x7f, 0x5d, 0xbe,
  0x5c, 0xf5, 0xb1, 0xbd, 0x75, 0x7f, 0x7e, 0xbe, 0xaa, 0x0a, 0x4c, 0x3d,
  0xb9, 0x0e, 0x58, 0xbe, 0x41, 0x4f, 0x0a, 0xbe, 0xc7, 0xab, 0xb9, 0xbd,
  0xfa, 0xb6, 0xf6, 0x3d, 0x0a, 0x28, 0xf6, 0xbd, 0x4f, 0x68, 0x19, 0xbe,
  0xd5, 0x1c, 0x5f, 0xbd, 0xb1, 0x76, 0xae, 0x3d, 0x8d, 0x0c, 0x1e, 0xbe,
  0x1a, 0x92, 0x95, 0xbe, 0x2a, 0x14, 0x77, 0xbe, 0x5b, 0xe9, 0x83, 0x3d,
  0x79, 0xd2, 0x18, 0x3f, 0x81, 0x82, 0xb2, 0xbd, 0xfe, 0xe0, 0x4e, 0xbe,
  0x3a, 0xed, 0x13, 0xbd, 0x62, 0xde, 0xa7, 0x3d, 0xdd, 0x6e, 0x24, 0x3e,
  0x7f, 0x6d, 0x22, 0xbc, 0x2d, 0x71, 0x0d, 0x3e, 0x4b, 0x9f, 0x12, 0x3f,
  0x8c, 0x31, 0x1b, 0xbd, 0xcf, 0xe9, 0x85, 0xbe, 0xfb, 0xa4, 0x40, 0x3d,
  0x4d, 0x20, 0xc6, 0xbd, 0xca, 0x30, 0x00, 0xbe, 0xce, 0x53, 0x2d, 0xbe,
  0xa6, 0x68, 0x66, 0x3d, 0xf6, 0x45, 0xe0, 0x3e, 0x0c, 0x08, 0xe9, 0x3d,
  0xae, 0xf9, 0xf9, 0xbd, 0x65, 0x61, 0xef, 0xbd, 0xeb, 0xc7, 0x93, 0x3d,
  0x70, 0xa3, 0x10, 0xbb, 0x00, 0xd2, 0x6e, 0xbc, 0x3f, 0x43, 0xc8, 0x3e,
  0xbf, 0xab, 0x74, 0xbf, 0xf9, 0xbb, 0xb1, 0xbd, 0x5e, 0x95, 0xb2, 0xbd,
  0xe4, 0xb1, 0xe1, 0xbd, 0x76, 0xb6, 0x97, 0x3c, 0x4e, 0xe0, 0x91, 0xbe,
  0x63, 0x00, 0x62, 0x3d, 0x40, 0x38, 0xdf, 0x3d, 0x15, 0x6e, 0x0c, 0xbf,
  0x2b, 0x43, 0x25, 0xbe, 0x2f, 0x10, 0xa2, 0xbd, 0x01, 0xe6, 0xaf, 0xbd,
  0x82, 0x33, 0x83, 0x3e, 0xdc, 0x28, 0xc8, 0xbd, 0x5a, 0xc7, 0xb5, 0xbb,
  0xfe, 0x6d, 0x8f, 0x3e, 0xf0, 0xf4, 0x3c, 0xbd, 0xf9, 0x36, 0x88, 0xbe,
  0xc8, 0xa0, 0x57, 0xbe, 0x9b, 0x07, 0x9b, 0xbc, 0x97, 0x15, 0x5f, 0x3e,
  0xd0, 0x9d, 0x1d, 0x3d, 0x07, 0x1a, 0x48, 0xbe, 0x20, 0xfc, 0xce, 0xbd,
  0x4e, 0x32, 0xd2, 0xbe, 0x76, 0x06, 0x32, 0xbe, 0x2e, 0x80, 0x68, 0xbd,
  0x4a, 0xd5, 0xe3, 0xbd, 0x54, 0xc1, 0x0b, 0x3f, 0xa4, 0x46, 0x34, 0xbe,
  0xde, 0x35, 0x73, 0xbe, 0xb8, 0x57, 0xaf, 0xbd, 0x77, 0x96, 0x9e, 0xbd,
  0x0a, 0x02, 0x97, 0x3c, 0xe7, 0xe4, 0x67, 0xbe, 0xea, 0x73, 0xdb, 0xbe,
  0x14, 0x91, 0x34, 0x3e, 0xca, 0x6c, 0x0f, 0xbe, 0x65, 0x50, 0xaf, 0xbe,
  0x60, 0x38, 0x0a, 0xbd, 0xdf, 0xcb, 0x57, 0x3e, 0x14, 0xdf, 0xa8, 0xb8,
  0x8e, 0x74, 0x79, 0x3d, 0xf3, 0x45, 0x40, 0xbe, 0x18, 0xef, 0x36, 0x3e,
  0x8a, 0xb8, 0x36, 0xbc, 0x1c, 0xde, 0x01, 0x3e, 0x53, 0xa9, 0x97, 0x3d,
  0xd3, 0xa5, 0x9e, 0x3f, 0xe9, 0x89, 0xd7, 0x3f, 0xe9, 0xac, 0xad, 0x3d,
  0x6a, 0x3d, 0xe7, 0x3c, 0x1b, 0x39, 0x18, 0x3f, 0x12, 0xe3, 0x16, 0x3f,
  0x3b, 0x5a, 0xb4, 0x3e, 0x6d, 0x1a, 0xd6, 0x3e, 0xb4, 0xc6, 0xdf, 0xbe,
  0xbc, 0x26, 0xc1, 0x3e, 0x79, 0x98, 0x20, 0x3f, 0x11, 0xbe, 0xdf, 0xbe,
  0xbe, 0x41, 0x38, 0x3e, 0x42, 0x9b, 0xd0, 0xbd, 0xb2, 0xa3, 0xd1, 0x3e,
  0x89, 0xfc, 0x3d, 0x3e, 0x29, 0x21, 0x86, 0x3e, 0x3e, 0xad, 0x60, 0xbc,
  0x7e, 0xc8, 0x90, 0xbe, 0xca, 0x38, 0x04, 0xbf, 0x15, 0x86, 0x2c, 0xbd,
  0xea, 0x6f, 0x34, 0xbe, 0xc1, 0x8d, 0x9d, 0x3e, 0x0c, 0x74, 0x81, 0x3e,
  0xc1, 0x35, 0xe5, 0x3e, 0x75, 0xe0, 0xa8, 0x3e, 0x1c, 0x17, 0xcf, 0xbe,
  0xef, 0x90, 0x44, 0xbe, 0x95, 0x00, 0x9d, 0x3e, 0x91, 0x42, 0xd3, 0xbe,
  0x4c, 0x83, 0xb5, 0x3e, 0xc5, 0x60, 0x19, 0xbe, 0x31, 0xaa, 0x84, 0x3f,
  0x2c, 0xe3, 0xd5, 0x3e, 0x65, 0xdd, 0x04, 0xbe, 0x28, 0x3d, 0xd4, 0xbe,
  0x23, 0x00, 0xf3, 0x3e, 0xb8, 0xd9, 0x1b, 0xbf, 0x1e, 0x6d, 0x77, 0x3e,
  0x76, 0x91, 0x94, 0xbc, 0x2f, 0x5d, 0xd7, 0x3e, 0xe3, 0x1e, 0x08, 0x3f,
  0x75, 0x5b, 0x64, 0x3d, 0x82, 0x7c, 0xa3, 0xbe, 0xc1, 0xcd, 0x6c, 0x3e,
  0xfa, 0xe5, 0x17, 0xbf, 0x5c, 0x47, 0x5c, 0x3e, 0xd4, 0xae, 0x1b, 0x3c,
  0x92, 0x8e, 0xac, 0x3d, 0x02, 0x64, 0xb3, 0x3e, 0xd3, 0xf1, 0x8d, 0x3e,
  0x74, 0xb8, 0xad, 0xbd, 0x4b, 0x65, 0xf0, 0x3d, 0xac, 0xad, 0x93, 0xbe,
  0x64, 0xa8, 0x99, 0x3d, 0xb7, 0xfe, 0xfd, 0xbc, 0xca, 0x36, 0x48, 0xbe,
  0x73, 0x19, 0x92, 0x3e, 0x32, 0xd3, 0x81, 0x3e, 0x12, 0x7b, 0x84, 0xbe,
  0x20, 0x1f, 0x9d, 0x3c, 0x58, 0x6f, 0x5c, 0xbe, 0x0d, 0xa0, 0x30, 0x3e,
  0x41, 0x6b, 0x63, 0x3d, 0x15, 0x53, 0xa3, 0xbe, 0xf5, 0x5c, 0x9b, 0x3d,
  0x0b, 0x81, 0xeb, 0x3d, 0xf3, 0x07, 0x6f, 0xbe, 0xa6, 0x6a, 0x49, 0x3c,
  0x95, 0x40, 0xda, 0xbd, 0x34, 0x04, 0x2b, 0x3d, 0x1e, 0xa9, 0x29, 0x3d,
  0x90, 0x98, 0xdb, 0xbe, 0x17, 0xb1, 0xbc, 0xbd, 0xf5, 0x50, 0x2d, 0x3e,
  0xab, 0xf4, 0x70, 0xbe, 0xd0, 0x69, 0xa4, 0x3e, 0x8c, 0x01, 0xc4, 0xbd,
  0xf0, 0x2e, 0xa4, 0x3d, 0xec, 0x18, 0x70, 0xbb, 0xe3, 0xa9, 0x1c, 0x3e,
  0x84, 0xf1, 0x06, 0xbe, 0x98, 0x20, 0x2a, 0x3e, 0x3b, 0xcb, 0x14, 0xbe,
  0x59, 0xc4, 0x7a, 0x3e, 0x3e, 0x86, 0x2c, 0x3d, 0xfa, 0xb6, 0x19, 0xbd,
  0xcb, 0x77, 0xbc, 0xbd, 0x08, 0x15, 0x9d, 0xbe, 0xad, 0x8f, 0x23, 0xbe,
  0x8c, 0xc6, 0x91, 0x3e, 0xed, 0x80, 0xb1, 0xbd, 0xf3, 0x13, 0x54, 0x3e,
  0x2d, 0xcf, 0x3f, 0x3e, 0x76, 0x82, 0x4f, 0x3d, 0x6c, 0x06, 0x7a, 0xbc,
  0xd0, 0xe1, 0x0e, 0x3f, 0xc0, 0x04, 0x26, 0xbe, 0x3e, 0x6d, 0xbb, 0xbd,
  0x73, 0xe7, 0x53, 0xbe, 0xfc, 0xe0, 0x4f, 0x3e, 0xdf, 0x31, 0x13, 0x3e,
  0xda, 0xb1, 0xd0, 0x3d, 0x14, 0x02, 0xa5, 0xbd, 0xd2, 0x75, 0x7e, 0x3e,
  0x27, 0x5c, 0xac, 0x3d, 0x39, 0x73, 0x2b, 0x3e, 0x13, 0xec, 0xad, 0xbc,
  0x34, 0x62, 0x5b, 0x3e, 0xa3, 0xb0, 0x33, 0xbe, 0x5c, 0xe8, 0x55, 0x3d,
  0xad, 0xe0, 0x9e, 0xbd, 0x50, 0x07, 0xee, 0x3e, 0x4a, 0xbb, 0x61, 0x3e,
  0x69, 0xe0, 0x5b, 0x3c, 0x70, 0x1b, 0xd4, 0xbd, 0xc1, 0xb0, 0xc6, 0x3d,
  0x02, 0x1f, 0xe7, 0x3d, 0xd2, 0x30, 0x88, 0x3e, 0x89, 0x3a, 0x02, 0xbe,
  0x1b, 0x0a, 0xa5, 0x3d, 0x56, 0x5d, 0xdd, 0x3c, 0x53, 0xbc, 0x84, 0xbd,
  0x34, 0xe7, 0x1f, 0xbe, 0x53, 0xb0, 0x03, 0x3e, 0x18, 0x15, 0x27, 0xbe,
  0xcb, 0x0b, 0x04, 0x3d, 0xef, 0xb1, 0xa3, 0xbd, 0xa8, 0xab, 0x5e, 0x3b,
  0x68, 0x68, 0x31, 0x3e, 0xa2, 0xd3, 0xad, 0xbb, 0x0f, 0x4e, 0x04, 0xbe,
  0x7e, 0x70, 0x86, 0x3e, 0x47, 0x81, 0xf2, 0xbd, 0x4d, 0x65, 0x42, 0x3e,
  0xcb, 0x0e, 0xe8, 0x3b, 0x7b, 0x73, 0x48, 0x3e, 0x8e, 0x8e, 0x15, 0x3d,
  0x23, 0xc4, 0xfe, 0x3d, 0xdc, 0x08, 0xa3, 0xbd, 0x58, 0xab, 0xf4, 0x3d,
  0x13, 0xba, 0x82, 0xbe, 0xc8, 0xf9, 0xe0, 0xbd, 0xa6, 0x54, 0x29, 0x3d,
  0xcc, 0x97, 0xb9, 0x3e, 0x97, 0x8c, 0x3d, 0x3e, 0x52, 0x5d, 0xa9, 0xbd,
  0x24, 0x3c, 0xa7, 0xbd, 0x1b, 0xf8, 0x8a, 0x3e, 0x46, 0x79, 0x2b, 0xbe,
  0x83, 0xbe, 0xaa, 0x3d, 0x15, 0xdf, 0x2a, 0x3e, 0x7b, 0xed, 0x25, 0x3f,
  0x02, 0x43, 0xf9, 0x3d, 0x8f, 0x01, 0xa4, 0x3d, 0x94, 0xda, 0xd7, 0xbd,
  0x1e, 0x2e, 0x9f, 0x3e, 0xec, 0x23, 0x6d, 0xbe, 0x6a, 0xbb, 0x76, 0xbd,
  0x9b, 0x0d, 0x80, 0xbe, 0xe3, 0x15, 0xb7, 0x3e, 0xc1, 0xcd, 0x02, 0xbd,
  0xbb, 0x1c, 0xed, 0xbb, 0x24, 0xdb, 0x81, 0xbd, 0x86, 0x66, 0x5f, 0xbc,
  0xb0, 0x7e, 0x26, 0xbe, 0x37, 0xf8, 0x99, 0xbd, 0xb3, 0x79, 0x50, 0x3e,
  0x3b, 0xab, 0x64, 0xbc, 0xc5, 0xe2, 0x1c, 0x3b, 0xdf, 0xa8, 0x54, 0xbb,
  0x5b, 0x36, 0x85, 0xbc, 0x93, 0x1c, 0x2b, 0x3d, 0x07, 0xd1, 0x9c, 0xbe,
  0x74, 0x35, 0x0d, 0x3e, 0xba, 0x3b, 0x98, 0xbd, 0x17, 0x87, 0x23, 0x3f,
  0x91, 0x70, 0xa0, 0xbd, 0x67, 0x2d, 0x2e, 0x3d, 0xa9, 0xdc, 0xe5, 0xbd,
  0x0d, 0xc3, 0x8a, 0x3d, 0x6b, 0x14, 0xa9, 0x3d, 0x7b, 0x5b, 0xe4, 0x3d,
  0x4c, 0xb6, 0xa6, 0xbd, 0xe8, 0xc0, 0xac, 0x3e, 0xba, 0x95, 0x4d, 0xbd,
  0x02, 0x35, 0xb9, 0xbd, 0xdd, 0x4c, 0xb1, 0xbd, 0x39, 0x00, 0xc3, 0x3c,
  0x06, 0x35, 0x40, 0x3e, 0x0b, 0xe8, 0x24, 0x3c, 0xfb, 0x96, 0x4d, 0xbe,
  0xb9, 0x61, 0xdc, 0x3e, 0xd9, 0x84, 0x86, 0xbc, 0x80, 0xe2, 0x8b, 0x3d,
  0x42, 0xb4, 0x2f, 0xbe, 0xfb, 0x6b, 0x9a, 0xbc, 0x61, 0x59, 0x4c, 0x3c,
  0xc6, 0x94, 0x1e, 0xbe, 0x29, 0x75, 0x93, 0xbe, 0xe5, 0xed, 0x83, 0x3e,
  0xbb, 0xd1, 0x0f, 0x3e, 0x95, 0xba, 0x7b, 0x3d, 0x9d, 0x04, 0x8c, 0xbd,
  0xef, 0xb7, 0xcc, 0xbc, 0x1f, 0x99, 0xfa, 0xbe, 0x5b, 0x0c, 0x34, 0xbd,
  0x9f, 0x18, 0x2b, 0xbe, 0x14, 0xd5, 0x0f, 0x3f, 0xfd, 0x56, 0x7e, 0xbd,
  0x4c, 0x54, 0x63, 0x3c, 0xad, 0x25, 0xb7, 0xbd, 0xa1, 0xca, 0x15, 0x3d,
  0x7d, 0x51, 0x0d, 0xbf, 0x48, 0xaf, 0x2d, 0xbd, 0xe7, 0xc7, 0x30, 0xbe,
  0xd6, 0xb9, 0x6b, 0x3f, 0xa3, 0x4f, 0x8b, 0xbe, 0x58, 0xfb, 0xd5, 0xbc,
  0x88, 0x06, 0x28, 0x3d, 0x11, 0x02, 0xe3, 0xbe, 0x97, 0x44, 0x66, 0x3c,
  0x88, 0x32, 0x28, 0x3e, 0x58, 0x35, 0xdf, 0xbe, 0xf2, 0x49, 0x29, 0x3f,
  0xb7, 0x7a, 0xbb, 0xbc, 0x03, 0xcb, 0x44, 0x3d, 0x0c, 0x9d, 0x5d, 0x3d,
  0x83, 0xed, 0x09, 0xbf, 0xb1, 0x3b, 0x92, 0xbe, 0x8d, 0x3f, 0x46, 0x3e,
  0x59, 0x19, 0xac, 0xbb, 0x57, 0x7b, 0x6c, 0x3f, 0x5f, 0x19, 0x98, 0xbd,
  0x44, 0xa0, 0xc9, 0xbe, 0x99, 0xa8, 0x8c, 0xbd, 0x42, 0x2e, 0x55, 0xbf,
  0x50, 0x9d, 0x6c, 0xbe, 0x73, 0xc7, 0x99, 0xbe, 0x48, 0x55, 0xbd, 0xbe,
  0xa6, 0x8c, 0x55, 0x3f, 0x22, 0x22, 0xd1, 0xbd, 0x25, 0xbe, 0x10, 0xbe,
  0x71, 0x4b, 0x90, 0xbd, 0xf5, 0x53, 0x63, 0xbf, 0x97, 0xf5, 0xb6, 0xbd,
  0x4c, 0x30, 0xe7, 0xbe, 0xa8, 0x6f, 0xd4, 0xbe, 0x70, 0xb5, 0x0d, 0xbd,
  0x49, 0x36, 0x78, 0xbf, 0xf6, 0xff, 0x81, 0xbd, 0xa5, 0x8c, 0x84, 0x3e,
  0x2c, 0x20, 0xed, 0xbe, 0x2c, 0x36, 0x60, 0xbe, 0xb6, 0x1e, 0x47, 0x3e,
  0x77, 0xa1, 0xd7, 0xbe, 0x31, 0xe4, 0x02, 0xbf, 0x25, 0xfe, 0x5d, 0xbf,
  0x37, 0xe0, 0x83, 0xbe, 0xca, 0x0f, 0xe4, 0x3e, 0x65, 0x4f, 0xe6, 0xbe,
  0xcb, 0xab, 0xe0, 0x3e, 0xfa, 0x40, 0x1b, 0xbf, 0x97, 0xda, 0x0f, 0xbe,
  0xdf, 0xee, 0x2a, 0xbd, 0xe4, 0xbf, 0x97, 0xbe, 0x29, 0xd6, 0x90, 0xbd,
  0xd5, 0x77, 0x65, 0xbe, 0x26, 0xb1, 0xbd, 0xbe, 0x44, 0x30, 0xe9, 0xbd,
  0x43, 0x95, 0xc2, 0x3e, 0x31, 0x74, 0x87, 0xbe, 0x19, 0x82, 0x91, 0x3e,
  0x48, 0x48, 0x35, 0x3c, 0x3e, 0xac, 0x63, 0xbe, 0xbf, 0x54, 0x21, 0xbc,
  0x7f, 0xdc, 0xe2, 0xbe, 0x05, 0xa2, 0x0d, 0x3f, 0xa2, 0xd8, 0xda, 0xbd,
  0x5d, 0xaa, 0xa8, 0xbe, 0x31, 0x17, 0x6d, 0x3c, 0x15, 0xd7, 0x07, 0xbe,
  0xc3, 0xbf, 0x0c, 0x3c, 0x1a, 0xc0, 0xdd, 0xbd, 0x95, 0x57, 0xa1, 0x3d,
  0x76, 0x0a, 0xed, 0x3d, 0x72, 0x9e, 0xc0, 0xbd, 0xd0, 0xe7, 0xaf, 0x3c,
  0x56, 0x14, 0xbb, 0x3e, 0xbf, 0x5b, 0xa4, 0xbe, 0xdc, 0xfb, 0x83, 0xbe,
  0x7b, 0x2d, 0x0b, 0xbc, 0x1e, 0x50, 0xdb, 0xbd, 0xfd, 0x75, 0x43, 0x3e,
  0x0b, 0x97, 0xd6, 0xbe, 0x8c, 0xd9, 0xe4, 0xbe, 0x41, 0x84, 0xe1, 0x3e,
  0xe1, 0x48, 0xbb, 0xbe, 0x3b, 0x87, 0x89, 0xbc, 0x95, 0xb0, 0xbb, 0xbe,
  0xb6, 0xa4, 0xa7, 0x3e, 0x32, 0xf3, 0x51, 0x3e, 0x4d, 0xb6, 0x2c, 0xbf,
  0xf0, 0x85, 0x53, 0x3e, 0x14, 0x46, 0x14, 0x3f, 0x4e, 0x38, 0xbf, 0xbe,
  0x3b, 0x24, 0x5f, 0x3b, 0x98, 0xb4, 0x82, 0xbe, 0x00, 0xfd, 0xe3, 0x3e,
  0xfe, 0x59, 0x03, 0x3f, 0xb4, 0x76, 0xc3, 0xbe, 0xe9, 0xcf, 0x9c, 0xbe,
  0x57, 0x36, 0x4f, 0x3e, 0x60, 0xf0, 0xad, 0x3a, 0xba, 0x35, 0xa5, 0xbe,
  0xb7, 0x17, 0x15, 0xbe, 0xbe, 0x95, 0xcb, 0x3e, 0x41, 0x3d, 0x04, 0x3f,
  0x93, 0x35, 0xd5, 0xbd, 0x00, 0xef, 0x48, 0x3e, 0x86, 0x48, 0xf5, 0x3d,
  0x65, 0xb7, 0xe3, 0xbd, 0xe1, 0x5e, 0x99, 0x3d, 0x31, 0x3f, 0x55, 0xbe,
  0x95, 0x40, 0x95, 0x3e, 0x42, 0x1d, 0xa6, 0x3e, 0x94, 0xc6, 0x10, 0xbe,
  0x1d, 0x71, 0x27, 0x3c, 0xbd, 0x5d, 0xd0, 0xbd, 0xe5, 0x9a, 0xf8, 0x3d,
  0x25, 0xca, 0x17, 0x3e, 0x67, 0x47, 0x39, 0xbf, 0x69, 0x50, 0x2b, 0x3e,
  0x4c, 0x09, 0x0c, 0xbe, 0x51, 0x02, 0xbc, 0x3d, 0x29, 0x9c, 0xea, 0x3e,
  0xe4, 0xf7, 0xe4, 0xbc, 0x96, 0x29, 0x86, 0xbd, 0x50, 0xfb, 0x1c, 0xbe,
  0xa5, 0x8f, 0x9c, 0xbe, 0xb0, 0xb2, 0x87, 0x3d, 0xb7, 0x6a, 0x4d, 0xbe,
  0xfb, 0x6c, 0x6d, 0xbc, 0xaa, 0xaf, 0xd8, 0xbd, 0x13, 0x8b, 0x82, 0xbe,
  0xb9, 0xcb, 0xed, 0x3d, 0x73, 0x2f, 0x21, 0x3e, 0x84, 0xd4, 0x86, 0xbe,
  0xee, 0xf1, 0x2a, 0xbc, 0x69, 0x88, 0x85, 0x3d, 0x74, 0x52, 0x92, 0x3e,
  0x8f, 0xd9, 0xfd, 0x3c, 0x1b, 0xf0, 0xf3, 0xbd, 0x2c, 0x17, 0xfe, 0xbc,
  0x2e, 0x6e, 0x4a, 0xbb, 0x6f, 0xa3, 0xa3, 0xbe, 0x46, 0x67, 0x15, 0x3e,
  0xd7, 0x5d, 0x43, 0xbd, 0x06, 0x22, 0x1d, 0x3e, 0x97, 0xe2, 0x88, 0xbe,
  0x82, 0x08, 0x6a, 0x3e, 0x90, 0xa7, 0x8c, 0xbe, 0xa6, 0x13, 0x80, 0xbd,
  0x7b, 0x4a, 0x3e, 0xbe, 0xee, 0xb8, 0xbc, 0x3d, 0xc3, 0x71, 0xcb, 0x3e,
  0x5b, 0xb1, 0xdc, 0xbd, 0x06, 0x61, 0x05, 0xbe, 0x8e, 0x58, 0xbd, 0x3d,
  0x2a, 0xf2, 0xd1, 0xbd, 0x0f, 0x1e, 0x2f, 0xbe, 0x80, 0x0d, 0x4c, 0xbe,
  0xfe, 0x56, 0x02, 0xbe, 0x58, 0x7a, 0xc6, 0x3e, 0x49, 0xee, 0x05, 0xbe,
  0x7d, 0x43, 0x87, 0xbe, 0x65, 0x99, 0x11, 0x3e, 0x27, 0x94, 0xf2, 0xbe,
  0x6b, 0x05, 0xa5, 0xbe, 0x8a, 0x4f, 0x4a, 0xbe, 0x3b, 0xdf, 0x39, 0x3e,
  0xc9, 0xdd, 0x05, 0x3e, 0x9a, 0xd9, 0x43, 0x3c, 0xfb, 0x5c, 0xc4, 0x3d,
  0x0c, 0x46, 0x0e, 0x3e, 0xbc, 0x7e, 0xbf, 0xbe, 0xfa, 0x76, 0x29, 0x3d,
  0x22, 0x06, 0x78, 0xbe, 0xa1, 0xbc, 0xd4, 0x3e, 0x83, 0x98, 0x87, 0x3e,
  0xf2, 0xf5, 0x27, 0xbc, 0x4c, 0x21, 0x73, 0xbe, 0xb9, 0xf6, 0x14, 0xbd,
  0x8c, 0x01, 0x0d, 0x3d, 0xfb, 0xd0, 0x0c, 0xbd, 0x83, 0x69, 0x5d, 0xbe,
  0x85, 0x61, 0xca, 0x3e, 0xb7, 0x67, 0x9c, 0x3e, 0x2b, 0xb2, 0x77, 0xbe,
  0xfe, 0xd9, 0xe8, 0x3e, 0x57, 0xcf, 0x3c, 0x3e, 0x62, 0xfb, 0x61, 0xbe,
  0xde, 0x48, 0xe4, 0x3d, 0x2f, 0x73, 0x0c, 0x3d, 0x05, 0x04, 0x74, 0x3e,
  0xdf, 0xfe, 0x2e, 0x3e, 0x75, 0x52, 0xd3, 0xbd, 0xd5, 0xd6, 0xe4, 0xbd,
  0x47, 0xe9, 0x6f, 0xbe, 0x37, 0xbe, 0x8c, 0x3e, 0x46, 0x3a, 0x1f, 0xbe,
  0xc5, 0x56, 0x52, 0xbe, 0x18, 0x05, 0x83, 0x3e, 0x9c, 0xf9, 0x32, 0xbd,
  0x1b, 0xe7, 0x3b, 0x3e, 0x0d, 0xfa, 0x8c, 0x3e, 0x21, 0x23, 0xca, 0xbd,
  0xf3, 0x1d, 0x47, 0x3d, 0xfb, 0xe1, 0x4b, 0x3e, 0x93, 0x15, 0x58, 0xbe,
  0x1c, 0xef, 0xe0, 0x3d, 0x48, 0x44, 0xea, 0x3e, 0x84, 0xf9, 0xab, 0x3e,
  0x3c, 0x8d, 0x81, 0xbe, 0x9f, 0x3b, 0x5e, 0xbe, 0xac, 0x30, 0xf6, 0x3d,
  0x5d, 0xd2, 0x33, 0xbc, 0x03, 0x63, 0x6c, 0xbe, 0x32, 0xa9, 0x01, 0x3d,
  0x05, 0x14, 0x0e, 0x3e, 0x2f, 0x0f, 0xf1, 0x3d, 0xf0, 0xb5, 0x42, 0xbe,
  0x56, 0xa8, 0x22, 0x3e, 0x7c, 0xef, 0xb6, 0xbc, 0x20, 0xd4, 0xb1, 0x3d,
  0x18, 0x05, 0xfa, 0xbd, 0x2c, 0x66, 0x03, 0x3e, 0xba, 0x94, 0xb5, 0x3e,
  0x4a, 0x27, 0xbb, 0x3e, 0xa1, 0x39, 0xf6, 0xbd, 0x9f, 0x17, 0x1a, 0x3e,
  0xd7, 0xde, 0x8c, 0x3e, 0xf3, 0x3d, 0x48, 0xbe, 0xe3, 0x01, 0x31, 0xbe,
  0x5d, 0x7b, 0x28, 0xbe, 0x57, 0xab, 0x95, 0x3d, 0xf0, 0xce, 0x36, 0xbd,
  0x57, 0xe7, 0xc8, 0xbb, 0x71, 0x22, 0xb5, 0x3e, 0x3c, 0xf1, 0x2e, 0xbb,
  0xaa, 0x18, 0x23, 0xbe, 0x17, 0x79, 0x33, 0xbe, 0x3d, 0xe4, 0xe9, 0xbc,
  0xcd, 0x1d, 0xa7, 0x3d, 0x40, 0x1c, 0x7d, 0x3e, 0xa8, 0xa5, 0x75, 0xbd,
  0xba, 0xbf, 0xd9, 0x3e, 0x96, 0x53, 0x85, 0x3e, 0x42, 0xe5, 0x10, 0xbd,
  0x85, 0xaa, 0x8f, 0x3d, 0x69, 0x1b, 0x1d, 0xbe, 0x62, 0x69, 0x74, 0xbe,
  0x0a, 0x11, 0xbe, 0xbc, 0xeb, 0x41, 0xaa, 0xbe, 0x42, 0xa3, 0xb9, 0x3e,
  0xbe, 0xce, 0x1b, 0x3d, 0x20, 0xe5, 0x9a, 0xbc, 0xdf, 0x07, 0x73, 0xbe,
  0x65, 0x3d, 0x62, 0xbf, 0xcd, 0xf5, 0xf3, 0xbe, 0x58, 0xe8, 0x18, 0x3e,
  0xe2, 0x9f, 0xe5, 0xbe, 0xda, 0xf8, 0x19, 0x3f, 0xf5, 0x10, 0xee, 0xbd,
  0xdf, 0x96, 0xd5, 0x3d, 0xc0, 0xec, 0x05, 0x3b, 0x07, 0xa5, 0x7a, 0xbe,
  0xed, 0xe5, 0x56, 0x3d, 0x81, 0xc0, 0x0f, 0x3e, 0x27, 0xc2, 0x07, 0xbf,
  0x8e, 0xa4, 0xa9, 0x3e, 0x27, 0xd7, 0xc8, 0xbe, 0x22, 0x9d, 0xaa, 0x3b,
  0x9a, 0x1f, 0xda, 0xbe, 0xa5, 0x78, 0x47, 0xbe, 0x77, 0x6f, 0x9a, 0xbe,
  0x41, 0x68, 0xed, 0xbb, 0xae, 0xae, 0xae, 0xbd, 0x15, 0xcb, 0x04, 0x3e,
  0x62, 0x30, 0x08, 0xbf, 0x7f, 0xbc, 0x3e, 0xbd, 0x01, 0x67, 0xa8, 0xbe,
  0x5e, 0xe4, 0xfe, 0xbe, 0x96, 0xee, 0x45, 0x3e, 0x4a, 0x9a, 0xc7, 0xbd,
  0x7a, 0xe7, 0xb6, 0xbe, 0x2d, 0x1e, 0x63, 0x3e, 0xb9, 0xa1, 0x53, 0xbf,
  0x64, 0x79, 0x55, 0x3e, 0xd4, 0x73, 0x90, 0xbc, 0x82, 0xce, 0xac, 0xbd,
  0x37, 0x5c, 0x24, 0xbf, 0x18, 0x15, 0x9b, 0xbe, 0x8a, 0x96, 0x55, 0xbe,
  0x62, 0xb2, 0x7c, 0x3e, 0x51, 0xbe, 0x85, 0xbe, 0xc0, 0xb1, 0x90, 0x3d,
  0x38, 0xbf, 0xaf, 0x3e, 0xd7, 0x99, 0xb5, 0x3d, 0x8e, 0x09, 0x18, 0x3e,
  0xc0, 0xd3, 0x94, 0x3e, 0x4f, 0x06, 0xb2, 0x3c, 0x56, 0xec, 0x83, 0x3f,
  0x55, 0xf2, 0x97, 0x3e, 0x21, 0xb3, 0xea, 0x3e, 0x75, 0x6a, 0x4e, 0x3f,
  0xd4, 0x44, 0xfb, 0x3d, 0x1f, 0x40, 0x7f, 0x3f, 0x95, 0x57, 0x47, 0x3f,
  0xbe, 0xd6, 0xa1, 0x3d, 0x24, 0xde, 0xb6, 0x3e, 0xae, 0xaf, 0xa2, 0x3e,
  0x73, 0x8b, 0x9c, 0xbd, 0xc1, 0xe1, 0x11, 0xbd, 0x5c, 0xc6, 0x94, 0xbe,
  0xb2, 0x96, 0x55, 0x3e, 0xc7, 0x13, 0x8e, 0x3e, 0x80, 0x3d, 0x19, 0xbe,
  0xda, 0x85, 0x96, 0x3e, 0x66, 0x46, 0xf7, 0xbc, 0x12, 0x27, 0x90, 0x3e,
  0x64, 0x4c, 0xae, 0xbb, 0xd6, 0x6c, 0x63, 0x3e, 0x34, 0x45, 0x9a, 0x3d,
  0x5c, 0x40, 0xfa, 0x3d, 0x40, 0x2e, 0x3c, 0xbe, 0x41, 0xf8, 0x0f, 0xbf,
  0xb9, 0x25, 0xd8, 0xbe, 0x36, 0xcc, 0x2d, 0x3e, 0x8e, 0xd5, 0x00, 0x3d,
  0xea, 0x7a, 0x3b, 0x3e, 0xea, 0xd0, 0x56, 0x3d, 0x54, 0xae, 0x6d, 0x3c,
  0xae, 0x4b, 0x3e, 0xbf, 0xef, 0xf8, 0xa0, 0xbe, 0x47, 0xd3, 0x97, 0xbe,
  0xfd, 0x35, 0xc7, 0x3d, 0xc4, 0x25, 0xd1, 0x3d, 0x6d, 0x81, 0xa6, 0x3e,
  0xb2, 0xac, 0xa4, 0x3d, 0x24, 0xbe, 0x84, 0xbd, 0x77, 0x6a, 0xeb, 0xbe,
  0xd5, 0x89, 0xb4, 0xbe, 0x5d, 0x25, 0x00, 0xbf, 0x2f, 0xd1, 0x54, 0x3d,
  0x50, 0x06, 0x34, 0xb9, 0xe1, 0x54, 0x0d, 0xbb, 0xff, 0x0e, 0x4a, 0x3e,
  0xba, 0x3e, 0x2f, 0x3d, 0x3a, 0xba, 0x2b, 0xbe, 0x7e, 0x6f, 0xa5, 0x3e,
  0xe1, 0xa6, 0x18, 0xbf, 0xfe, 0xce, 0x00, 0xbe, 0x4f, 0xd2, 0xda, 0x3c,
  0x82, 0x06, 0xe8, 0x3d, 0x3a, 0x21, 0x75, 0x3e, 0x38, 0x31, 0x21, 0x3e,
  0x1f, 0xc8, 0xfc, 0xbe, 0x2c, 0xe6, 0xe8, 0x3e, 0xb9, 0xfb, 0xce, 0xbe,
  0xab, 0xc0, 0x37, 0xbe, 0x9f, 0xc0, 0x0c, 0xbe, 0xbe, 0x2b, 0x49, 0x3e,
  0x8a, 0xba, 0x4f, 0x3d, 0xbf, 0xbd, 0xb7, 0xbd, 0x3b, 0xd0, 0xcf, 0xbd,
  0x7f, 0xd2, 0xcf, 0x3e, 0x4a, 0x3d, 0xec, 0xbe, 0xc8, 0x57, 0xdb, 0x3c,
  0xc4, 0x57, 0x63, 0xbe, 0x6a, 0x40, 0x5b, 0x3e, 0xd2, 0x06, 0xb0, 0x3e,
  0x9e, 0x3f, 0x2e, 0xbd, 0xf7, 0x44, 0x41, 0x3e, 0x5a, 0xc9, 0x74, 0x3e,
  0xdd, 0xc1, 0x39, 0xbe, 0xeb, 0xcf, 0x75, 0x3e, 0x16, 0x9b, 0x4f, 0xbe,
  0x64, 0xd2, 0x57, 0x3e, 0x27, 0x52, 0x9b, 0x3e, 0x65, 0x18, 0x06, 0x3c,
  0x67, 0xb7, 0x09, 0x3f, 0x80, 0x09, 0x24, 0xbe, 0x41, 0x42, 0x26, 0x3e,
  0x3f, 0xf1, 0x7c, 0x3e, 0xb0, 0x2f, 0xb2, 0xbe, 0xae, 0x69, 0x41, 0x3e,
  0x9e, 0xbf, 0x0b, 0x3f, 0xd0, 0x27, 0xbe, 0x3e, 0x5b, 0x39, 0xba, 0x3e,
  0x08, 0x2b, 0x7d, 0xbe, 0x12, 0x68, 0x89, 0x3e, 0xbc, 0x1e, 0x32, 0x3e,
  0x13, 0x9a, 0xcb, 0xbe, 0xdc, 0xba, 0xa4, 0x3e, 0x0e, 0xd0, 0xa4, 0x3d,
  0x0c, 0x43, 0x01, 0x3e, 0xc4, 0x63, 0xeb, 0xbd, 0x5d, 0x7b, 0x8b, 0x3d,
  0x7e, 0x08, 0x49, 0x3d, 0xad, 0x54, 0xf6, 0x3e, 0xcf, 0xe7, 0x0a, 0xbe,
  0x85, 0xdc, 0x99, 0x3e, 0x5e, 0xd7, 0xb2, 0x3d, 0x93, 0x47, 0x3c, 0x3e,
  0x98, 0x11, 0xa2, 0xbe, 0x77, 0x84, 0xc4, 0xbd, 0x62, 0x4d, 0x21, 0xbe,
  0xa6, 0x74, 0xe2, 0x3e, 0xb0, 0x98, 0x4d, 0xbe, 0xa9, 0x19, 0xd2, 0x3e,
  0x18, 0x23, 0xd6, 0xbc, 0x3f, 0x3b, 0x12, 0x3e, 0x11, 0x0a, 0x94, 0x3d,
  0x36, 0x03, 0x92, 0xbe, 0x4b, 0x55, 0xac, 0xbd, 0xb3, 0x22, 0xfa, 0x3e,
  0xfb, 0x3b, 0x63, 0xbe, 0x56, 0xb3, 0x59, 0x3e, 0x51, 0xf4, 0x61, 0x3e,
  0x10, 0x12, 0x1e, 0x3e, 0x8f, 0x83, 0x1f, 0x3e, 0xda, 0x58, 0x32, 0xbf,
  0x8d, 0xc9, 0x2f, 0xbe, 0xdd, 0xb9, 0xd6, 0x3d, 0x68, 0xf5, 0x72, 0xbe,
  0x59, 0x59, 0xc6, 0x3e, 0x94, 0x3f, 0x02, 0x3d, 0x2f, 0x97, 0x6e, 0x3e,
  0xec, 0xcc, 0xb9, 0x3e, 0x86, 0xec, 0x86, 0xbe, 0x4d, 0x25, 0xbe, 0xbe,
  0x82, 0x88, 0x6b, 0x3e, 0xe5, 0x12, 0x6c, 0xbe, 0xd9, 0xd2, 0xc1, 0x3e,
  0x36, 0x79, 0x43, 0x3e, 0x8c, 0xd4, 0x3c, 0x3e, 0x10, 0xd8, 0x27, 0xbd,
  0xc3, 0xe0, 0x23, 0xbf, 0xca, 0x28, 0x1c, 0xbe, 0x70, 0x8d, 0x54, 0x3e,
  0x1e, 0x39, 0x8f, 0xbe, 0xbb, 0x85, 0x9b, 0x3d, 0x7c, 0x6a, 0xb8, 0x3e,
  0x7c, 0xb5, 0x7d, 0x3e, 0x6c, 0xb6, 0xb6, 0xbe, 0x16, 0x46, 0x79, 0xbf,
  0x10, 0xfd, 0x90, 0xbe, 0xc0, 0x85, 0x2f, 0x3e, 0x82, 0x4e, 0x13, 0xbe,
  0xdb, 0x28, 0x7d, 0x3e, 0xb3, 0x62, 0x26, 0x3e, 0x56, 0x23, 0x06, 0x3d,
  0x06, 0xce, 0x12, 0x3d, 0x99, 0xeb, 0x97, 0xbf, 0x3d, 0x69, 0x51, 0xbe,
  0x6a, 0x72, 0x60, 0x3e, 0x51, 0x0a, 0x39, 0xbe, 0x7d, 0x8e, 0x66, 0x3e,
  0x67, 0x10, 0x50, 0x3e, 0x05, 0x7e, 0xcc, 0x3e, 0x5e, 0x4a, 0x03, 0xbe,
  0xd0, 0x47, 0x67, 0xbf, 0x18, 0x52, 0xfe, 0xbd, 0x1a, 0x2e, 0x40, 0x3e,
  0x80, 0x2b, 0xd2, 0xbe, 0x1b, 0x09, 0x35, 0xbd, 0xf2, 0xc5, 0x1a, 0x3e,
  0x20, 0xa4, 0xfd, 0x3d, 0x41, 0xb9, 0x4c, 0x3e, 0xed, 0x82, 0x1e, 0xbf,
  0x29, 0x3e, 0x87, 0xbe, 0x8e, 0x32, 0x06, 0x3d, 0xee, 0x8c, 0x62, 0xbe,
  0xaf, 0x0b, 0x2d, 0x3e, 0xef, 0xc9, 0x83, 0x3e, 0x12, 0xeb, 0x80, 0x3e,
  0xbf, 0x2b, 0xba, 0xbe, 0xaa, 0xf1, 0x4a, 0xbf, 0xcc, 0x84, 0x04, 0xbc,
  0x01, 0x7b, 0x73, 0x3e, 0x39, 0x16, 0xa9, 0xbe, 0x37, 0x3e, 0x36, 0xbd,
  0xf2, 0x89, 0xa2, 0x3d, 0xc9, 0xb0, 0x7a, 0x3d, 0x60, 0x33, 0x17, 0xbf,
  0x30, 0x2d, 0xac, 0x3d, 0x3b, 0x20, 0x10, 0x3e, 0xa4, 0x47, 0x2a, 0x3e,
  0x41, 0xbf, 0x13, 0xbe, 0x77, 0x2d, 0x36, 0x3e, 0x66, 0x72, 0x74, 0xbc,
  0x9c, 0xa5, 0x4e, 0x3e, 0x38, 0xba, 0x87, 0x3e, 0x0c, 0x7f, 0xa8, 0xbe,
  0xc6, 0xa2, 0xc7, 0xbd, 0xd3, 0x94, 0x53, 0x3e, 0x86, 0x14, 0x58, 0xbe,
  0xb8, 0x6c, 0x06, 0xbd, 0x83, 0xfd, 0x50, 0x3e, 0x84, 0x19, 0xc6, 0x3e,
  0x49, 0xc2, 0x0d, 0xbd, 0xdc, 0x2e, 0x0b, 0xbf, 0xf2, 0x3c, 0xfb, 0xbd,
  0xa4, 0x7d, 0x61, 0x3e, 0x1a, 0xd1, 0x5a, 0xbe, 0xaa, 0x5b, 0xb8, 0x3d,
  0xde, 0x56, 0x9d, 0x3e, 0xfc, 0x47, 0xf6, 0x3d, 0x60, 0xf4, 0xac, 0xbe,
  0x72, 0x3b, 0x9b, 0xbe, 0x19, 0x7b, 0xab, 0x3c, 0xb7, 0xd5, 0x13, 0x3d,
  0x0e, 0x21, 0x5d, 0xbe, 0xd4, 0xab, 0x08, 0x3e, 0x2a, 0xbd, 0xc9, 0x3c,
  0xef, 0xd6, 0x1c, 0xbd, 0xc1, 0xd0, 0xd2, 0xbe, 0x0f, 0x85, 0x89, 0xbe,
  0xd8, 0xde, 0x1c, 0x3d, 0xc1, 0xca, 0x06, 0x3b, 0xe0, 0xf3, 0x48, 0xbd,
  0x16, 0x5f, 0x08, 0x3e, 0x5e, 0x0e, 0x9a, 0x3d, 0x80, 0xfb, 0x86, 0x3e,
  0x61, 0x6c, 0x3e, 0xbe, 0xec, 0x83, 0x0e, 0xbf, 0xeb, 0x9c, 0x30, 0x3e,
  0x1b, 0x99, 0x24, 0x3e, 0xa4, 0x80, 0x7e, 0xbe, 0x15, 0x37, 0xb4, 0x3e,
  0x18, 0x7e, 0x2a, 0x3e, 0x33, 0x07, 0x0e, 0x3e, 0x95, 0x38, 0xcb, 0xbe,
  0x72, 0xe6, 0x77, 0xbf, 0x57, 0xb7, 0x1f, 0x3c, 0x5d, 0x4b, 0x32, 0x3d,
  0xe8, 0x59, 0x2f, 0x3d, 0xa6, 0x66, 0xc3, 0x3e, 0xe4, 0x04, 0xda, 0xbd,
  0x70, 0x63, 0x7e, 0x3e, 0x83, 0x30, 0xd9, 0xbe, 0x68, 0x8a, 0x31, 0xbf,
  0xe5, 0xd8, 0x85, 0xbd, 0x5b, 0x95, 0x54, 0x3e, 0xed, 0x45, 0x95, 0xbe,
  0xf0, 0xdf, 0x28, 0x3c, 0x3e, 0x08, 0x18, 0x3e, 0x63, 0xbc, 0x8e, 0x3e,
  0xb5, 0x33, 0xc7, 0xbe, 0x2b, 0x8f, 0x70, 0xbf, 0x0c, 0x50, 0x16, 0xbf,
  0x24, 0x11, 0xe0, 0x3d, 0x95, 0xa1, 0x2a, 0x3d, 0xbd, 0x12, 0x3e, 0xbe,
  0xd8, 0x7c, 0x02, 0x3e, 0x6b, 0x50, 0x48, 0x3f, 0x0b, 0xbe, 0xc5, 0xbe,
  0x58, 0x68, 0xfd, 0xbf, 0x07, 0x84, 0x4a, 0xbf, 0xcd, 0x17, 0x56, 0xbe,
  0xf9, 0x96, 0x15, 0xbf, 0x6a, 0x1a, 0x9a, 0xbe, 0x05, 0x75, 0xc5, 0xbf,
  0x2a, 0x63, 0x60, 0x3f, 0xa0, 0xe9, 0x34, 0xbf, 0xc7, 0x60, 0xe8, 0x3e,
  0x04, 0xcd, 0xe0, 0xbb, 0x96, 0x2f, 0xf1, 0x3d, 0x6d, 0x4b, 0xf4, 0x3e,
  0x6b, 0x5e, 0x69, 0xbd, 0xa7, 0xe0, 0x2b, 0xbe, 0x6f, 0xb0, 0x0a, 0xbe,
  0x46, 0x99, 0xf8, 0xbd, 0xcb, 0x4d, 0x58, 0xbf, 0x7c, 0x0b, 0xcf, 0x3e,
  0x1e, 0x24, 0x97, 0xbd, 0x2b, 0x76, 0x39, 0x3e, 0xb5, 0xc7, 0x6b, 0xbc,
  0x09, 0x0c, 0x56, 0xbb, 0xc3, 0x02, 0x35, 0x3e, 0x39, 0x98, 0x16, 0xbc,
  0xfb, 0xc5, 0x98, 0xbf, 0x0c, 0x0a, 0x1e, 0x3d, 0xe2, 0x8e, 0x78, 0x3e,
  0xbe, 0xdc, 0x35, 0xbc, 0x7f, 0xc6, 0x29, 0xbe, 0x87, 0x45, 0x67, 0x3e,
  0x8b, 0x34, 0xff, 0xbd, 0x0f, 0x1e, 0x29, 0xbe, 0xe7, 0x3c, 0x5a, 0xbf,
  0xa7, 0x09, 0x39, 0x3d, 0x67, 0xbc, 0xa5, 0x3b, 0x21, 0x9c, 0x25, 0xbc,
  0x0d, 0x67, 0x24, 0xbc, 0xa8, 0xd6, 0xb9, 0x3e, 0xca, 0xae, 0xde, 0xbb,
  0x2b, 0xdd, 0x12, 0xbe, 0xac, 0x5c, 0x21, 0xbf, 0xa4, 0xd8, 0xee, 0xbd,
  0xdd, 0xca, 0x31, 0x3e, 0x0a, 0xcb, 0x7f, 0x3c, 0xd9, 0xec, 0xd1, 0x3b,
  0xbd, 0xb8, 0x40, 0x3f, 0xa1, 0x25, 0xa7, 0xbd, 0xd6, 0x96, 0x13, 0xbf,
  0x87, 0x47, 0xd4, 0xbd, 0x8b, 0xb4, 0x09, 0xbe, 0x1f, 0xa9, 0xe0, 0x3d,
  0x38, 0xe7, 0xbc, 0x3d, 0x8f, 0x26, 0x32, 0x3e, 0xd1, 0xf4, 0xc1, 0x3e,
  0x2c, 0x46, 0xad, 0x3d, 0x28, 0x41, 0x2d, 0xbe, 0x13, 0x78, 0x53, 0xbf,
  0x54, 0x61, 0x41, 0xbe, 0x4a, 0x5c, 0x5d, 0x3d, 0x47, 0xe1, 0x19, 0x3e,
  0x1f, 0xcf, 0x30, 0x3e, 0x57, 0xe9, 0xd8, 0x3e, 0x65, 0xc4, 0x10, 0xbe,
  0x1e, 0x63, 0x73, 0xbe, 0x39, 0x49, 0x43, 0xbe, 0x41, 0xf7, 0xb2, 0xbc,
  0x61, 0x3a, 0x30, 0xbd, 0x44, 0x2b, 0x16, 0x3e, 0x63, 0x36, 0xee, 0x3d,
  0x3c, 0x6a, 0xe3, 0x3e, 0x1f, 0xdd, 0x38, 0xbc, 0x65, 0x5e, 0x42, 0xbe,
  0xc4, 0x18, 0xc2, 0x3e, 0x88, 0x18, 0x20, 0xbe, 0x30, 0x12, 0xa2, 0x3d,
  0x1e, 0x43, 0x0c, 0x3e, 0x44, 0x71, 0xf8, 0x3e, 0x52, 0x17, 0xb0, 0x3e,
  0x07, 0x6e, 0xfc, 0xbd, 0x1e, 0xda, 0x01, 0xbe, 0x88, 0xab, 0xa0, 0xbe,
  0x8b, 0xd1, 0x38, 0xbd, 0xf4, 0xeb, 0x1d, 0x3d, 0x37, 0x6b, 0xe9, 0x3d,
  0x90, 0x56, 0x8a, 0x3e, 0xbd, 0x2c, 0x03, 0x3f, 0x82, 0x0d, 0xa2, 0xbd,
  0x04, 0x67, 0x18, 0xbd, 0x9e, 0x2a, 0x38, 0xbe, 0xc9, 0x3a, 0x79, 0xbe,
  0x73, 0x7e, 0xc4, 0x3e, 0x00, 0x7b, 0x69, 0x3e, 0x75, 0x8d, 0x87, 0x3e,
  0xe9, 0xf1, 0x43, 0x3f, 0x98, 0x10, 0x4f, 0x3e, 0x35, 0x42, 0x9b, 0xbe,
  0xda, 0x8d, 0x09, 0xbf, 0xdf, 0xd7, 0x67, 0xbe, 0xc0, 0x26, 0x93, 0xbb,
  0x21, 0xad, 0x64, 0x3e, 0x2e, 0x63, 0x17, 0x3e, 0xdd, 0xe6, 0x9f, 0x3e,
  0xf2, 0xa1, 0x1c, 0xbe, 0x1e, 0x28, 0x88, 0x3d, 0x5f, 0x7e, 0xb6, 0xbd,
  0x01, 0xa2, 0xf9, 0x3d, 0x81, 0x1a, 0xe0, 0x3d, 0x5c, 0x03, 0xba, 0x3d,
  0x55, 0xdf, 0xc3, 0xbc, 0xa6, 0xeb, 0x5a, 0x3e, 0x6f, 0x71, 0x87, 0xbe,
  0xdd, 0x2a, 0x0a, 0xbd, 0xbf, 0xd1, 0xd6, 0xbe, 0x22, 0xac, 0x21, 0xbe,
  0x03, 0x42, 0x57, 0x3d, 0xd8, 0x2f, 0xc7, 0x3d, 0x47, 0xd0, 0x96, 0x3d,
  0x59, 0xeb, 0xbf, 0x3e, 0x07, 0x43, 0xb7, 0x3d, 0x51, 0x6d, 0x57, 0xbd,
  0x48, 0xc7, 0x5d, 0xbf, 0xb4, 0xe8, 0xcc, 0xbd, 0x30, 0x55, 0x55, 0xbd,
  0x5f, 0x48, 0x26, 0x3e, 0x24, 0x4d, 0x7d, 0x3e, 0x4d, 0x45, 0x8f, 0x3e,
  0x6f, 0x86, 0x4d, 0xbc, 0x3f, 0x3d, 0xc4, 0xbe, 0x0f, 0xc4, 0x93, 0xbe,
  0x80, 0x66, 0x8e, 0x3d, 0x2b, 0xe9, 0x9b, 0x3e, 0x5b, 0x5e, 0xc1, 0xbc,
  0xde, 0xf6, 0x88, 0x3e, 0x7a, 0x79, 0xca, 0x3e, 0xf4, 0x5b, 0x39, 0xbe,
  0x45, 0x23, 0x90, 0xbe, 0xad, 0xa3, 0xff, 0xbe, 0x32, 0xfa, 0xc9, 0xbd,
  0x22, 0xad, 0x2e, 0x3d, 0xd2, 0xa8, 0x17, 0x3e, 0x7c, 0xb7, 0x89, 0x3e,
  0x3b, 0x3e, 0x81, 0x3e, 0xd7, 0x5c, 0x91, 0xbd, 0x8e, 0x37, 0xe8, 0xbd,
  0xb6, 0x6e, 0xab, 0xbe, 0x11, 0x29, 0xf5, 0xbd, 0x27, 0xe6, 0xfb, 0x3d,
  0xdd, 0x9d, 0xf2, 0x3d, 0xaf, 0xa8, 0x72, 0xbd, 0x4d, 0x4b, 0xec, 0x3e,
  0x55, 0x01, 0xae, 0xbe, 0xfa, 0x58, 0x65, 0xbe, 0x6b, 0xe8, 0x01, 0xbf,
  0x71, 0x39, 0x91, 0xbd, 0x2f, 0xd4, 0x95, 0x3d, 0x47, 0x82, 0xbd, 0x3d,
  0x6e, 0x16, 0x88, 0x3e, 0x2b, 0x43, 0x52, 0x3e, 0x69, 0x39, 0x88, 0xbe,
  0x7d, 0x0c, 0x5d, 0xbe, 0x8a, 0x3d, 0x33, 0xbf, 0x2b, 0xb8, 0x2d, 0x3c,
  0x7c, 0x6c, 0xe9, 0x3d, 0x58, 0xea, 0xe7, 0x3c, 0xa5, 0xd5, 0x28, 0x3e,
  0xa4, 0xf3, 0xbf, 0x3e, 0xca, 0xc7, 0x1d, 0x3d, 0xde, 0x9a, 0x02, 0xbe,
  0x33, 0xdb, 0x21, 0xbc, 0x5b, 0x64, 0x31, 0xbd, 0xda, 0x17, 0xce, 0x3c,
  0x0d, 0x64, 0x6c, 0x3d, 0x6a, 0xfa, 0x2a, 0x3e, 0xe1, 0xb1, 0x81, 0x3e,
  0x50, 0x14, 0xc5, 0xbd, 0x6c, 0x11, 0xaf, 0xbe, 0xf7, 0x14, 0x6f, 0xbe,
  0x2e, 0xb9, 0x5c, 0xbb, 0xc4, 0x76, 0x3e, 0x3e, 0x7a, 0xd4, 0xa9, 0x3d,
  0x77, 0x82, 0xf2, 0x3d, 0x38, 0x71, 0xca, 0x3e, 0xf0, 0xb1, 0xb6, 0xbc,
  0x27, 0x65, 0x19, 0x3c, 0x7a, 0x2f, 0xaa, 0xbe, 0x19, 0x0b, 0x9e, 0xbe,
  0x24, 0x52, 0x4b, 0x3e, 0xc3, 0x31, 0x39, 0x3e, 0x05, 0x66, 0xd8, 0xbd,
  0x0e, 0x20, 0x73, 0x3e, 0xe0, 0x7b, 0xb2, 0x3c, 0x18, 0x30, 0x0b, 0xbf,
  0xde, 0xe9, 0x02, 0xbf, 0x53, 0x4c, 0xbc, 0xbe, 0x8a, 0xde, 0x55, 0x3e,
  0x2b, 0x4d, 0xf9, 0xbc, 0xe6, 0xca, 0x89, 0x3e, 0x84, 0x47, 0xc1, 0x3e,
  0x97, 0x00, 0x88, 0xbd, 0x28, 0x14, 0x2b, 0x3d, 0x43, 0x5d, 0x74, 0xbf,
  0xbd, 0x1e, 0xb5, 0xbd, 0xcf, 0xbe, 0xd2, 0x3d, 0x02, 0x88, 0x6c, 0x3d,
  0x88, 0x53, 0x29, 0x3e, 0xa5, 0x52, 0x95, 0x3e, 0xa3, 0xb2, 0x7a, 0x3e,
  0x86, 0xab, 0xf0, 0xbe, 0xef, 0xe0, 0x16, 0x3d, 0x2a, 0xfe, 0xab, 0xbe,
  0x28, 0xc2, 0xc4, 0x3d, 0xd9, 0x7e, 0x02, 0x3d, 0xb2, 0x95, 0x29, 0xbc,
  0x59, 0x11, 0x85, 0x3e, 0xcf, 0xc2, 0x8f, 0x3d, 0x7e, 0x39, 0x78, 0xbe,
  0x98, 0x02, 0x5d, 0xbe, 0x42, 0xa4, 0xae, 0xbe, 0x1c, 0x0c, 0xd1, 0x3d,
  0x34, 0x70, 0x0b, 0x3e, 0x09, 0x6c, 0x0e, 0x3c, 0x45, 0x55, 0x14, 0x3f,
  0xc9, 0x18, 0x17, 0x3e, 0xfa, 0x7c, 0xf0, 0xbe, 0xfa, 0x49, 0x1b, 0xbf,
  0x5b, 0xe3, 0x75, 0xbe, 0x28, 0xa8, 0x0d, 0x3e, 0xf3, 0x53, 0xad, 0x3d,
  0x93, 0x75, 0x26, 0x3e, 0x6f, 0x2b, 0xf9, 0x3e, 0x58, 0xff, 0x3b, 0xbe,
  0xe3, 0x3e, 0x2f, 0x3d, 0x09, 0x17, 0xd1, 0xbe, 0x06, 0x77, 0x21, 0xbc,
  0xc0, 0x4c, 0x0b, 0x3e, 0x06, 0x3b, 0x8c, 0x3e, 0x7a, 0x39, 0x28, 0x3d,
  0x86, 0x18, 0xec, 0x3e, 0x60, 0x8e, 0x99, 0x3e, 0x6a, 0x31, 0x0f, 0x3e,
  0x0e, 0x8a, 0x86, 0xbf, 0x09, 0xd1, 0x69, 0x3e, 0x07, 0x7c, 0x35, 0x3e,
  0x34, 0xf2, 0x48, 0x3d, 0xca, 0x6b, 0x99, 0x3b, 0xe5, 0xbb, 0xba, 0x3e,
  0x3d, 0x33, 0x4b, 0xbe, 0xe0, 0x9a, 0x1d, 0x3e, 0x5f, 0x65, 0xbb, 0xbf,
  0x3d, 0x52, 0xea, 0x3d, 0x02, 0xb0, 0xa5, 0x3e, 0x29, 0x06, 0x6a, 0x3f,
  0xc3, 0x9c, 0x5c, 0x3d, 0x8a, 0x85, 0x79, 0x3d, 0x69, 0x90, 0x3b, 0x3f,
  0x37, 0x13, 0xa3, 0x3e, 0x83, 0xd9, 0x40, 0xbf, 0xaa, 0x9a, 0x3b, 0x3e,
  0x79, 0x51, 0x99, 0x3d, 0x98, 0x90, 0x46, 0xbf, 0xd6, 0x67, 0x08, 0x3d,
  0x2c, 0x52, 0xb0, 0x3f, 0x83, 0x43, 0xad, 0x3d, 0x7e, 0xfc, 0x6f, 0x3d,
  0x0d, 0x44, 0x90, 0xbe, 0x0d, 0x1c, 0xfc, 0x3e, 0xde, 0x94, 0x8b, 0xbf,
  0xc1, 0x71, 0xad, 0xbe, 0x7d, 0x3a, 0xd8, 0x3d, 0x73, 0x61, 0x08, 0xbf,
  0x9c, 0x5c, 0xf7, 0xbe, 0x2c, 0x97, 0x8f, 0x3e, 0xdf, 0xd4, 0xea, 0x3e,
  0xbc, 0x66, 0x02, 0x3e, 0x9f, 0xf8, 0x9f, 0xbd, 0x45, 0x6f, 0x3a, 0x3e,
  0x0c, 0xbb, 0x02, 0x3e, 0x46, 0x47, 0x4e, 0xbe, 0xf8, 0x02, 0x99, 0x3e,
  0x47, 0x91, 0x31, 0x3e, 0x65, 0xaa, 0x51, 0xbc, 0x99, 0xbd, 0x8c, 0x3c,
  0x5d, 0xd0, 0xa5, 0xbd, 0xc0, 0x5a, 0x1b, 0x3e, 0x51, 0xd7, 0x22, 0x3d,
  0x27, 0xe3, 0xe0, 0xbe, 0xab, 0xd1, 0x3e, 0x3d, 0x74, 0x0c, 0xee, 0xbc,
  0x10, 0xe2, 0x74, 0xbf, 0xf2, 0xd0, 0x0e, 0xbd, 0x6b, 0xf4, 0xb7, 0x3d,
  0x23, 0x12, 0x02, 0x3e, 0xc1, 0xfe, 0xd6, 0x3c, 0x84, 0xf6, 0xe6, 0xbd,
  0x4a, 0x72, 0xee, 0x3e, 0xdd, 0xe3, 0xd8, 0xbd, 0x89, 0x10, 0x63, 0xbf,
  0x8f, 0x3b, 0x2a, 0xbe, 0x32, 0xe4, 0x3b, 0x3d, 0x8b, 0x70, 0x61, 0x3e,
  0xe4, 0x28, 0x7d, 0x3e, 0x01, 0x2b, 0xd6, 0xbd, 0xc0, 0x2e, 0x82, 0x3e,
  0xc6, 0xea, 0xb8, 0xbe, 0xc1, 0x0b, 0xbb, 0xbe, 0x64, 0xb1, 0x53, 0xbd,
  0xa2, 0x7e, 0x1a, 0xbd, 0xa7, 0xea, 0x76, 0x3d, 0xb8, 0xa6, 0x0b, 0x3d,
  0xa5, 0x4a, 0xb1, 0xbe, 0xb9, 0xe7, 0xaf, 0x3d, 0xce, 0x64, 0x3c, 0xbd,
  0xd7, 0xa6, 0x29, 0xbf, 0x4a, 0x43, 0x16, 0x3c, 0x02, 0xb4, 0x24, 0x3d,
  0xb5, 0xcc, 0x17, 0x3e, 0xa0, 0x7b, 0xa5, 0x3e, 0x44, 0xae, 0x8b, 0xbe,
  0x63, 0x75, 0x77, 0x3e, 0x4a, 0xc0, 0x9d, 0xbd, 0xb9, 0x60, 0xe8, 0xbe,
  0xc7, 0x92, 0x71, 0xbe, 0xbd, 0x14, 0x03, 0xbc, 0x24, 0xc1, 0x85, 0x3d,
  0xb5, 0x00, 0x87, 0x3e, 0x25, 0x36, 0x26, 0xbe, 0x2a, 0x58, 0x74, 0x3c,
  0xe1, 0xf0, 0x7f, 0xbe, 0x57, 0x83, 0x27, 0x3d, 0xb7, 0xa5, 0xcc, 0xbd,
  0xb6, 0x92, 0xe6, 0xbd, 0xec, 0xaf, 0x15, 0x3e, 0xe4, 0x8d, 0xfb, 0xbb,
  0x56, 0x12, 0x85, 0xbe, 0x5a, 0xb5, 0x0f, 0xbe, 0x49, 0xe0, 0xdd, 0x3c,
  0xd3, 0x6a, 0x6a, 0xbe, 0xa8, 0x87, 0x0e, 0xbe, 0x4d, 0x38, 0x55, 0x3d,
  0x4c, 0xb3, 0x5b, 0x3e, 0x10, 0xef, 0xfe, 0x3d, 0x4f, 0x24, 0x80, 0xbe,
  0x3f, 0x4f, 0x12, 0x3e, 0xed, 0x9e, 0x35, 0x3e, 0x6b, 0x9e, 0xc9, 0x3e,
  0x29, 0x84, 0x00, 0xbf, 0xfc, 0x2d, 0xef, 0xbb, 0x12, 0xa0, 0xaf, 0x3e,
  0x2b, 0xff, 0xd4, 0x3d, 0x0b, 0x14, 0xb1, 0xbd, 0x10, 0xab, 0x11, 0xbe,
  0xf0, 0x4d, 0xfa, 0xbd, 0x53, 0xf7, 0x6e, 0xbc, 0x90, 0x67, 0xc5, 0xbe,
  0x5e, 0x6a, 0xf0, 0xbd, 0xe2, 0x5d, 0x83, 0x3e, 0xb7, 0x4a, 0x1f, 0x3d,
  0xfc, 0xee, 0x8c, 0xbe, 0x4c, 0x9b, 0x01, 0xbe, 0xca, 0x1b, 0x9b, 0xbe,
  0x5b, 0x14, 0xae, 0xbe, 0xe5, 0xcd, 0x9c, 0xbe, 0xee, 0x69, 0xe3, 0xbc,
  0x55, 0x1e, 0xe4, 0x3e, 0x7d, 0xa7, 0x19, 0x3b, 0xb0, 0xbb, 0x5a, 0x3d,
  0xaf, 0x89, 0xaa, 0xbb, 0x48, 0xa6, 0x47, 0xbe, 0xfd, 0x37, 0xc6, 0xbc,
  0xe4, 0x2a, 0x96, 0xbe, 0x67, 0xdd, 0x3d, 0xbe, 0x00, 0x78, 0xeb, 0x3e,
  0x30, 0x5c, 0x4f, 0xbd, 0xbd, 0x04, 0x36, 0xbe, 0x11, 0xb2, 0x86, 0xbe,
  0x04, 0xdb, 0xa4, 0x3d, 0xf0, 0x26, 0x0c, 0x3f, 0x57, 0x1f, 0x18, 0xbe,
  0x4d, 0xf1, 0xab, 0xbd, 0xb6, 0x0f, 0xa6, 0x3e, 0x96, 0x88, 0xa7, 0xbe,
  0x9b, 0xa1, 0x0f, 0xbd, 0x02, 0xa3, 0xf3, 0xbd, 0xf3, 0x0f, 0x51, 0xbd,
  0xe1, 0x0b, 0x24, 0x3f, 0x96, 0x63, 0xbf, 0xbd, 0x62, 0x2d, 0x75, 0xbd,
  0xe8, 0xa3, 0xd1, 0x3e, 0xb7, 0x2e, 0x1b, 0x3e, 0x69, 0xa5, 0xc2, 0xbd,
  0xe4, 0x40, 0x01, 0x3f, 0x82, 0x7e, 0x2c, 0x3e, 0xe0, 0x66, 0xe4, 0x3e,
  0x78, 0x1d, 0xf6, 0xbd, 0x5e, 0xcc, 0xe7, 0xbe, 0x7b, 0xb2, 0x3d, 0x3f,
  0xe2, 0x0c, 0x9b, 0xbe, 0x78, 0x25, 0x0f, 0xbf, 0x85, 0x5a, 0x7d, 0xbb,
  0x68, 0x5e, 0xc3, 0x3d, 0xdb, 0x06, 0x78, 0x3f, 0xd7, 0x6a, 0xe4, 0xbd,
  0x15, 0x83, 0x24, 0xbe, 0xc0, 0xa2, 0x8c, 0x3e, 0x8c, 0xac, 0x1a, 0xbf,
  0x1f, 0x55, 0x64, 0x3d, 0x98, 0xe2, 0x1c, 0x3e, 0xb1, 0xd6, 0x2e, 0xbe,
  0xf9, 0x36, 0x1b, 0xbe, 0x34, 0x4d, 0xa7, 0x3d, 0x2d, 0x07, 0x29, 0xbe,
  0xa6, 0x99, 0x79, 0x3e, 0x2e, 0x13, 0xcb, 0xbd, 0xc8, 0x04, 0x28, 0xbe,
  0x83, 0x66, 0xba, 0xbc, 0x62, 0xf3, 0x93, 0x3e, 0xa3, 0x55, 0x88, 0x3e,
  0x54, 0x8b, 0x7c, 0xbc, 0x26, 0xfb, 0x56, 0xbe, 0x3c, 0xf5, 0xcd, 0x3e,
  0xd4, 0x75, 0x99, 0xbd, 0x91, 0x83, 0xa4, 0xbe, 0x03, 0x81, 0x11, 0xbe,
  0x27, 0x9d, 0x8a, 0x3c, 0x3a, 0xc7, 0x61, 0x3f, 0x9b, 0x08, 0x77, 0xbc,
  0x57, 0x01, 0x7a, 0xbe, 0xd2, 0x33, 0xfc, 0x3d, 0x40, 0xed, 0x5a, 0xbe,
  0x74, 0xad, 0xb6, 0xba, 0xf5, 0x4c, 0x89, 0xbd, 0x93, 0xf6, 0x21, 0x3e,
  0xbc, 0x58, 0xb3, 0x3e, 0xcf, 0xf9, 0xca, 0x3d, 0xc7, 0x26, 0xf4, 0xbd,
  0xd7, 0xb3, 0x0d, 0xbf, 0xc8, 0x16, 0x21, 0xbe, 0xd0, 0x45, 0x41, 0xbe,
  0x71, 0xda, 0x6a, 0x3d, 0x60, 0x12, 0x04, 0x3d, 0xbb, 0x47, 0x01, 0xbd,
  0x7a, 0x31, 0xd6, 0x3d, 0xf5, 0x81, 0x81, 0xbe, 0xef, 0xb8, 0xc6, 0xbd,
  0x6b, 0x28, 0x70, 0xbe, 0x5e, 0x33, 0xea, 0x3d, 0xda, 0xae, 0x8a, 0xbe,
  0x66, 0x50, 0x51, 0xbd, 0xc1, 0x24, 0xdf, 0x3d, 0x8e, 0xcc, 0xfa, 0x3b,
  0x6c, 0x53, 0x95, 0xbe, 0x53, 0xd3, 0x2f, 0xbe, 0xf0, 0xac, 0xaa, 0x3d,
  0x06, 0xd4, 0x4a, 0x3e, 0x68, 0xee, 0xff, 0x3d, 0x95, 0x4d, 0xdb, 0xbd,
  0x5e, 0x44, 0x0a, 0xbd, 0xfb, 0xbf, 0x78, 0x3d, 0x72, 0x1c, 0x3e, 0xbf,
  0x70, 0xde, 0xaa, 0xbe, 0xbc, 0x6f, 0x77, 0x3e, 0xcb, 0x40, 0x18, 0xbf,
  0x48, 0xf0, 0x84, 0xbe, 0x92, 0xa1, 0x4a, 0x3e, 0x48, 0xce, 0x15, 0x3e,
  0xd5, 0x27, 0xf2, 0x3d, 0xd1, 0x9f, 0x0b, 0xbf, 0xe8, 0x74, 0x15, 0x3e,
  0x4f, 0x81, 0x04, 0x3d, 0x4b, 0x71, 0x06, 0xbf, 0xb6, 0xa4, 0xd0, 0x3c,
  0x6b, 0x30, 0xc0, 0xbd, 0x25, 0xba, 0x08, 0xbe, 0x14, 0x11, 0x6d, 0x3d,
  0x69, 0xe6, 0x6f, 0xbf, 0x63, 0x34, 0x3a, 0xbf, 0x06, 0xe5, 0x05, 0xbc,
  0xe5, 0xbb, 0x44, 0xbf, 0xa1, 0x39, 0x9e, 0x3d, 0xc3, 0xa3, 0xe4, 0x3d,
  0xab, 0xf0, 0x1a, 0x3d, 0x6d, 0x4d, 0xd0, 0x3d, 0x3d, 0x01, 0x5b, 0xbf,
  0x96, 0x22, 0xa0, 0xbf, 0xe1, 0x96, 0x44, 0xbe, 0x50, 0x0e, 0x50, 0xbf,
  0xfe, 0x47, 0x9f, 0x3b, 0xd8, 0xd4, 0x55, 0x3d, 0xb2, 0x73, 0x8a, 0x3e,
  0xd6, 0x28, 0xd0, 0x3d, 0x64, 0xee, 0x88, 0xbf, 0x60, 0x1e, 0x82, 0xbf,
  0xa3, 0x4a, 0xff, 0xbe, 0x50, 0xd0, 0x11, 0xbf, 0x6d, 0xfd, 0x57, 0xbd,
  0xb7, 0xfb, 0xb7, 0xbd, 0xa1, 0x87, 0x04, 0x3d, 0xb8, 0x8c, 0x22, 0x3e,
  0x3d, 0xa3, 0x93, 0xbf, 0xf9, 0x3c, 0x5d, 0xbf, 0x11, 0x62, 0xd4, 0xbe,
  0x87, 0x28, 0xd1, 0xbe, 0xa0, 0x49, 0x8a, 0xbe, 0x88, 0xa3, 0x20, 0x3d,
  0x18, 0x7f, 0xea, 0x3e, 0x80, 0xbb, 0xa0, 0x3d, 0xc9, 0xee, 0x2a, 0xbf,
  0xf0, 0x85, 0x87, 0xbf, 0x72, 0xde, 0xae, 0x3d, 0x12, 0x46, 0xc5, 0xbd,
  0x03, 0xe8, 0x95, 0xbf, 0xa9, 0x3a, 0x29, 0xbe, 0x86, 0x3a, 0x47, 0x3f,
  0x07, 0xac, 0x8c, 0x3e, 0x20, 0xc2, 0x41, 0xbf, 0x56, 0xe4, 0x38, 0xbe,
  0xa4, 0xeb, 0xf4, 0x3c, 0x48, 0xe6, 0x84, 0x3e, 0x78, 0x48, 0xfb, 0xbe,
  0x28, 0xed, 0x04, 0x3e, 0x3d, 0x94, 0xe7, 0x3d, 0xf6, 0xe2, 0x13, 0xbf,
  0xc2, 0x21, 0x43, 0x3f, 0xc4, 0x8b, 0x03, 0x3e, 0xf7, 0xfd, 0x87, 0xbd,
  0x39, 0x1d, 0xc9, 0xbd, 0xb5, 0xbd, 0x8f, 0xbe, 0xc0, 0x55, 0xf1, 0xbe,
  0x32, 0x8c, 0x3d, 0xbe, 0xdf, 0x76, 0x7a, 0xbe, 0x8c, 0x85, 0x6b, 0xbe,
  0xfb, 0x0c, 0x1d, 0x3c, 0x3c, 0x47, 0x64, 0xbe, 0xde, 0x7c, 0x50, 0x3d,
  0xbb, 0x94, 0x4a, 0xbe, 0x1c, 0x83, 0xa1, 0xbe, 0xa5, 0xa6, 0x59, 0xbe,
  0x90, 0xeb, 0x07, 0xbe, 0x4c, 0x96, 0x1a, 0xbf, 0x72, 0xdd, 0x60, 0xbd,
  0xee, 0x17, 0x53, 0xbe, 0x75, 0x69, 0xc3, 0x3e, 0x0a, 0x9b, 0xb2, 0xbe,
  0x97, 0x6d, 0x93, 0xbe, 0xa0, 0x62, 0x26, 0x3e, 0x53, 0x30, 0x7b, 0x3d,
  0x94, 0x80, 0x26, 0xbe, 0x91, 0xcb, 0x95, 0xbe, 0x22, 0x77, 0x65, 0xbc,
  0xb9, 0xa6, 0x38, 0x3e, 0x16, 0x4e, 0xe1, 0xbd, 0x74, 0xd5, 0x02, 0x3e,
  0x81, 0x68, 0xf5, 0x3e, 0xc4, 0x77, 0x0c, 0x3e, 0x91, 0x4d, 0x65, 0xbf,
  0xd4, 0x3b, 0xcc, 0xbe, 0xaf, 0x45, 0x98, 0xbd, 0x83, 0xc2, 0xa1, 0x3e,
  0x17, 0x29, 0x1b, 0xbe, 0x12, 0xd7, 0x80, 0xbd, 0x97, 0xb6, 0x87, 0x3e,
  0xe7, 0x60, 0x3d, 0x3e, 0x5b, 0xda, 0xcd, 0xbe, 0xfb, 0xc4, 0x55, 0xbe,
  0xe5, 0xb7, 0x86, 0x3e, 0x40, 0xbc, 0x7d, 0x3c, 0x00, 0x96, 0x45, 0x3e,
  0xba, 0x0f, 0x62, 0xbe, 0x2c, 0xd8, 0xac, 0x3e, 0xa5, 0xf5, 0x67, 0x3e,
  0x29, 0xcb, 0x43, 0xbf, 0x07, 0xc2, 0xb7, 0xbe, 0x67, 0x6a, 0x51, 0xbe,
  0x84, 0x49, 0x97, 0x3d, 0x20, 0x66, 0xc9, 0xbd, 0x4a, 0xea, 0x5d, 0x3e,
  0xbd, 0x54, 0x81, 0x3e, 0x2a, 0x79, 0x0a, 0x3e, 0x36, 0x34, 0x25, 0xbc,
  0xac, 0xb7, 0x09, 0xbe, 0x2f, 0x72, 0x23, 0xbc, 0x53, 0x40, 0x1a, 0xbf,
  0x2e, 0xaa, 0xa1, 0x3e, 0x02, 0x9f, 0x09, 0x3e, 0x2f, 0xb7, 0xa9, 0x3e,
  0x86, 0x26, 0xb2, 0x3d, 0x00, 0x09, 0x05, 0x3d, 0x2f, 0xf5, 0xca, 0x3d,
  0xf9, 0x7d, 0x18, 0xbe, 0xcc, 0x9a, 0x20, 0xbd, 0xa2, 0xa0, 0x75, 0x3e,
  0xb1, 0x2e, 0x0d, 0xbd, 0xfb, 0xc4, 0x79, 0x3e, 0x98, 0x57, 0x1a, 0x3e,
  0x54, 0xe2, 0x25, 0xbe, 0x6d, 0x45, 0xac, 0x3e, 0x19, 0xa1, 0xb8, 0xbd,
  0x7a, 0x94, 0x22, 0xbf, 0xa0, 0x48, 0x4f, 0x3e, 0x86, 0xd9, 0x76, 0xbd,
  0xfc, 0x02, 0x05, 0x3e, 0x00, 0xb3, 0xca, 0x3d, 0xe3, 0xa9, 0x30, 0x3e,
  0x31, 0x87, 0x11, 0xbe, 0x29, 0x0c, 0x03, 0xbf, 0xb6, 0x91, 0x5a, 0xbe,
  0x48, 0x57, 0x6b, 0x3e, 0xd4, 0xdc, 0xfd, 0x3d, 0x59, 0x7b, 0x80, 0x3e,
  0x71, 0xd8, 0xa0, 0x3e, 0xe3, 0x7c, 0x3d, 0xbe, 0x6a, 0xb1, 0x0d, 0x3f,
  0x13, 0x41, 0xec, 0xbe, 0x87, 0x38, 0x4e, 0x3a, 0x28, 0xe1, 0xd4, 0x3d,
  0x9c, 0x48, 0x43, 0x3e, 0xee, 0x9e, 0x9b, 0x3e, 0xbb, 0x52, 0xf7, 0xbb,
  0xf8, 0x3f, 0xff, 0xbd, 0xfe, 0x6f, 0x82, 0x3e, 0x84, 0xe8, 0xc8, 0xbe,
  0xab, 0x44, 0x42, 0xbf, 0x26, 0xc1, 0x29, 0x3c, 0xda, 0x9f, 0x9a, 0x3b,
  0x87, 0xb6, 0xb0, 0x3e, 0x54, 0xbd, 0x0e, 0x3e, 0x39, 0x07, 0x78, 0xbe,
  0xd2, 0x6f, 0x8a, 0x3e, 0xfb, 0xd1, 0xb5, 0xbe, 0x1c, 0x34, 0x69, 0xbd,
  0xac, 0x2d, 0x20, 0x3e, 0x43, 0x8d, 0x32, 0x3e, 0x0d, 0xcc, 0x0b, 0x3f,
  0xa5, 0xc4, 0x13, 0x3e, 0xfc, 0x73, 0x92, 0x3d, 0xe2, 0x0e, 0x41, 0xbf,
  0x67, 0x55, 0x09, 0xbf, 0x50, 0xa9, 0xa7, 0x3d, 0xb5, 0x27, 0xfa, 0xbd,
  0x63, 0xd2, 0x56, 0x3e, 0xad, 0x55, 0xf6, 0x3d, 0xe3, 0xa8, 0xba, 0x3c,
  0xe3, 0x1c, 0x07, 0xbf, 0xd4, 0x6e, 0x4c, 0xbf, 0x40, 0xdf, 0x08, 0xbe,
  0x61, 0x62, 0xaf, 0x3e, 0x2b, 0xc1, 0x54, 0xbe, 0xf7, 0xc4, 0x24, 0x3d,
  0xa6, 0x75, 0x0b, 0x3f, 0x4c, 0x4e, 0x93, 0x3c, 0xc6, 0x50, 0x42, 0xbf,
  0x2a, 0x0e, 0x74, 0xbe, 0xa3, 0xf0, 0x46, 0x3e, 0x34, 0x55, 0x94, 0x3e,
  0xe3, 0x9b, 0x81, 0xbe, 0x7e, 0x2a, 0x92, 0x3e, 0xd0, 0x40, 0x7f, 0x3e,
  0xfb, 0x0d, 0x67, 0x3e, 0x36, 0xd1, 0x8f, 0xbf, 0xf8, 0x23, 0x05, 0xbf,
  0x0f, 0x02, 0x87, 0xbe, 0x2a, 0x47, 0x9c, 0xbd, 0x4e, 0xe7, 0xc3, 0xbe,
  0x68, 0x8c, 0x0e, 0x3f, 0x76, 0x82, 0xeb, 0x3e, 0x4a, 0x49, 0xe3, 0x3d,
  0xfd, 0x45, 0xd9, 0xbe, 0x6e, 0xe5, 0xfe, 0xbe, 0xac, 0x4c, 0x9d, 0xbe,
  0x38, 0xd7, 0xf1, 0xbe, 0xbd, 0x9d, 0x98, 0xbe, 0x05, 0x16, 0xe1, 0x3d,
  0xca, 0x18, 0x0c, 0x3d, 0x98, 0xb0, 0xf5, 0x3d, 0x0e, 0x1a, 0x57, 0xbf,
  0xa3, 0x84, 0x50, 0xbe, 0x17, 0x74, 0x77, 0xbe, 0x0f, 0x58, 0x6c, 0x3e,
  0x9d, 0x02, 0x3b, 0xbb, 0x41, 0xd1, 0xd2, 0x3e, 0x19, 0x7d, 0x95, 0xbd,
  0x9a, 0x43, 0x58, 0x3d, 0x63, 0x99, 0xfd, 0xbe, 0x92, 0x06, 0x7b, 0xbe,
  0x21, 0x0a, 0xaa, 0xbd, 0x1b, 0x8d, 0xf2, 0xbe, 0x3d, 0xc7, 0x16, 0x3e,
  0x36, 0x0e, 0x0f, 0x3e, 0x3e, 0x1a, 0x81, 0x3e, 0xcc, 0xc3, 0x1b, 0x3e,
  0xdc, 0x49, 0x5b, 0xbf, 0xdb, 0xca, 0x58, 0xbd, 0x49, 0xe4, 0xf9, 0x3d,
  0x0a, 0x2b, 0x37, 0xbd, 0x67, 0x3c, 0x03, 0xbe, 0xc0, 0x25, 0x7e, 0x3d,
  0x0b, 0x60, 0xe7, 0x3d, 0x5b, 0x11, 0x11, 0xbd, 0x9c, 0x34, 0x80, 0xbd,
  0x30, 0x1b, 0xe7, 0xbb, 0xd6, 0x3a, 0xa8, 0xbd, 0xce, 0x84, 0xda, 0x3e,
  0xb7, 0x4c, 0x8a, 0x3e, 0x90, 0xd2, 0x12, 0x3e, 0x23, 0x73, 0x82, 0x3c,
  0x06, 0xe3, 0x3a, 0xbd, 0xc9, 0xd7, 0x46, 0xbf, 0xd0, 0xc6, 0x6b, 0xbd,
  0xbb, 0x26, 0x0a, 0xbe, 0x9b, 0xae, 0xc3, 0xbe, 0xd3, 0x48, 0xd3, 0xbd,
  0x7b, 0xf1, 0x67, 0xbe, 0x6c, 0x5e, 0xeb, 0x3d, 0xd4, 0x05, 0x6e, 0x3e,
  0x9a, 0x86, 0x2c, 0xbf, 0x08, 0x77, 0x15, 0xbe, 0x27, 0xa8, 0x23, 0x3e,
  0x73, 0xb4, 0x83, 0x3e, 0x83, 0x3c, 0x97, 0x3e, 0x83, 0xdf, 0x88, 0xbe,
  0x70, 0x0d, 0xb4, 0x3e, 0x98, 0xd1, 0xfe, 0x3d, 0xe3, 0x13, 0x9f, 0xbf,
  0x3b, 0x6e, 0x37, 0xbf, 0x7e, 0xb4, 0x17, 0x3e, 0x8b, 0xc8, 0x1f, 0x3e,
  0x34, 0x9c, 0x01, 0x3e, 0x5d, 0x53, 0x74, 0xbe, 0xfc, 0x91, 0xc4, 0x3e,
  0x5b, 0x19, 0x4c, 0x3e, 0x5b, 0xbf, 0xa7, 0xbf, 0xfa, 0xcb, 0x8b, 0xbe,
  0xfb, 0x5e, 0xca, 0x3d, 0x53, 0x11, 0xd8, 0x3e, 0xd6, 0xad, 0x4b, 0x3e,
  0x69, 0x38, 0x0f, 0xbe, 0x83, 0xef, 0x3f, 0xbc, 0xb1, 0x82, 0x24, 0x3e,
  0xad, 0x57, 0x8b, 0xbf, 0x8b, 0x38, 0xcc, 0xbe, 0xd6, 0xde, 0x11, 0xbc,
  0xbc, 0xe1, 0x80, 0xbf, 0xe9, 0x8c, 0xfd, 0x3c, 0x66, 0x0f, 0x9c, 0xbd,
  0x05, 0xfa, 0xb6, 0x3e, 0x45, 0x32, 0x08, 0x3e, 0xb9, 0xab, 0xad, 0xbf,
  0xd3, 0xbd, 0xb6, 0xbe, 0xaf, 0xd5, 0x6e, 0xbe, 0x73, 0xba, 0x73, 0xbf,
  0x3d, 0xff, 0x28, 0x3c, 0xac, 0x42, 0x99, 0xbe, 0xfe, 0x81, 0x8d, 0x3e,
  0xf7, 0x3f, 0x6f, 0x3e, 0x92, 0x52, 0x6c, 0xbf, 0x92, 0xc6, 0x7a, 0xbf,
  0xd2, 0x03, 0x05, 0xbf, 0x47, 0xf2, 0xa3, 0xbf, 0x48, 0xcb, 0x66, 0x3d,
  0x7b, 0x01, 0xa4, 0xbe, 0xb4, 0xf4, 0x22, 0xbe, 0xac, 0xdf, 0xba, 0xba,
  0x38, 0x8b, 0x9b, 0xbf, 0xfd, 0x72, 0xcc, 0x3e, 0x0b, 0x2d, 0xab, 0xbc,
  0xf0, 0x5a, 0x8a, 0xbd, 0xd5, 0xe9, 0x08, 0xbe, 0x30, 0x3b, 0x97, 0x3d,
  0xf0, 0x10, 0xcd, 0x3d, 0x4c, 0xe7, 0x84, 0x3e, 0xe3, 0xbc, 0xb3, 0xbe,
  0x50, 0x07, 0x92, 0xbe, 0x18, 0xc8, 0xb1, 0x3d, 0x63, 0xd5, 0xe4, 0xbd,
  0x03, 0xef, 0x89, 0xbe, 0xed, 0x09, 0xb1, 0x3c, 0xd5, 0x9b, 0x3f, 0x3d,
  0x89, 0xcd, 0xda, 0x3e, 0xc0, 0xf7, 0xa3, 0xbe, 0x30, 0xe4, 0x21, 0xbe,
  0x8c, 0x7c, 0xb6, 0x3d, 0x35, 0xd7, 0x2b, 0xbe, 0x3b, 0xf3, 0xb8, 0xbd,
  0xd2, 0xea, 0xd7, 0x3e, 0xc7, 0xec, 0xa9, 0x3e, 0xfc, 0xdc, 0xb4, 0x3d,
  0x3e, 0x6b, 0x15, 0xbe, 0x03, 0xae, 0x89, 0x3d, 0x2c, 0xe6, 0x12, 0x3e,
  0xa6, 0xcb, 0x6a, 0xbe, 0xa6, 0xc6, 0x2a, 0x3e, 0x40, 0x32, 0x27, 0x3e,
  0x25, 0x21, 0x2d, 0xbe, 0x11, 0x9b, 0xac, 0x3d, 0xc8, 0x36, 0x23, 0xbe,
  0x8c, 0x13, 0xb9, 0xbd, 0x44, 0xac, 0x8d, 0x3e, 0x5d, 0xa0, 0x98, 0xbe,
  0xf9, 0x09, 0x15, 0x3e, 0x17, 0xdd, 0x55, 0xbd, 0xc2, 0x21, 0x4e, 0xbf,
  0x98, 0x9b, 0x7d, 0x3e, 0xca, 0xdf, 0x24, 0x3e, 0x39, 0x41, 0x02, 0x3e,
